▁. 339531
, 336064
▁ 113074
▁மற்றும் 73498
0 42074
▁இந்த 40533
▁ஒரு 40219
▁என்று 37787
2 31237
; 27083
▁அவர் 23354
▁பிரதமர் 21606
▁வேண்டும் 17860
▁என்ற 17225
▁உள்ள 16722
த் 16080
▁மத்திய 15635
த்தை 15596
ப் 15316
▁இது 15218
▁திரு 13675
▁நான் 13450
: 13365
▁என 13359
▁இந்திய 12060
த்தின் 11975
ங்கள் 11805
▁அவர்கள் 11748
▁என்றும் 11634
▁அமெரிக்க 11434
▁மூலம் 11428
▁புதிய 11222
▁பல 11020
ச் 10956
00 10470
▁இருந்து 10340
▁அது 10274
1 10201
▁இந்தியா 10192
க் 10131
▁கூறினார் 10076
ம் 10013
த்திற்கு 9732
▁தேசிய 9275
▁மேலும் 9125
ல் 9047
▁அரசு 9018
▁மக்கள் 8986
▁வகையில் 8879
▁அந்த 8803
▁அரசியல் 8791
▁இருக்கும் 8766
▁நமது 8487
ையும் 8407
▁நாம் 8313
▁கடந்த 8174
▁ஆனால் 8123
▁பாதுகாப்பு 8115
மான 8111
ுள்ள 8049
▁என்பது 7920
▁முதல் 7913
ங்களை 7883
த்தில் 7853
மாக 7848
▁உள்ளது 7813
▁அல்லது 7676
▁பொருளாதார 7491
▁தெரிவித்தார் 7458
▁இரு 7340
3 7231
▁கொண்டு 7229
▁தனது 7229
▁அதன் 7140
▁சமூக 7011
▁சர்வதேச 6978
▁அமைச்சகம் 6965
▁குறித்து 6875
▁சில 6805
▁இன்று 6779
▁அமைச்சர் 6769
▁பற்றி 6730
▁உலக 6694
▁கொண்ட 6668
க்கு 6666
▁என் 6649
▁ஆண்டு 6648
5 6576
ும் 6556
▁பல்வேறு 6534
▁கர்த்த 6511
ப்பட்டுள்ளது 6262
ஷ 6218
மும் 6197
▁செய்ய 6194
▁செய்த 6184
▁தலைவர் 6174
19 6164
வும் 6150
▁அனைத்து 6141
ர் 6128
ுள்ளது 6027
▁இராணுவ 5909
▁நிதி 5904
▁கோ 5860
ின் 5817
▁“ 5804
▁முக்கிய 5782
▁கீழ் 5704
▁இரண்டு 5692
ைக் 5687
ன 5666
? 5645
க்கும் 5615
▁என்பதை 5602
▁வரும் 5522
▁துறை 5436
” 5431
▁மோடி 5429
▁பெரிய 5419
▁போன்ற 5394
▁வருகிறது 5375
ப்பட 5334
▁என்றார் 5273
ிக் 5225
ோம் 5213
▁கோடி 5193
த்தையும் 5172
▁நீங்கள் 5171
ேன் 5140
▁எ 5131
▁நாட்டின் 5115
ப்பட்ட 5114
▁கட்சி 5106
ுக்கு 5066
▁, 5053
ிருக்கிறது 5029
ே 5019
▁திட்டம் 5008
▁மீது 4983
▁இருந்த 4891
▁தொடர்ந்து 4886
ப்படும் 4876
4 4863
▁கொள்ள 4856
ிறேன் 4847
▁ரூ 4816
தாக 4805
▁மிக 4798
▁தொழில் 4790
▁மிகவும் 4765
18 4748
தை 4743
ன் 4734
▁தான் 4715
ையை 4695
த்த 4681
▁இந்தியாவின் 4678
▁வரை 4677
▁இந்தப் 4661
து 4649
வில்லை 4639
▁உறுதி 4606
▁நாங்கள் 4594
▁அரசாங்கம் 4569
▁பின்னர் 4557
ால் 4554
▁நிலை 4518
▁ஒவ்வொரு 4517
▁பொது 4511
வர்கள் 4501
வ 4452
▁பற்றிய 4424
ாத 4417
▁திட்ட 4414
▁போது 4413
▁எந்த 4410
▁முடியும் 4378
த்துக்கு 4375
ிய 4359
▁தங்கள் 4351
ப்ப 4348
▁தொழில்நுட்ப 4348
▁அவன் 4345
▁– 4343
▁இல்லை 4339
ின 4333
▁வந்த 4312
மா 4306
▁நரேந்திர 4289
ோ 4281
▁மாநில 4279
ங்களில் 4278
ுள்ளார் 4274
ிற 4271
▁அளவில் 4268
ிற்கு 4266
ான 4245
ிருந்த 4241
▁பி 4203
ங்களின் 4184
▁செய்து 4176
▁ஜனநாயக 4163
▁நீ 4160
ார்கள் 4152
▁எதிராக 4152
▁பெரும் 4088
ாக 4083
▁வேலை 4080
க்க 4061
ிக்கும் 4054
▁ஆகும் 4052
▁முறையில் 4049
ிறோம் 4048
▁குறிப்பிட்டார் 4038
▁நிலையில் 4028
ந்த 4023
ிக்க 4017
டன் 4012
வை 4012
▁தற்போது 4010
ப்பு 4004
▁அதிக 4002
வது 3996
வே 3996
ர்கள் 3983
▁என்ன 3980
▁அவரது 3968
ிலும் 3938
ப 3921
▁புஷ் 3912
ுடன் 3904
போது 3895
▁சேர்ந்த 3893
▁ஆகிய 3892
▁மீண்டும் 3875
ைகளை 3870
ச 3850
15 3847
ை 3844
ிக்கு 3843
▁ஐரோப்பிய 3839
6 3812
ங்களுக்கு 3810
▁நடைபெற்ற 3809
▁செய்யும் 3793
▁தேதி 3751
▁சுகாதார 3737
▁கூட 3725
▁அரசாங்க 3723
▁எதிரான 3719
விட் 3703
ஸ் 3702
▁இடையே 3667
▁மேற்கொள்ள 3665
ில் 3626
▁தெரிவித்த 3610
▁கல்வி 3601
▁தேவ 3595
▁நல 3585
▁வர்க்க 3575
▁இதில் 3574
ித்த 3563
ஷ் 3561
7 3560
▁இருந்தது 3530
ான் 3526
▁நாடு 3523
▁சோசலிச 3505
படி 3503
▁மூன்று 3501
▁தன் 3489
▁குறிப்பிட்ட 3474
▁குடியரசுத் 3459
▁பெற்ற 3457
▁இன்னும் 3442
▁ஐ 3442
▁கால 3431
▁இந்தியாவில் 3415
▁அடிப்படையில் 3411
ிருக்கும் 3410
மே 3406
▁குறித்த 3403
▁உருவாக்க 3399
▁அமைப்பு 3396
▁ஜன 3396
▁உ 3395
▁முன் 3395
▁இருக்க 3393
▁வழங்க 3388
ி 3385
▁பயன்படுத்த 3382
▁தகவல் 3372
▁உங்கள் 3345
வி 3340
▁அதே 3333
ுடைய 3312
ரை 3310
▁தொடர்பான 3302
ிலே 3288
ரின் 3285
▁போ 3278
▁உற்பத்தி 3269
▁இந்தக் 3261
▁வளர்ச்சி 3259
▁இருக்கிறது 3258
▁முதலாளித்துவ 3251
ப்படுத்த 3248
ட்ட 3247
▁சொல்ல 3243
ுக் 3238
17 3233
ுவதற்கு 3218
ியை 3209
ிகளை 3207
▁ஏற்படுத்த 3207
▁யுத்த 3183
▁வர்த்தக 3181
▁ஒப்புதல் 3179
▁ஜனாதிபதி 3179
▁இதன் 3167
ல 3164
▁அரசின் 3157
▁மாதம் 3157
8 3155
▁கொ 3155
▁போர் 3146
▁திட்டத்தின் 3142
▁இந்தத் 3130
▁அன்று 3124
த்துடன் 3118
த 3116
ுக்கும் 3116
▁ஆதரவு 3114
▁லட்சம் 3097
▁அப்பொழுது 3086
ஆம் 3082
ுள்ளனர் 3080
ிகள் 3078
ருக்கு 3066
▁சிறந்த 3063
▁தலைமை 3058
ாவின் 3048
ுள்ளன 3044
ரும் 3035
▁நிறுவனங்கள் 3034
▁அமெரிக்கா 3021
▁அறிவியல் 3019
▁அதிகார 3013
▁அத 3012
ுகிறேன் 3003
ம 3001
ய 2991
▁மே 2986
▁கூட்ட 2985
▁க 2983
ப்பட்டு 2980
ரோ 2971
▁உள்ளன 2962
▁மக்களின் 2958
ட 2950
▁மருத்துவ 2950
▁கூடிய 2928
ரி 2924
தான் 2921
▁முறை 2919
▁ராஜ 2917
▁செய்யப்பட்ட 2912
லை 2911
▁குமார 2911
▁எதிர்ப்பு 2905
ங்களையும் 2900
ங்களும் 2898
▁அவ 2893
▁ஏ 2893
▁நடவடிக்கை 2891
வாத 2888
▁பேர் 2882
▁மட்டுமே 2880
த்து 2878
த்தான் 2862
ிலிருந்து 2862
த்திற்கும் 2861
ுவது 2860
▁அதிகாரிகள் 2856
▁வேண்டிய 2855
▁தேர்தல் 2827
▁சட்ட 2825
ியில் 2824
▁ஒன்று 2821
▁கொடுத்த 2820
▁ஆகியவை 2817
லின் 2811
▁நடவடிக்கைகள் 2805
▁டாக்டர் 2804
▁இணைந்து 2802
த்துறை 2798
ஜ 2794
ப்பட்டது 2788
▁தர 2786
▁மனித 2786
ப்பை 2784
▁உன் 2779
▁அடுத்த 2778
ங்க 2776
▁தொழிலாளர்கள் 2770
▁விமான 2770
▁திறன் 2769
▁தொழிலாள 2767
ட் 2766
▁எனது 2766
▁கே 2761
ைகளுக்கு 2757
▁ஆய்வு 2756
ுத் 2750
▁விரும்ப 2748
ற்ற 2741
ினால் 2731
னா 2730
▁நிர்வாக 2727
▁போக்குவரத்து 2727
▁மக்களுக்கு 2726
▁கூற 2724
▁அதற்கு 2722
▁அதை 2709
▁குழு 2703
ீ 2699
த்தைக் 2694
▁சி 2671
▁அமைச்சரவை 2669
ர்களே 2667
▁பங்கு 2660
▁நெருக்க 2655
ிட 2653
▁காரணமாக 2652
▁மேம்படுத்த 2645
▁சென்ற 2640
ித்து 2637
பி 2636
▁குறிப்பாக 2634
▁முடிவு 2631
▁ஒத்துழை 2629
னர் 2616
▁வரி 2614
12 2613
! 2610
▁ஆம் 2607
ிருந்தது 2605
▁கொள்க 2604
ம்ப 2603
ைப் 2601
▁பயிற்சி 2597
▁மற்ற 2593
▁நாட்டில் 2592
டி 2591
▁சகோதர 2591
▁மாற்ற 2591
ினார் 2590
▁தங்களது 2590
ிருக்கிறார் 2578
▁மன 2578
▁எனக்கு 2566
▁கேட்ட 2562
▁நடவடிக்க 2561
▁நோக்கி 2552
ா 2549
▁உதவி 2549
▁செயல்படுத்த 2535
▁தெரிவ 2530
▁பிறகு 2530
▁ஒத்துழைப்பு 2526
▁இத்தகைய 2524
▁மில்லியன் 2524
ியின் 2523
▁ஒரே 2523
▁கண்ட 2522
ிகளின் 2515
▁காலத்தில் 2515
▁சிறப்பு 2515
▁முழுவதும் 2515
த்தைப் 2513
ர்களுக்கு 2508
▁ஒப்பந்தம் 2508
▁அலுவலகம் 2504
▁நேரத்தில் 2501
▁ஹ 2499
ர 2487
▁பயங்கரவாத 2486
▁இப்போது 2481
▁தொழிற்சங்க 2481
▁மேற்கொண்ட 2478
▁ஆ 2476
தாகவும் 2475
க 2472
ானது 2467
ுகளை 2466
▁பெற 2465
▁குறைந்த 2455
▁தமிழ் 2452
போ 2449
ித்துக் 2446
ுவதற்கான 2446
▁செய்தி 2437
▁மீதான 2436
ாமல் 2435
மை 2434
▁நடத்த 2428
▁சேவை 2426
▁தொடர்பாக 2424
9 2420
த்திலும் 2420
சி 2418
▁நல்ல 2417
▁இஸ்ர 2416
▁வர 2415
ிருக்க 2411
ரா 2406
ைகள் 2406
▁துறையில் 2406
ப்படுகிறது 2404
▁விவாத 2401
▁வ 2394
ைகளின் 2393
ுகிற 2392
▁நிறுவனம் 2388
▁ஐக்கிய 2385
▁தமது 2381
ாய 2380
▁அல்ல 2380
ப்போ 2378
▁கட்ட 2378
▁பட 2378
வர் 2369
ிருக்கிற 2365
▁தொடங்க 2362
னாகிய 2357
ுகிறது 2356
▁நடந்த 2350
▁முக்கியமான 2349
வேண்டும் 2348
▁குடும்ப 2347
ார 2346
▁அவை 2345
▁நாட்ட 2344
▁நாடுகள் 2342
▁அ 2341
▁நண்ப 2340
▁பிரதம 2335
▁கட்சியின் 2323
▁தொடர்பு 2323
மேல் 2321
▁நீர் 2318
▁தன்னுடைய 2312
ையில் 2310
▁பேசிய 2309
▁திட்டங்கள் 2306
ையின் 2304
▁ஏற்கனவே 2303
ிகளுக்கு 2301
▁கூறிய 2299
ந்து 2296
ிப்ப 2296
▁துணை 2294
தும் 2291
▁கூட்டத்தில் 2291
ண்ண 2290
,000 2287
▁படம் 2286
▁உணவு 2283
ினி 2280
16 2279
▁வந்து 2279
வன் 2275
ாவில் 2274
▁ஈரா 2272
▁உள்ளிட்ட 2272
தற்கு 2268
14 2265
வா 2263
ுக்கான 2263
▁அவர்களுக்கு 2262
▁அளிக்க 2261
▁ஷ 2256
▁சா 2251
▁கொடுக்க 2250
▁ஆக 2244
▁விட 2244
ர்களை 2241
▁முன்னாள் 2240
▁நடவடிக்கைகளை 2237
க்கள் 2234
▁சார்ந்த 2234
▁தொழிலாளர் 2233
▁வரு 2233
▁கொள்கை 2223
ார் 2217
▁தீவிர 2216
▁தொடங்கி 2215
▁மட்டும் 2211
▁‘ 2206
னை 2205
▁சுமார் 2202
25 2197
▁அறிவ 2196
▁த 2194
ோடு 2191
▁ச 2191
▁அவர்களின் 2183
▁இல்லாத 2172
▁சதவீத 2172
▁தனியார் 2167
▁கடன் 2166
தா 2162
▁புரிந்துணர்வு 2160
ொ 2159
▁ர 2155
ர்களின் 2152
ைகளில் 2150
▁இதற்கு 2149
லா 2146
▁பகுதியில் 2142
தில் 2139
ைகளையும் 2137
▁பிர 2136
ாலும் 2135
க்கான 2134
▁ந 2132
ைய 2130
ாகும் 2128
னின் 2125
மோ 2124
▁பகுதிகளில் 2124
ினர் 2116
த்தால் 2115
▁அரச 2114
ரே 2112
11 2111
ாவ 2110
▁நிதிய 2110
▁ப 2109
▁ஈராக் 2108
▁காண 2108
▁அடிப்படை 2106
▁அவருடைய 2105
ீர்கள் 2098
▁நிர்வாகம் 2094
▁ஜி 2091
▁நம்ப 2091
ிட்ட 2090
ாவை 2085
▁ஆண்டுகளில் 2084
▁தேவை 2080
▁பேச 2078
ள 2076
▁ஜ 2074
த்திற்கான 2061
▁உட்பட 2060
ண்ட 2054
▁முடியாது 2053
▁முழு 2052
▁உதவ 2049
▁கலந்து 2049
▁அவர்களை 2046
▁திட்டத்தை 2045
தன் 2042
▁பணி 2042
▁காட்ட 2036
▁ஏற்பட்ட 2035
▁குறை 2033
▁பண 2029
▁பயன 2026
▁போல் 2024
▁நாள் 2023
’ 2019
▁எண்ணெய் 2011
▁நிகழ்ச்சியில் 2011
▁உதவும் 2004
▁அனைவரும் 2003
▁இயக்க 2002
▁கொண்டார் 1997
▁ஆகியவற்றை 1996
▁கட 1989
▁அளித்த 1985
த்திலிருந்து 1982
▁சதவீதம் 1982
ுவ 1980
ருடைய 1977
மானது 1974
▁சிறு 1971
▁செலுத்த 1961
▁உயர் 1960
▁விவசாய 1960
▁ஜனநாயகக் 1959
ிடம் 1953
ியும் 1953
▁ஆராய்ச்சி 1953
ஐ 1951
▁பே 1950
▁ஏற்பாடு 1949
▁நிறுத்த 1947
▁அறிக்கை 1945
ப்பட்டுள்ள 1940
த்துவ 1936
ரில் 1936
ியாக 1936
ுத 1936
▁வருகின்றன 1935
ைத் 1926
ிகளும் 1922
▁பதிவு 1920
▁இதர 1919
ுதல் 1917
▁தேச 1915
▁நான்கு 1908
▁அளிக்கும் 1904
▁வசதி 1900
ோர் 1895
▁வெற்றி 1895
ுகள் 1890
▁சட்டம் 1883
▁பின் 1881
▁ஆண்டில் 1879
▁இடம் 1879
▁மொத்த 1878
▁தேவையான 1876
வின் 1867
▁கிழக்கு 1859
▁விரோத 1859
லுக்கு 1854
▁எனவே 1851
▁அழைப்பு 1850
▁நிறுவன 1846
▁மாத 1846
மாய 1843
▁ஒப்பந்த 1842
▁அதிபர் 1840
வோ 1839
▁இட 1839
ிவ 1838
▁அரசாங்கத்தின் 1835
▁உள்நாட்டு 1835
▁முக்கியத்துவம் 1833
ருக்கும் 1824
▁அளவு 1822
▁இலங்கை 1821
▁என்னும் 1820
▁எப்படி 1820
▁ஸ் 1816
▁இப்பொழுது 1812
லில் 1810
▁சுதந்திர 1810
ிக்கப்பட்ட 1808
ையாக 1808
▁தொழில 1807
▁நம் 1807
▁அதில் 1803
▁ரயில் 1801
▁திரும்ப 1799
▁முக 1799
ரம் 1798
▁ஒருவர் 1797
▁வாய்ப்பு 1792
▁வாழ்த்த 1792
டே 1791
ுகிறார் 1786
▁செல்ல 1784
▁பரந்த 1780
▁பிற 1776
▁முன்பு 1774
▁இணைய 1768
▁தலைமையில் 1766
▁நவீன 1766
▁சீ 1765
ிகளையும் 1762
ர்களும் 1761
21 1756
▁சிங் 1754
▁ஜேர்ம 1751
▁எண்ணிக்கை 1750
▁இவை 1749
▁முன்ன 1749
▁கொண்டுள்ளது 1748
▁நம்பிக்கை 1747
ிக 1739
▁ஆதரவ 1739
▁தலை 1739
▁வேறு 1739
ன்று 1738
▁நாடுகளின் 1737
▁மனு 1737
ுக்க 1736
▁பிராந்திய 1734
▁கொடு 1731
▁பொ 1728
▁கேட்டுக் 1725
▁பில்லியன் 1725
▁மிகப் 1716
▁தற்போதைய 1714
▁யோ 1714
▁தீ 1713
▁பயணம் 1706
த்திலே 1703
▁அங்கு 1703
▁செ 1700
ட்டும் 1699
▁ரயில்வே 1699
ுவதில் 1698
▁வங்கி 1698
▁இயக்கம் 1697
▁எடுக்க 1694
▁மேம்பாட்டு 1689
▁மேற்பட்ட 1689
▁உறுதிய 1687
▁மின் 1685
▁உலகம் 1684
னும் 1683
▁இதுவரை 1676
ப்பட்டுள்ளன 1675
ச்ச 1674
லாம் 1674
13 1671
ண 1670
ப்பதற்கு 1670
மி 1670
ரிய 1670
▁மார்ச் 1670
▁ஐந்து 1667
▁அதாவது 1666
▁மந்திரி 1664
▁நாடாளுமன்ற 1663
விட 1660
▁சோ 1659
22 1653
க்களை 1652
ாளர்கள் 1651
▁சிறிய 1647
▁எதிர் 1646
ியுள்ளது 1644
▁துணைத் 1643
▁ஆளும் 1642
▁மாணவர்கள் 1642
மாய் 1641
▁சென்னை 1639
▁சொந்த 1638
▁பெரு 1637
▁நியாய 1635
▁சென்று 1625
▁நீண்ட 1622
▁முயற்ச 1622
ுக 1621
▁கடுமையான 1621
டு 1616
மையை 1616
▁சீர்திருத்த 1616
▁தாக்குதல் 1615
தோடு 1614
மாகும் 1610
ள் 1610
்தான் 1610
▁ஆயுத 1610
▁பார்க்க 1610
வர்களுக்கு 1606
ற 1605
▁இதை 1603
▁கவனம் 1603
▁அமெரிக்காவின் 1602
▁பிரிவு 1602
ிடத்தில் 1601
▁ஏப்ரல் 1601
▁மிகுந்த 1600
த்துக்கும் 1598
▁படத்தில் 1594
▁ம 1594
ங்கள 1592
▁மூல 1586
ெ 1585
▁விடுதலைப் 1585
▁கை 1584
▁மறு 1583
▁பிரச்சார 1579
▁தொழில்நுட்பம் 1578
▁தக 1576
▁வலது 1575
ுவதற்காக 1573
▁அனைவருக்கும் 1573
பா 1571
▁பாராட்ட 1570
ட்டு 1567
▁இணை 1566
▁அதிகமான 1565
▁டி 1563
ப்படுத்தும் 1562
▁அவர்களது 1560
000 1557
▁அத்தகைய 1557
▁என்றான் 1556
▁நாட்டு 1555
▁ஒன்றை 1553
▁திட்டங்களை 1553
▁இன் 1552
▁கா 1549
▁கொண்டிருக்க 1549
▁வழங்கும் 1549
▁கூட்டு 1546
ும 1545
▁கிராம 1544
▁வள 1542
க்குப் 1541
▁புது 1540
▁முடியாத 1538
▁சமத்துவ 1534
▁ஜே 1533
▁போல 1529
ிகள 1527
▁துரு 1527
▁பகுதி 1527
▁எதிர்பார்க்க 1525
▁அளவிற்கு 1524
▁சுய 1524
▁விவசாயிகள் 1523
▁இ 1522
▁ஊடக 1522
ஜி 1520
வில் 1520
ாக்க 1520
▁நிறைவேற்ற 1520
▁உலகின் 1519
▁இல்லாமல் 1518
ுகளில் 1517
ந்திர 1516
ாள 1515
▁வி 1513
▁விலை 1513
▁வேளாண் 1513
ங்களைப் 1510
▁எரிசக்தி 1510
▁டிஜிட்டல் 1508
சே 1506
ரு 1506
ையா 1504
ிக்கப்பட்டது 1503
ிருப்பது 1503
▁குறிப்பிடத்தக்க 1502
▁சங்க 1498
▁: 1496
▁அமைச்ச 1494
▁அவருக்கு 1494
▁அச்சுறுத்த 1493
▁முன்னணி 1488
னிய 1487
0,000 1486
▁எடுத்த 1486
ு 1485
▁சரி 1482
▁மேம்பாடு 1482
▁கட்ச 1480
▁அளவிலான 1477
ாவும் 1475
வதற்கு 1474
ாளர்களுக்கு 1474
▁சந்த 1473
▁கிடைக்கும் 1471
▁தே 1468
ஆர் 1466
▁இருதர 1465
▁கட்டமைப்பு 1465
▁எரிவாயு 1463
▁ஒட்டுமொத்த 1462
▁பேச்சுவார்த்த 1461
தாகும் 1459
▁வைக்க 1453
▁ஓ 1452
க்கூடிய 1447
தே 1447
▁0 1446
▁சமுதாய 1446
▁ஜூன் 1446
▁நாடுகளில் 1446
▁பொருட்கள் 1446
▁முயற்சி 1441
▁வெளிப்படுத்த 1441
▁ஏற்படும் 1439
▁மிகப்பெரிய 1438
ிருக்கின்றன 1437
▁தலைவர்கள் 1436
▁பல்கலைக்கழக 1436
னுக்கு 1434
▁முடிவ 1434
ஸ 1433
▁பிரெஞ்சு 1433
▁ஆகியவற்றின் 1432
▁இவர் 1432
▁தடை 1432
ப்பது 1431
ுக்காக 1430
க்கில் 1428
▁அமைப்பின் 1427
▁மக்களை 1427
▁வலியுறுத்தினார் 1427
டை 1424
▁தவிர 1424
▁இந்தியாவ 1423
▁மோ 1422
ில 1421
▁செப்டம்பர் 1416
▁எல்லா 1415
▁கொண்டுள்ள 1414
▁பெ 1413
▁எஸ் 1412
▁தலைமையிலான 1411
▁குற்ற 1409
ல்கள் 1407
▁அக்டோபர் 1407
▁காரணம் 1404
▁மணி 1402
ங்களுக்கும் 1400
ூ 1400
க்கப்பட்ட 1399
ாவுக்கு 1399
▁பாதிக்கப்பட்ட 1399
▁அனுமதி 1398
பட 1397
▁செயலாளர் 1395
24 1394
▁அவசியம் 1394
▁ஓர் 1393
ுவதாக 1392
ாகவும் 1390
▁இயற்கை 1390
ிறார்கள் 1389
▁கருத்து 1386
ையே 1385
ப்பதற்கான 1383
▁பாத 1383
▁தள்ள 1381
▁கட்டுப்படுத்த 1380
▁நா 1380
▁பாராளுமன்ற 1379
▁எம் 1378
▁பு 1378
தி 1377
ையையும் 1375
▁பட்ட 1374
▁ல 1371
▁வைத்த 1369
▁இயக்குனர் 1368
▁இருந்தாலும் 1368
ங்களிலும் 1367
ால 1362
▁உரிய 1362
▁இங்கு 1361
▁பணிகள் 1360
வு 1359
த்தக்க 1357
▁ஆகியோர் 1357
▁கூடுதல் 1356
▁பொறுப்பு 1356
▁லட்ச 1354
ைகள 1352
▁உண்மையான 1350
▁செய்வது 1350
லும் 1347
ுக்கள் 1347
ைகளும் 1347
▁வேல 1347
▁ஜனவரி 1346
▁முற்றிலும் 1346
▁செயல் 1345
▁வலியுறுத்த 1344
▁விரைவில் 1342
▁என்னை 1341
யா 1340
னுடைய 1339
ிருக்கிறார்கள் 1339
ிருந்தார் 1338
▁வெளிநாட்டு 1338
▁உறுதிப்படுத்த 1336
▁ஏற்ப 1336
▁பிரச்சின 1335
லி 1333
ியது 1331
▁எடுத்துக் 1330
▁சுட்டிக்காட்ட 1329
ப்பின் 1327
ிரு 1327
▁பிரதான 1326
▁பிறந்த 1326
தற்காக 1325
▁உள்துறை 1325
▁பங்க 1325
▁முயற்சிகள் 1325
ாது 1322
▁இதே 1320
▁சீன 1320
▁சுகாதாரம் 1318
▁உயர்த்த 1316
▁எங்கள் 1315
▁மத 1312
ிற்கும் 1311
்க 1311
▁வார 1309
▁முதலீடு 1308
ப்பதில் 1307
▁இடையிலான 1306
▁கன 1306
▁மின்சார 1306
▁விநியோக 1306
▁அவரை 1304
▁இராஜ 1304
▁இரண்டாவது 1303
▁உறுப்பினர்கள் 1301
▁தூய்மை 1300
ட்சி 1297
▁உள்ளூர் 1297
▁பார்த்த 1297
ிறார் 1296
▁ஏகாதிபத்திய 1296
▁வகை 1294
▁நடத்திய 1292
▁நடந்து 1292
▁துறைகளில் 1291
ங்களைக் 1289
கா 1288
▁குறித்தும் 1288
▁பயன்படுத்தி 1287
ப்படுகின்றன 1286
▁எதிர்கால 1286
▁ஜூலை 1285
பே 1284
▁மூத்த 1283
▁ஒ 1281
ப்பில் 1280
த்தைத் 1279
மு 1279
▁தின 1277
ங் 1276
வன 1273
▁ஊக்க 1273
ஸ்ட 1272
ெல்லாம் 1272
▁தன்மை 1272
▁பெண்கள் 1272
▁சமாதான 1271
▁மற்றொரு 1271
▁வந்தது 1271
▁கூட்டம் 1270
சா 1269
▁ஆண்டுகளுக்கு 1268
▁தள 1268
▁இதனால் 1267
ாவது 1266
▁பெறும் 1266
▁கொண்டனர் 1265
▁பிரதமரின் 1265
ந்துள்ள 1264
▁இடங்களில் 1264
▁இடையேயான 1264
▁கையெழுத்த 1263
▁படத்தை 1260
▁முன்னர் 1260
ுகளையும் 1259
▁பிரதேச 1258
▁தொகை 1257
▁அவர்களுடைய 1255
▁மாற்றம் 1255
ப்படவில்லை 1250
▁சந்தை 1248
▁வாழ்க்கை 1247
▁ஆட்சி 1245
▁அதிகமாக 1244
மற்ற 1243
ிகளில் 1242
▁படை 1242
▁இடது 1241
▁சகல 1240
▁இராணுவம் 1238
▁தேர்வு 1238
ஏ 1237
▁ரூபாய் 1237
ுகளுக்கு 1236
▁இந்தியாவை 1236
▁அளவுக்கு 1234
ையான 1233
▁பாரம்பரிய 1233
▁முன்னேற்ற 1233
தால் 1232
▁வலு 1232
▁தேர்தலில் 1230
▁பெண் 1229
▁புற 1228
▁தலைய 1227
டும் 1226
▁என்றால் 1226
▁மேல் 1225
▁நில 1224
▁பங்களிப்பு 1224
ிலான 1223
▁சதவிகித 1223
▁செல்லும் 1223
▁நவம்பர் 1222
▁முந்தைய 1222
்த 1221
▁சக்த 1221
▁எடுத்து 1220
▁இளைஞர்கள் 1219
▁பயண 1219
னில் 1214
ாம 1214
▁திருமதி 1214
▁புத்திர 1214
டிய 1213
ிகளுடன் 1213
▁உள்ளனர் 1213
நா 1212
▁ஆர் 1210
▁நேரடி 1210
▁உங்கள 1208
▁மாவட்ட 1207
▁ஆர்ப்பாட்ட 1205
▁நிலைய 1205
▁நிறைந்த 1204
ராக 1203
வர்கள 1201
▁கேட்க 1201
▁விடுத்த 1201
ாலே 1200
இ 1198
ுவதை 1198
▁ட 1196
ேய 1195
▁ஊதிய 1194
▁சொன்ன 1194
▁கொண்டது 1191
▁போக 1191
▁அமைச்சகத்தின் 1190
▁கூடுதலான 1190
▁கூறியுள்ளார் 1190
▁திற 1190
▁வைத்து 1190
ாம் 1189
▁ஊழிய 1189
▁சக்தி 1188
▁வெளியிட்ட 1188
ிறது 1187
▁வாய்ந்த 1187
மாறு 1186
▁மைய 1186
▁ரஷ்ய 1185
ியா 1183
▁நி 1183
எம் 1182
▁உங்களுக்கு 1181
▁பகிர்ந்து 1181
▁பர 1181
▁மா 1181
▁இளைஞ 1180
ய் 1179
ளை 1178
▁ஆறு 1178
▁விசாரணை 1178
வர்களை 1177
▁வா 1174
ஸ்க 1173
▁குழுவின் 1173
▁ட் 1171
▁நேற்று 1171
▁குழந்தைகள் 1170
▁வருக 1170
▁அப்போது 1169
▁கிட்டத்தட்ட 1169
▁குற்றம் 1169
ுகின்ற 1168
▁ஏற்ற 1168
▁கிராமப்புற 1166
▁பேர 1166
▁இத 1165
▁பெயர் 1165
▁மேற்கு 1165
ரான 1163
▁ஆலோசனை 1163
▁எண்ண 1163
▁ஸ்ரீ 1162
▁சுற்றுலா 1161
▁உரிமைகள் 1160
▁மாநாட்டில் 1160
▁இந்தச் 1159
ல்களை 1158
▁கலாச்சார 1158
▁மக்கள 1158
▁உரிமை 1157
▁நிலையை 1157
▁படத்தின் 1157
▁நடைபெறும் 1156
▁நகர 1155
ின்ற 1154
▁இடையில் 1154
▁இவர்கள் 1154
ல்ல 1153
▁அடுத்து 1152
ுக்களை 1151
ினார்கள் 1149
▁கொள்ளும் 1149
▁நோக்க 1149
வர்களின் 1148
▁வாங்க 1148
▁பற்றியும் 1146
▁அனுப்ப 1145
▁நிறுவனத்தின் 1145
▁கைது 1144
ாய் 1143
▁அக 1143
▁அடை 1141
▁உம்ம 1140
▁ஐநா 1140
▁காலம் 1140
▁கூ 1140
▁நடைபெற 1140
▁சூரிய 1139
மாகவும் 1138
▁தீர்வு 1136
ீர் 1135
▁ஆக்க 1135
▁மேலாண்மை 1135
வரை 1134
▁அறிவித்த 1134
▁ஏராளமான 1134
▁செய்தது 1132
▁மாறாக 1132
▁இன 1131
▁உடனடியாக 1131
▁உண்டு 1131
எஸ் 1129
ந்துள்ளது 1129
▁ஆரம்ப 1129
▁மு 1129
ுகளின் 1127
▁அந்தப் 1126
▁இன்றைய 1126
▁வழி 1126
ங்களுக்கான 1125
னி 1125
▁உச்சி 1125
▁தாக்குத 1125
வேல் 1123
ஸ்த 1121
▁விட்ட 1121
▁உண்மையில் 1118
▁விரிவான 1118
▁கிடைத்த 1117
▁ஆசிய 1116
▁சிகிச்சை 1116
▁சேர்ந்து 1115
▁எனக் 1113
▁சு 1113
ிகளுக்கும் 1112
▁பழைய 1110
▁ல் 1110
▁ஆண்டுகளாக 1109
▁நினைவு 1109
ந 1108
ிக்கான 1105
ிருப்பதாக 1105
▁பணம் 1103
▁உயர்ந்த 1102
▁வலுவான 1102
ாவிற்கு 1101
▁சேவைகள் 1101
▁வயது 1100
▁குடியரசு 1099
▁நட 1098
▁பிரான்ஸ் 1098
▁அதிகரிக்க 1097
▁விழாவில் 1096
▁உடன்ப 1095
ிக்கொண்ட 1093
▁மேலாக 1093
▁ராணுவ 1093
▁கொண்டிருந்த 1092
ரவ 1090
▁நலன் 1090
ிருந்து 1088
▁ஒருங்கிணைந்த 1087
▁கொடுக்கும் 1087
ஹ 1086
▁வாஷிங்டன் 1086
ற்று 1084
▁நோய் 1084
▁முன்பாக 1084
▁கூட்டணி 1083
்கள் 1082
ப்பட்டன 1081
▁தயாராக 1081
ப்புகள் 1080
▁பீ 1079
▁மகிழ்ச்சி 1079
▁வர்த்தகம் 1078
ோபாய 1077
ம்தான் 1076
▁சிறப்பான 1075
▁ஏற்படுத்தும் 1072
▁மதிப்ப 1072
▁அர்ப்பண 1071
▁தொடக்க 1071
▁வை 1071
▁வைத்தார் 1071
▁தீவிரவாத 1070
▁வாத 1069
▁போலீ 1067
▁கப்பல் 1064
▁போலீஸ் 1063
▁மாற 1062
ைகளைக் 1060
ங்களாக 1059
▁வணிக 1059
நிலை 1057
▁பூ 1057
▁செய்தார் 1056
▁விளையாட்டு 1056
▁வாஷி 1055
▁இருப்பதாக 1054
▁மையம் 1054
▁ஆப்கானிஸ்த 1053
▁திட்டமிட்ட 1051
▁ஓய்வூதிய 1050
▁பெரும்பாலான 1050
சார் 1049
▁கலந்துர 1049
▁பதில 1048
ரையும் 1046
▁செயல்பட 1046
பின் 1045
ப்பும் 1044
ின்றனர் 1044
் 1044
▁முதலாவது 1044
▁பதிலாக 1042
மாகக் 1041
▁நெருக்கடி 1041
▁வாரம் 1038
ைக்கு 1036
▁இணைப்பு 1036
▁நடிக்க 1036
▁முன்னேற்றம் 1036
▁வெட்ட 1036
▁ஆகியவற்றில் 1035
▁ஆகஸ்ட் 1033
க்காக 1032
▁அணு 1031
▁பார 1030
31 1029
க்கட 1029
விட்ட 1029
த்தைச் 1028
▁பொருளாதாரம் 1028
▁விருது 1028
▁வேலைநிறுத்த 1028
மைய 1027
▁நேரம் 1025
▁விஷய 1025
▁எதுவும் 1024
ாகிய 1022
▁என்பதில் 1022
▁அமைக்க 1021
▁உருவாக்கிய 1021
▁போராட்ட 1021
▁ஆண்ட 1020
டியை 1019
▁ஏனைய 1019
▁காங்கிரஸ் 1019
ிர 1018
▁நன்றி 1018
ினை 1016
▁புல 1016
▁செய்வதற்கு 1014
▁சாதாரண 1012
பக் 1011
▁விட்டு 1011
▁ஆண்டுகள் 1010
▁மூலமாக 1009
▁அறிவித்தார் 1008
▁சரியான 1007
23 1006
▁ஈராக்கிய 1006
▁அங்கே 1005
▁அதிகரி 1004
▁நமக்கு 1004
▁இரண்டாம் 1003
▁டிசம்பர் 1003
ப்படாத 1002
▁கொண்டிருக்கும் 1002
▁நிர்ணய 1002
னோ 1001
ற்போ 1001
▁ஊக்குவ 1001
ித 999
▁அதிகம் 999
▁ஆணைய 999
▁வசதிகள் 999
▁வெளியே 999
சாரி 998
▁துறையின் 998
ங்களுடன் 997
▁அடையாளம் 997
ுதான் 995
▁மாநாடு 995
▁முன்னிட்டு 995
எ 994
ிருப்ப 994
▁அள 994
▁நேர 994
க்கள 993
▁கலை 993
ுடனான 992
▁சாலை 992
ருடன் 991
▁டாலர் 991
▁சுற்றுச்சூழல் 990
க்கார 989
க்கூடும் 989
ர்களுக்கும் 989
▁என்னவென்றால் 989
▁ஏன் 989
▁கொண்டுவர 989
▁நாளை 989
ஞ்ச 988
▁நிறைவு 988
26 987
▁இடத்தில் 987
▁கிடைக்க 986
▁ய 986
▁இருப்பது 985
▁ஆக்கிரமி 984
▁சே 984
▁விளக்க 984
த்துக்கான 982
னே 982
▁உருவாக்கும் 982
▁சம 982
▁தொழில்துறை 982
▁பகுதியாக 981
▁வங்க 979
த்திற்காக 978
▁கணக்க 978
▁நீடித்த 978
ங்களால் 977
▁எவ்வாறு 977
▁பொருள் 977
▁கண்டு 976
▁மின்னணு 976
▁மூ 975
லோ 974
ிற்கான 974
▁பணியாற்ற 974
▁போய் 974
▁வாக்க 974
▁நேரடியாக 973
▁மெ 973
▁வித 973
▁ஆயிரம் 972
▁விற்பனை 972
▁மதிப்பு 971
▁இதனை 970
மில்லை 968
▁இதோ 968
ப்படு 967
▁ஆணையம் 967
▁இஸ்ரே 967
▁என்றாலும் 967
▁நிறுவனங்களின் 967
த்திட்ட 966
▁மாநிலம் 966
▁சிர 965
▁அமைச்சக 964
▁அதனை 963
▁ஸ்திர 963
▁அமைப்புகள் 961
▁எந்தவொரு 961
▁சாத்திய 961
▁தண்ணீர் 961
▁தொடங்கிய 961
▁நடுத்தர 961
▁நிலைமை 961
▁வேலைவாய்ப்பு 961
ண்டு 960
ப்பிர 959
ங்ட 958
ைக்க 958
▁இர 958
▁கூடாது 958
▁சந்தேக 958
▁சோச 958
▁தீர்மான 958
▁மத்தியில் 958
லாக 957
▁எழுதிய 957
▁சம்பந்தப்பட்ட 957
▁மேம்பாட்ட 957
▁அமை 956
▁மாநிலங்கள் 956
▁முன்னோ 956
ித் 955
▁இஸ்ரேல் 955
▁செல 954
▁பிரிவ 954
▁மாநிலங்களில் 954
▁மக 953
ூட 952
▁கொண்டிருக்கிறது 952
▁உரையா 950
▁கதை 950
▁செய்துள்ளது 950
▁நாட்கள் 949
▁பத 949
▁உணர்வ 948
▁ஊரக 948
▁அவர்கள 946
▁ஒன்றாக 946
▁செயல்படும் 946
▁நகர்ப்புற 946
▁படைகள் 946
▁அதிகாரி 945
▁இஸ்ரேலிய 945
▁கவலை 944
▁செலவு 944
▁நிகழ்ச்சி 944
▁பின்பற்ற 943
▁போதிலும் 942
▁எதிர்ப்ப 941
▁திருந 941
▁தெற்கு 941
▁நடைமுற 941
ஷன் 940
▁வெளியிட 940
▁அலுவலக 939
▁நோக்கம் 939
▁யார் 939
▁யூத 938
▁பட் 937
ங்களைத் 936
▁கொலை 936
▁அகற்ற 935
ைகளைப் 934
▁அந்தக் 933
▁கவன 933
▁நடைமுறை 933
▁அச்ச 931
▁அளிப்ப 929
▁தடுப்பு 929
னம் 927
▁குறைக்க 927
▁செய்யப்படும் 927
▁வாச 927
வரும் 926
▁அனைத்தும் 926
▁உழைக்கும் 926
▁ஏனெனில் 926
த்துக் 925
▁ஆயு 925
▁யோகா 925
த்தின 924
▁ஏற்றுமதி 924
▁அக்க 923
▁அடி 923
▁அறிந்த 923
ாவாக 922
▁கைய 922
ன்கள் 921
▁கு 921
▁முயற்சிகளை 921
▁அமைதி 920
▁துற 920
ென்று 919
▁லே 919
சார 918
▁விடுதலை 918
▁உடைய 916
▁மொத்தம் 916
▁பெரிதும் 913
ாளர் 912
▁எனவும் 912
▁நிர்வாகத்தின் 912
▁பா 911
▁புதுதில்லியில் 910
▁வருமான 910
▁கேள்வி 909
▁சார்பில் 909
ட்ச 908
▁ஆதரவை 908
▁இப்படி 908
▁வரலாற்று 908
▁வேலைவாய் 908
ைச் 906
▁உண்மை 906
▁தெரிவித்தனர் 906
▁அமையும் 905
▁தனிப்பட்ட 905
▁படி 905
▁பரிசுத்த 905
க்கம் 904
▁பெற்று 904
ித்தார் 902
தாவது 901
▁யூனியன் 901
வீ 900
▁கம்யூனிஸ்ட் 900
▁வலுப்படுத்த 900
▁நடித்த 899
▁நாடுகளுக்கு 899
▁பின்பு 899
▁வடக்கு 899
▁அவசர 898
▁இருக்கிற 898
▁பார் 898
▁விவகார 898
▁நீதி 897
▁பேச்ச 897
ரால 896
ையுடன் 896
▁இறுதியில் 896
▁அம 894
▁உறுதியாக 894
▁சமீபத்தில் 894
75 893
▁பலர் 893
படுத்த 892
▁குஜராத் 892
▁தா 892
சக 891
▁கட்சிய 891
▁மண்டல 890
ஆ 889
▁பொதுமக்கள் 889
▁வழங்கப்படும் 889
த்திர 888
▁அளித்துள்ளது 888
▁அமெரிக்காவில் 887
▁உரை 887
▁தொற்று 887
▁காந்தி 886
ர்க் 884
ிலேயே 884
▁ஆதார 884
▁உலகில் 884
▁உலகளாவிய 883
▁நடக்க 883
ுகளும் 882
▁கடல் 882
▁காட்சி 882
அ 881
▁அடைய 881
ிக்கப்பட்டுள்ளது 880
▁போருக்கு 880
க்த 879
ழ 879
ிருந்தனர் 879
▁ஒன்றிய 879
▁பொருட்களை 879
த்திய 877
▁முதலில் 877
வான 876
வார்கள் 876
ைக்கான 875
▁இறுதி 875
▁வருகின்றனர் 875
▁பாவ 874
▁ஈடுபட்ட 873
▁கருத்தில் 873
▁அதிகாரம் 871
▁தங்களின் 871
▁விருப்ப 871
ங்களது 870
▁கல 870
▁பிரிட்டிஷ் 870
▁மிக்க 870
ியான 869
▁இலக்கு 869
▁உறுப்பினர் 869
▁ஏற்பட்டுள்ள 868
▁டெ 867
ப்படுத்தி 866
▁உலகப் 866
▁ஜோ 866
ஷா 864
▁எடுத்துக்காட்ட 864
ரொ 863
ர்க்கோ 863
▁நன்கு 863
▁முழுமையாக 863
ங்களைச் 862
▁தனி 862
▁முறையை 862
ப்பதற்காக 861
▁பாலஸ்த 861
வாக 859
▁அதிகரித்து 859
▁உடல் 859
▁முதலீட்ட 859
▁எமது 858
தியை 857
▁இதுபோன்ற 857
▁பதவி 857
▁ஜேர்மன் 856
▁நடைபெற்றது 856
▁திறந்து 855
▁பணிகளை 855
▁வடகிழக்கு 855
▁அப்ப 854
▁தலைவர்களும் 854
▁பால 854
▁ரோ 853
முள்ள 852
▁அந்நிய 852
▁அறிமுகப்படுத்த 852
▁தன்னை 852
ுகிறோம் 851
▁தகவல்கள் 851
▁விமானப் 851
ைகளுக்கும் 850
▁அண்மையில் 850
▁தாக்கல் 850
▁பண்ண 850
▁போட்ட 850
▁வெ 850
▁ஒப்புக் 849
▁சீனா 849
▁நாட்டை 849
▁போட்டி 849
▁அனுபவ 848
▁திட்டத்தில் 848
மிக்க 847
▁அடிப்படையிலான 847
▁சதவிகிதம் 847
▁தயாரிப்பு 847
ப்பா 846
ிக்கொள்ள 846
ிவிட 846
▁எதிர்க்க 846
▁நிலக்கரி 846
▁பய 846
▁சிலர் 845
▁விழா 845
▁பென் 844
▁முன்னதாக 844
▁வெற்றிகரமாக 844
வுள்ள 843
▁இயக்கத்தின் 843
▁இருக்கின்றன 843
▁உருவாக்கப்பட்ட 843
▁அவற்றை 842
▁விண்ணப்ப 842
▁மீ 841
எஸ்டி 840
மாக்க 840
லே 840
ாள் 840
ிகா 840
ர்த 839
▁அடிக்கல் 839
▁அடையாள 839
▁கள 839
▁கூடுதலாக 839
▁பாரத 839
▁முறையாக 839
ட்டில் 838
▁விளைவாக 838
சை 837
ிவிட்டது 837
▁அவனை 836
▁சோதனை 836
▁பிரதிநிதிகள் 836
▁க்கு 835
28 834
▁தவிர்க்க 834
றும் 833
ரித்த 832
▁செல் 832
த்தினால் 831
▁வீட்டு 831
மான் 830
ினாலும் 828
▁குறு 828
ிகளே 827
▁உறுப்பின 827
ீனிய 826
ுக்குக் 826
ுள்ளதாக 825
▁இனி 825
க்கூடாது 824
▁தயார் 824
▁நாட்களில் 824
▁நீதிமன்ற 824
▁கடற்படை 823
▁தூ 823
பு 822
ித்தது 822
▁அனுமதிக்க 822
▁தங்க 822
▁தொடர்ப 822
▁பரிசோதனை 822
▁மோச 822
ர்களாக 821
▁தாம் 821
ிலுள்ள 820
▁ஏழை 820
▁ஒதுக்க 820
ண்ட் 819
ற்றிய 819
ாகக் 819
▁ஆகையால் 819
▁தொடர்புடைய 819
▁பரவ 818
ானில் 817
▁உன்ன 817
▁மேற்கொண்டு 817
▁வருவதாக 817
ிப்பது 816
▁கொடுத்து 815
▁கோட 815
▁சிறப்பாக 815
▁தயாரிப்ப 815
▁இளம் 813
▁குரு 813
▁செலவின 813
▁பயன்படுத்திக் 813
▁அமைக்கப்பட்ட 812
▁வில 812
27 811
▁வெளியுறவு 811
▁தேர்ந்தெடு 810
▁வெள்ள 810
▁பத்திரிகை 809
▁இலக்க 807
▁நிகழ்ச்ச 807
▁வளர்ந்து 807
க்கி 806
▁எதிர்கொள்ள 805
▁வருகை 805
▁ஈ 804
▁தூண்ட 803
▁மருந்து 803
ப்பதை 802
ுக்குத் 802
▁ஏழ 802
▁காவல் 802
▁புரிந்து 802
▁மகத்தான 802
தற்கான 801
▁அல் 801
ப்பான 800
ரக 800
ையைப் 800
ையொட்டி 800
▁என்பதால் 800
▁நன்ற 800
ுங்கள் 799
▁உணர்வு 799
▁உயிர 799
▁விசாரண 799
வோம் 798
ுகின்றன 798
▁இல் 798
▁தரும் 798
▁அகில 797
▁அத்துடன் 795
▁செயல்பட்டு 795
▁அவற்றின் 793
▁எட்ட 793
▁ஏழு 793
▁மையங்கள் 793
வர்களும் 792
ாட்ட 790
▁ஒப்ப 790
▁பணியில் 790
▁கணிசமான 789
▁நே 789
▁வாகன 789
▁உதவிய 788
▁கி 788
▁ஈரான் 787
▁சம்பவ 787
▁வே 786
ிக்கப்படும் 785
▁வாழ்த்து 785
டா 784
ளித்த 784
▁அவனுக்கு 784
▁முக்கியத்துவ 784
▁வழ 784
▁விடு 784
ப்படுவது 782
▁தொலை 782
▁முழுவதிலும் 782
ிவிட்ட 781
▁தெளிவாக 781
▁முதலீட்டு 781
▁பார்த்து 780
▁பேசினார் 780
▁அதிகரிக்கும் 779
▁தாங்கள் 779
▁தெரிவிக்க 779
▁விரிவுபடுத்த 779
▁செலுத்துவ 778
▁பதில் 778
ாதம் 777
ுக்குப் 777
ுற 777
▁சவால 777
▁செய்கிறது 777
▁தினம் 777
▁முழுமையான 777
▁வட 777
ரிடம் 776
29 775
ையைக் 775
▁தி 775
▁பிடித்த 775
டிக்கு 774
ாவுடன் 774
ையிலும் 774
▁அறிக்கையில் 774
▁உடன் 774
▁ஒன்றில் 774
▁தாக்க 774
வதாகவும் 773
▁ஏற்றுக் 773
▁பாக்கி 773
▁வேண்டியது 773
▁அதிகரித்த 772
▁சோவியத் 772
▁இசை 771
▁வர்க்கம் 771
▁வெள்ளை 771
டியின் 770
▁அப 770
▁அமைச்சரவ 770
▁கருத்த 770
▁பாதுகா 770
35 769
ள்ள 769
▁டால 769
▁மிகப்பெரும் 769
▁வீட்ட 769
டைய 768
த்துவம் 768
▁காட்டுகிறது 768
▁கிள 768
க்குச் 767
▁தரு 767
▁தொழிலாளர்கள 767
▁வாக்கு 767
▁பங்கேற்ப 765
▁மாநிலத்தில் 765
க்கை 764
த்தி 764
ிருப்பத 764
▁சத 764
▁ரா 764
ங்கு 763
ாமலும் 763
▁உங்களது 763
▁கவ 763
▁நடத்தி 763
▁பத்து 763
▁மிகக் 763
▁வழங்கிய 763
எல் 762
க்கணக்கான 761
▁என்பதையும் 761
▁பால் 761
▁போக்க 760
▁எல் 759
▁குழுக்கள் 759
▁ஜப்பான் 759
ட்டி 758
▁நலத்துறை 758
மாகிய 757
ாக் 757
▁இழ 757
▁உமது 756
▁சப 756
▁போலவே 755
தோ 754
ப்பாட்டை 754
▁கிடையாது 754
▁பிரச்சினை 753
டுத்த 752
▁வலைத் 752
▁பெருமை 751
▁மோசமான 751
▁அணி 750
▁இந்தியப் 750
▁காட்டிய 750
▁புலிகளின் 750
▁வளர்ச்சியை 750
▁உயர 749
▁எடு 749
▁வாய்ப்புகள் 749
தையும் 748
▁குற்றச்சாட்ட 748
▁செய்யப்பட்டது 748
▁தீர்க்க 748
▁பங்களிப்பை 748
▁பசு 748
▁அல 747
னையும் 746
ின்படி 746
பிர 745
▁ஆழ்ந்த 745
▁எடுக்கப்பட்ட 745
▁ஒன்றும் 745
▁கடந்து 745
▁தடு 745
▁நாள 745
▁வசதிகளை 745
▁குறிப்பிட 744
▁சட்டத்தின் 744
▁புலிகள் 744
▁அடைந்த 743
▁ஏற்க 743
▁ஆயிரக்கணக்கான 742
க்குள் 741
வதற்கான 741
▁கிலோ 741
▁ராஜா 741
ராகிய 740
▁உடன்படிக்க 740
▁யூரோ 740
ேச 739
▁அளிக்கிறது 739
▁உயிர் 739
ுடனும் 738
ுவதற்கும் 738
யம் 737
▁உச்ச 737
▁து 737
▁மகாத்மா 737
▁முதல 737
மின் 736
▁வரையிலான 736
ின்றன 735
ைக 735
▁பிரதிநித 735
ிவரும் 734
▁திருத்த 734
ட்டிய 733
ையோ 733
▁சமீபத்திய 733
▁தேவன் 733
▁பார்வ 733
வதில் 732
ுவரும் 732
▁முடிந்த 732
▁வீர 732
நாத் 731
முறை 731
▁கரு 731
▁தடுக்க 731
▁நிராக 731
ப்படுவதை 730
ிக்கவும் 730
▁அதி 730
▁சேவ 730
▁டைம்ஸ் 730
▁பாரத் 730
▁பூகோள 730
▁வாய்ப்ப 730
▁தாய் 729
▁அறிந்து 728
▁சக 728
▁தசாப்த 728
▁விவசாயிகளின் 727
▁இஸ்லாமிய 726
▁தந்த 725
▁அரசுகள் 724
▁ஜம்மு 724
▁எச்ச 723
▁அதிகரித்துள்ளது 722
▁குறுகிய 722
ர்கள 721
▁அர 721
தாகக் 720
▁உர 720
▁நடக்கும் 720
▁இதற்காக 719
▁கெ 719
▁வீடுகள் 719
ராஜ் 718
ிருக்கிறேன் 717
ும்ப 717
▁இருவரும் 717
ிகளால் 716
▁திர 715
▁பாதுகாக்க 715
▁வருகிறார் 715
டுவதற்கு 714
ாரத்தில் 714
ிப் 714
▁அவர்களே 714
▁சேர்க்க 714
▁தொழிலாளர்களின் 714
▁விவகாரங்கள் 714
▁அப்படியே 713
▁அளித்து 713
▁மேம்ப 713
▁விவசாயிகளுக்கு 713
ஜ் 712
ுக்கொண்ட 712
▁சொல்லி 712
▁விழ 712
▁எதிர்த்து 711
▁கட்சிகள் 711
▁செய்தல் 711
மீது 710
▁ஆண்டின் 710
▁நகரில் 710
▁மகளிர் 710
▁முற 710
▁ஹோ 710
▁முடிவுகள் 709
டுக்க 708
மையான 708
▁ஒபாமா 708
▁காலை 708
▁நம்பிக்க 708
▁போராட்டம் 708
க்குக் 707
ப்படுத்தப்பட்ட 707
ுவார்கள் 707
▁எப்போதும் 707
ப்பத 706
▁அனைவரையும் 706
▁தட 706
▁தய 706
▁நலன்களை 706
ந்தார் 705
பவர்கள் 705
▁பாதுகாப்புத் 705
ருக்க 704
▁காண்ப 704
▁தில்லி 704
▁நிலவ 704
ட்டின் 703
▁தொழிலாளர்களை 703
கு 702
ுக்கொண்டார் 702
▁இந்து 702
▁மதிப்பீடு 702
வுடன் 701
ையைத் 701
்ச 701
▁மாதத்தில் 701
▁வங்கிகள் 701
▁இருந்தார் 700
▁கலந்துரையாட 700
மையாக 699
▁அதனால் 699
▁உள்ளடக்கிய 698
ஸ்ப 697
ுகிறார்கள் 696
▁நாணய 696
▁வெறும் 696
விய 695
▁இருந்தன 695
▁கட்டண 695
▁கண்காணிப்பு 695
▁நம்முடைய 695
▁ஆலோசன 694
▁இந்தியாவுக்கு 694
▁தீர்வ 694
▁நிறுவ 694
▁புதிதாக 694
ர்களுடன் 693
▁அரசாங்கத்தை 693
▁ஆரோக்கிய 693
▁தொடர் 693
▁ஆய 692
▁திறனை 692
▁நெடுஞ்சாலை 692
▁முன்னுரிமை 692
்களை 691
▁எல்லை 691
▁கால் 691
▁பொதுவான 691
▁விஷயம் 691
▁வேட்ப 691
கம் 690
▁ஈரான 690
▁தாராள 690
ிவிடும் 689
▁உருவாக்கி 689
▁குவ 689
பிய 688
▁தொ 688
▁நடந்தது 688
ப்புக்கள் 687
ரியா 686
▁உத்தரவ 686
▁உறவுகளை 686
▁நாடாக 686
▁வந்துள்ளது 686
▁வரவு 686
▁நாட 685
▁போரை 685
▁வீடு 685
▁ஆஸ்திரேலிய 684
▁வாழும் 684
படிய 683
▁கட்டளைய 683
▁தொலைபேசி 683
▁விஞ்ஞான 683
திய 682
ெடு 682
▁இந்தியாவும் 682
▁தகவல்களை 682
▁இலாப 681
▁ஊ 681
▁வெளி 681
ஜன 680
ாளிகள் 680
▁ஹெ 680
லையும் 679
▁கொள்கைகள் 679
▁செலுத்தும் 679
▁பாதுகாப்புப் 679
▁போன 679
▁விண்வெளி 679
ந்தது 678
ப்புகளை 678
ஸ்கி 678
ித்தனர் 678
▁செய்தனர் 678
▁பங்கேற்க 678
ிகளுக்கான 677
▁உட்பட்ட 677
▁நடிகர் 677
▁பாராட்டினார் 677
▁வார்த்த 677
ஓ 676
ந்துள்ளனர் 676
படியே 676
▁பொறுப்ப 676
▁கட்டுப்பாட்டு 675
▁விரைவாக 675
டுவது 674
ிகளாக 674
▁பகிரங்க 674
ப்பிற்கு 673
ப்போம் 673
▁அங்க 673
▁அனை 673
▁கட்டாய 673
▁மின்சாரம் 672
▁யின் 672
ித்தல் 671
ிருந்தன 671
▁உட்படுத்த 671
பூ 670
ர்க்க 670
ுவேன் 670
▁குறைவான 669
▁யூ 669
▁நினைக்க 668
▁மாற்றத்தை 668
▁வீரர்கள் 668
▁ஹீரோ 668
பர் 667
▁அச 667
▁வெளிப்படையாக 667
▁ஸ்த 667
த்தோடு 666
ின்றது 666
▁உறவுகள் 666
▁கட்டுப்பாட்ட 666
ரிக்க 665
▁கிர 665
▁செய்வதற்கான 665
▁பெருந்த 665
க்கிய 664
▁புதுப்பிக்க 664
▁போதுமான 664
திக்கு 663
மைக் 663
▁ஆனாலும் 663
▁கிடை 663
▁கூடும் 663
லிஸ்ட் 662
ிக்கொண்டு 662
▁டன் 662
▁நாடுகளும் 662
ண்ணி 661
று 661
▁குண 661
▁படப்பிடிப்பு 661
▁வகையிலும் 661
▁போரில் 660
த்திற்குள் 659
▁எச்சரிக்க 659
▁மரண 659
ுகின்றனர் 658
▁பாதிப்பு 658
▁விகிதம் 658
▁வெளிப்படையான 658
வான் 657
▁ஆத 657
▁பட்டண 657
ட்டை 656
துடன் 656
ிடையே 656
▁இருப்பு 656
▁உள்ளார் 656
▁கூறி 656
▁கொள்கையை 656
▁தக்க 656
▁மேலாதிக்க 656
▁எரிச 655
▁வந்துள்ள 655
▁அழுத்தம் 654
▁தனக்கு 654
ற்ச 653
▁வரையில் 653
▁வழக்கு 653
டிக்க 652
மன் 652
▁எங்களுக்கு 652
▁விட்டது 652
ப்புக்கு 651
ாகப் 651
ையானது 651
▁தீர் 651
▁போரா 651
த்தம் 650
▁கடைசி 650
▁சபை 650
▁சரக்கு 650
▁நீண்டகால 650
தில்லை 649
▁ஆற்றல் 649
▁இதுதான் 649
▁தட்ட 649
▁தேர்த 649
▁மூலதன 649
ுவிட்ட 648
▁சம்பள 648
ங்கி 647
ஸில் 647
ுவதன் 647
ைகளுக்கான 647
▁அனைத்தையும் 647
▁அவள் 647
▁ஆற்றிய 647
▁குடிநீர் 647
▁நெருக்கமான 647
▁பரஸ்பர 647
ந்தர 646
ைகளைத் 646
▁ஓய்வு 646
▁செயல 646
▁நாடுகளுக்கும் 646
▁பூர்த்தி 646
▁மசோதா 646
▁மால 646
▁வெளிப்பட 646
ாளர்களை 645
▁சதவீதமாக 645
▁திரைப்பட 645
▁மட்டுமின்றி 645
▁விசார 645
▁விதத்தில் 645
ந் 644
ிப்போ 644
▁கண 644
்களுக்கு 643
▁கணக்கான 643
▁கார் 643
▁நிறுவனங்களுக்கு 643
▁மறை 643
ளவில் 642
விட்டது 642
ில்தான் 642
▁ஊழியர்கள் 642
▁எதிர்கொண்ட 642
▁மோத 642
வர்களாக 641
வ் 641
▁சும 641
▁மகிழ்ச்ச 641
ிருந்தால் 640
▁கடுமையாக 640
▁சந்திர 640
▁சுதந்திரம் 640
▁தன்மையை 640
▁பேரில் 640
▁வாக்கள 640
ராஜ 639
▁எல்லாம் 639
▁எவ்வித 639
▁நிற்க 639
▁மிகச் 639
வேன் 638
▁ஜெனரல் 638
▁தவ 638
▁தொழிற்க 638
▁நிறைய 638
▁அழுத்த 637
▁சிக்க 637
▁சிங்கள 637
▁பதிவ 637
ஷ்ட 636
▁கூறியது 636
▁சமூகப் 636
▁பின்ன 636
ர்களையும் 635
ிற்காக 635
ுகையில் 635
▁இராணுவத் 635
▁திட்டத்திற்கு 635
▁மேற்கொள் 634
▁இருந்தால் 633
▁உறவ 633
▁செயலகம் 633
▁பெயரில் 633
போல 632
▁அமைந்த 632
தம் 631
மையில் 631
ஸின் 631
ாளர்களும் 631
▁அமல்படுத்த 631
▁இங்கே 631
▁என்பதற்கு 631
▁குடியரசுக் 631
▁வருவாய் 631
▁இவ்வாறு 630
▁சிவ 630
▁செயல்ப 630
▁நோ 630
▁முயற்சியில் 630
▁மூன்றாவது 630
▁குடிமக்கள் 629
▁தமிழ்நாடு 629
▁துறைமுக 629
▁மந்த 629
▁ஸ்ட 629
▁உறுதியான 628
▁சாட்ட 628
▁தெ 628
▁நினை 627
▁நடவடிக்கைகளில் 626
▁நடைபெற்று 626
▁வழிகாட்ட 626
▁வைக்கப்பட்ட 626
▁விவர 625
▁அடங்கும் 624
▁தொற்ற 624
▁பகுதிகள் 624
▁பேச்சு 624
வேண்டிய 623
ுவார் 623
க்கின் 622
ிடும் 622
▁நடத்தப்பட்ட 622
0, 621
கோ 621
ல்க 621
ுகள 621
▁கோரிக்க 621
▁வாய்ப்புகளை 621
▁ஊழல் 620
▁தோ 620
▁மாபெரும் 620
தைப் 619
▁மாற்று 619
லாத 618
வதற்காக 618
ும்போது 618
▁இளைஞர் 618
▁சூழல் 618
ைகளிலும் 617
▁அன்ப 617
▁பிரச்சாரம் 617
ஃப் 616
▁உணவுப் 616
▁கொள்கைகளை 616
வதை 615
▁இருப்ப 615
▁உங்களை 615
▁மருத்துவமன 615
▁மாணவர் 615
▁மாதங்களில் 615
▁வழங்கி 615
45 614
த்திற்குப் 614
▁போன்று 614
னு 613
ரால் 613
ுகளைப் 613
ையிலிருந்து 613
▁ஆவண 613
▁காஷ்மீர் 613
▁சிந்த 613
▁பங்கேற்ற 613
▁அறிவு 612
▁ஆசிரியர் 612
▁பாராட்டு 612
▁பேச்சுவார்த்தை 612
்த் 611
▁ஆக்கிரமிப்பு 611
▁இயக்கத்தை 611
▁ஜீ 611
▁மீட்டர் 611
ண் 610
▁இலக்கை 610
▁தங்களை 610
▁தடுத்து 610
▁கண்டன 609
▁குடி 609
▁குண்டு 609
▁திட்டங்களுக்கு 609
▁தூய் 609
ப்புத் 608
ஸ்தான 608
▁அரசாங்கத்திற்கு 608
▁வலியுறுத்திய 608
மைச்சர் 607
▁அனுப்பி 607
▁சால 607
மீ 606
வார் 606
்ட 606
▁அவனுடைய 606
▁பெருநிறுவன 606
ிட்டது 605
▁அருகில் 605
▁உடை 605
▁என்பதே 605
▁நாடுகள 605
ையாகும் 604
்த்த 604
▁கூறுகிறது 604
▁பட்டியலில் 604
▁மேற்கொள்ளப்பட்ட 604
ட்சிய 603
ருவ 603
ிருப்பதை 603
▁இருப்பதை 603
▁எதிர்ப்பை 603
▁கத 603
▁கொள்முதல் 603
▁பிராந்தியத்தில் 603
வர 602
வுள்ளது 602
▁இயக்குநர் 602
▁உன்னை 602
▁ஒதுக்கீடு 602
▁மாநிலத்தின் 602
ஜீ 601
தின் 601
ருக்கான 601
ல்களுக்கு 601
ிடமிருந்து 601
ிப்பதற்கு 601
▁வருவது 601
ளிப்ப 600
ிக்கப்படுகிறது 600
▁பிரச்சினைகள் 600
▁வளர்ச்சிக்கு 600
▁தீவிரமாக 599
▁ரீதியான 599
இல் 598
▁உற்பத்திய 598
▁கோப 598
▁நிறை 598
▁வருட 598
▁ஹூ 598
ித்துவ 597
ோட 597
▁அறிவுறுத்த 597
▁ஒப்பு 597
▁தரம் 597
▁முன்ப 597
சன் 596
ரீ 596
▁தொலைக்காட்சி 596
▁விஜய் 596
த்தினர் 595
ப்புக் 595
▁ஒருங்கிணை 595
லைப் 594
▁ராம் 594
32 593
வர்களில் 593
ைத்த 593
▁இதற்கான 593
▁சாதனை 593
▁செல்வந்த 593
▁பாடு 593
▁மேற்க 593
▁இணைந்த 592
▁பிரச்சன 592
▁ரீ 592
▁ரொ 592
ணம் 591
▁அறிய 591
▁தலைவராக 591
▁மாலை 591
டைந்த 590
ப்போல 590
▁இல்ல 590
▁குரல் 590
▁நாம 590
▁விரிவாக்க 590
▁வேகமாக 590
ீட்டை 589
▁அமைச்சர்கள் 589
▁கூட்டமைப்பு 589
▁தாக்குதலை 589
▁வீ 589
ர்களில் 588
▁ஆசாரிய 588
▁எல்ல 588
▁செய்யவும் 588
▁நாட்டுக்கு 588
▁ன் 588
▁பாதிப்ப 588
ராம் 587
▁தேவைப்படும் 587
▁பெருக 587
▁மும்பை 587
விற்கு 585
▁அப்படி 585
▁நகரங்களில் 585
▁மாதிரி 585
ாட்டை 584
▁அறிக்கையை 584
▁சொல் 584
▁நுகர்வோர் 584
மாகப் 583
▁ஆப்கானிஸ்தான் 583
▁சுங்க 583
▁தெளிவான 583
ியே 582
▁அதிப 582
▁சவு 582
▁புக 582
ிகளைப் 581
▁பிரிக்ஸ் 581
▁மகா 581
▁வைரஸ் 581
ாகவே 580
ென 580
டியில் 579
டுகிற 579
ப்படுவதற்கு 579
ப்பி 579
ுவோம் 579
▁ஆப 579
▁உற்பத்தியில் 579
▁கணக்கில் 579
▁பயணிகள் 579
▁லா 579
தற்கும் 578
த்தின்கீழ் 578
▁உடன்படிக்கை 577
▁எச்சரிக்கை 577
▁திவ 577
ர்க 576
▁கழகம் 576
▁கோரிக்கை 576
▁சுற்று 576
▁பிப்ரவரி 576
ிம 575
ுக்குள் 575
▁அமைப்ப 575
▁உட 575
▁வளர்ச்சிக்கான 575
▁வேளையில் 575
ங்கம் 574
ித்துள்ளது 574
ினான் 574
▁அறிக்க 574
▁ஆத்திர 574
▁பாரிய 574
▁பேரிடர் 574
▁மெட்ரோ 574
▁யா 574
மையின் 573
ுவிட 573
▁ஏதும் 573
▁கொள் 573
▁சட்டத்தை 573
▁தலைவரான 573
▁நிலையான 573
▁போதும் 573
மய 572
ுத்த 572
▁காரிய 572
▁ஜாத 572
▁தேசத்தின் 572
▁அம்சங்கள் 571
▁அளிக்கப்பட்டது 571
▁தயாரிக்க 571
▁தெரிய 571
▁வாய்ப்பை 571
▁விழிப்புணர்வு 571
லைக் 570
▁அணுசக்தி 570
▁தூய்மையான 570
▁மருத்துவக் 570
▁வன்முறை 570
▁வாழ்க்கையை 570
சோ 569
▁அமைந்துள்ளது 569
▁ஒட்டி 569
▁மானிய 569
சிய 568
ஸ்ட் 568
ிகளைக் 568
ிக்கிறது 568
▁கணக்கு 568
▁தொழில்முனை 568
▁மீதும் 568
▁வேளாண்மை 568
ையெல்லாம் 567
▁தொட 567
▁போராட்டத்தில் 567
▁இருந்தும் 566
▁உத்தர 566
▁திட்டமிட 566
▁போட 566
▁மருந்துகள் 566
▁மேற்கொள்ளும் 566
▁வல்ல 566
▁வழியாக 566
த்தார் 565
▁எவ்வளவு 565
விட்டு 564
▁ஏற்றுக்கொள்ள 564
▁கருத்தை 564
▁காப்பாற்ற 564
▁தரமான 564
▁கவுன்சில் 563
▁சவால்களை 563
▁வகுப்பு 563
தைத் 562
▁பொதுத்துறை 562
னாக 561
▁எளி 561
▁பெறுவதற்கு 561
▁முட 561
▁வட்ட 561
ர்வ 560
ிட்டு 560
▁ஆகியவற்றுக்கு 560
▁இரவு 560
சன 559
ுகளைக் 559
ுமாறு 559
ைகளால் 559
▁எண் 559
▁நடத்துவ 559
▁வருகிறார்கள் 559
ேக 558
▁அத்தியாவசிய 558
▁பிரிவில் 558
லான 557
ாரி 557
▁உடன்பாடு 557
▁அடங்கிய 556
▁அதைப் 556
▁ஆயுதங்கள் 556
▁உண்ட 556
▁காத்த 556
▁குண்ட 556
▁தாக்குதல்கள் 556
▁பணியை 556
▁அபிவிருத்தி 555
▁ஆய்வ 555
▁நிரூப 555
▁காலத்திற்கு 554
▁தொடர 554
▁பிணை 554
ாச 553
ாளர்களின் 553
▁நீக்க 553
▁பாகிஸ்தான் 553
▁பிரிவுகள் 553
மாறும் 552
▁உரிமைகளை 552
▁உள்பட 552
▁குறைந்து 552
▁குழந்தை 552
▁நிலையங்கள் 552
ிப்பதற்கான 551
▁அருகே 551
▁எரிபொருள் 551
▁ஏற்படுத்தி 551
▁நிவாரண 551
▁முன்வை 551
ிப்பதற்காக 550
ேந்திர 550
▁கொண்டுவ 550
▁மனதில் 550
▁முனை 550
▁வாயிலாக 550
ந்த் 549
மையையும் 549
▁இன்னொரு 549
▁என்னுடைய 549
▁பணியாளர்கள் 549
▁பள்ளி 549
ன்க 548
▁உரையாற்றினார் 548
▁திட்டங்களின் 548
▁நின்று 548
▁பிரதேசம் 548
▁பெருமளவில் 548
செ 547
யில் 547
▁இரகசிய 547
▁உறவு 547
▁கடும் 547
▁சட்டவிரோத 547
▁ஜெ 547
▁திருப்பி 547
▁நாயுடு 547
▁நிதியா 547
னால் 546
மைப் 546
▁அமெரிக்கப் 546
▁இருக்கிறார் 546
▁தினத்தை 546
த்தா 545
▁அணுக 545
▁உத்தியோகபூர்வ 545
▁நடத்தும் 545
▁பணியாளர் 545
▁சலுக 544
▁திரட்ட 544
▁வரவேற்க 544
ன்ம 543
ிப்பை 543
ிழ 543
▁ஒன்ற 543
▁ஒன்றியம் 543
▁செயல்பாடுகள் 543
▁தெளிவ 543
றி 542
▁ஒருவன் 542
ணி 541
ன்ப 541
ளிக்கும் 541
▁செலவில் 541
▁வாழ்க்கையில் 541
த்தன்மை 540
ிற்குள் 540
▁பட்டய 540
▁புதுப்ப 540
▁வெகுஜன 540
சு 539
▁சேர் 539
▁வகையான 539
வதாக 538
▁சந்தர்ப்ப 538
▁சுட்டிக் 538
▁சுயாதீன 538
▁விஷயங்கள் 538
தொரு 537
▁ஆல 537
▁உள் 537
▁பங்களிப்ப 537
▁ரி 537
ப்பதாக 536
▁எட்டு 536
▁தவறான 536
▁நடவடிக்கையை 536
▁” 536
தலை 535
▁சாதன 535
▁செய்யப்பட்டு 535
▁தொடக்கத்தில் 535
▁பருவநிலை 535
▁பொறுத்தவரை 535
▁வாழ் 535
ப்புப் 534
ுகளைத் 534
▁வழியில் 534
செய்ய 533
ப்படி 533
மள 533
▁உன 533
▁சாவ 533
▁தங்களுடைய 533
▁மேம்பாட்டுத் 533
▁வகையிலான 533
▁அவன 532
ந்துள்ளன 531
மைக்கு 531
ிருக்கின்றனர் 531
▁மழை 531
முய 530
▁அனைத்துலக 530
▁அறிவிப்பு 530
▁கருத்துக்களை 530
▁நட்பு 530
▁பத்திரிக 530
▁மட்டுமல்ல 530
▁வான 530
▁அறிவிக்கப்பட்ட 529
▁தில்லியில் 529
தியில் 528
ப்பட்டனர் 528
ழு 528
▁அழை 528
▁கிழக்கில் 528
▁சூழ்நிலையில் 528
▁சொ 528
முடியாத 527
லிய 527
▁ஆரம்பத்தில் 527
▁மாற்றி 527
டோ 526
ித்தன 526
▁கண்டனம் 526
த்துக்காக 525
ியையும் 525
ிற்க 525
▁காரண 525
▁நானும் 525
▁விரைவு 525
ன்ஸ் 524
ப்படுத்துதல் 524
மர் 524
ொள்க 524
▁எதையும் 524
▁எனப்படும் 524
▁ஏற்படுத்திய 524
▁குறைந்தபட்ச 524
▁நப 524
▁ஆர்வம் 523
▁உத் 523
▁தொகுப்பு 523
▁நிபுண 523
▁ஷா 523
125 522
த்தல் 522
▁பொதுவாக 522
திர 521
▁உயிரி 521
▁எதிர்கொள்ளும் 521
▁பிரிவின 521
▁போன்றவை 521
க்கிற்கு 520
டக 520
வுக்கு 520
ால்தான் 520
▁என்பதுதான் 520
▁கூறியுள்ளது 520
▁சென்னையில் 520
▁சேவைகளை 520
▁தண்டனை 520
▁தேவைகளை 520
▁யுத்தம் 520
▁வன 520
▁வேலைகள் 520
ியாய 519
▁அளிக்கப்பட்ட 519
▁இந்தியக் 519
▁ஒழுங்கு 519
▁கொள்ளலாம் 519
▁சத்த 519
▁முடிந்தது 519
▁விடுக்க 519
ஷம் 518
▁குறைந்தது 518
▁சிற 518
▁தளபதி 518
▁நிதியமைச்ச 518
▁பற்றிக் 518
▁இத்த 517
▁இயக்கத்தில் 517
▁இருக்கிறார்கள் 517
▁உரிம 517
▁உளவு 517
▁கொண்டாட்ட 517
▁சேமிப்பு 517
▁ஞான 517
42 516
வுத் 516
▁உள்கட்டமைப்பு 516
▁ஏற்பட்டது 516
▁கர 516
▁கருத்துக்க 516
▁சங்கம் 516
▁படுகொலை 516
▁பை 516
ண்டில் 515
னார்கள் 515
பல 515
போதும் 515
ாலா 515
ாவே 515
▁அளித்தது 515
▁இறக்குமதி 515
▁புனித 515
▁மந்திர 515
▁ரீதியாக 515
என் 514
கே 514
ிக்கப்பட்டு 514
▁நாளில் 514
▁நியூ 514
▁பாரதம் 514
▁யோக 514
ரமான 513
▁ஆசிரியர்கள் 513
▁உனக்கு 513
▁கருத்துக்கள் 513
▁தமிழீழ 513
▁நூற்றுக்கணக்கான 513
நாள் 512
ையால் 512
▁ஏற்பட்டுள்ளது 512
▁கூட்டுறவு 512
▁சுத 512
▁தெரியும் 512
▁மாவட்டங்களில் 512
▁வேண்டாம் 512
த்தோ 511
லைத் 511
ிருந்தாலும் 511
ுவதும் 511
▁அடிக்கடி 511
▁இதுவே 511
▁இவ 511
▁பிந்தைய 511
▁வழக்க 511
மைகள் 510
ர்தான் 510
▁அதிகாரத்துவ 510
▁செயலர் 510
ப்பின 509
▁சூ 509
▁தொடர்ச்சியான 509
தைக் 508
னைய 508
லு 508
▁அற 508
▁இருப்பினும் 508
▁குறைவாக 508
▁போட்டியில் 508
▁வருங்கால 508
ரைப் 507
ிருப்பதாகவும் 507
▁அடைக 507
▁பணியாற்றி 507
▁போய 507
▁வரலாறு 507
ப்படுத்திய 506
▁அடல் 506
▁செய்துள்ள 506
▁புறப்பட்டு 506
▁பெற்றது 506
▁வங்கியின் 506
▁அடிப்படையாகக் 505
▁சமாள 505
த்திடம் 504
▁அமைப்பை 504
▁சின்ன 504
▁பாதுகாப்ப 504
நோக்கு 503
▁ஒற்றுமை 503
▁தொடங்கியது 503
▁நிலையம் 503
▁பன்முக 503
▁முஷ 503
▁அக்கறை 502
▁எது 502
▁எனும் 502
▁கல்லூரி 502
▁தயாரிக்கும் 502
▁தலைவர்கள 502
▁பொருளாதாரத்தை 502
▁மரியாதை 502
த்தது 501
▁இளைய 501
▁குமாரதுங்க 501
▁சீர 501
ஜெ 500
ர்களிடம் 500
ஷின் 500
ுதலை 500
▁இருதய 500
▁எதிர்பார் 500
▁செயல்பட்ட 500
▁டாலர்கள் 500
▁தாக்குதலுக்கு 500
▁தொழில்நுட்பத் 500
▁பரிந்துரை 500
▁மாவட்டத்தில் 500
ாண 499
▁அரசுக்கு 498
▁இலங்கையில் 498
▁ஊர 498
ட்டர் 497
ளிக்க 497
ுவிட்டது 497
ேயும் 497
▁ஆன்லைன் 497
▁திறந்த 497
▁மேம்படுத்தும் 497
▁ரூபாய 497
▁வைக்கும் 497
தியான 496
ுவத 496
▁நான்காம் 496
▁நிலைக்கு 496
▁மொ 496
வத 495
▁அழ 495
ப்பதன் 494
▁சந்தோ 494
ஆவது 493
ல்லா 493
▁புலனாய்வு 493
▁மொழி 493
வாதிகள் 492
▁இயேசு 492
▁ஒன்றியத்தின் 492
▁தாவீது 492
▁புத்த 492
▁பொன் 492
ஜா 491
மானால் 491
ாகி 491
▁கீழே 491
▁சந்திக்க 491
▁நடைமுறைப்படுத்த 491
▁நல் 491
▁பற்றாக்குறை 491
▁பாதுகாப்பான 491
▁பாதுகாப்பை 491
▁ம் 491
க்குவ 490
த்துக்க 490
னான 490
ரமாக 490
வர்களுக்கும் 490
▁கட்டாயம் 490
▁ரஷ்யா 490
▁வறுமை 490
பீ 489
மையும் 489
▁இப்ப 489
▁உத 489
▁கையில் 489
▁சந்தித்த 489
▁மருத்துவமனை 489
தான 488
ாரும் 488
▁செலுத்தி 488
▁மாகாண 488
▁விசுவாச 488
▁வேட்பாளர் 488
ங்கிய 487
ஜெட் 487
னுக்கும் 487
போல் 487
▁முகாம 487
சியின் 486
மின்றி 486
▁ஏதாவது 486
▁கற்ப 486
▁சந்தித்து 486
▁செய 486
▁தளம் 486
▁பேரழிவ 486
மன 485
மிகு 485
▁அம்ச 485
▁இன்னமும் 485
▁உழை 485
▁திகதி 485
▁நீதிமன்றம் 485
▁முயற்சிய 485
▁வெளியிடப்பட்ட 485
றிவ 484
▁மக்களுக்கும் 484
▁முன்னெடுத்துச் 484
▁மூடி 484
க்கோ 483
▁அதற்கான 483
▁எளிதாக 483
▁சற்று 483
▁தயார 483
▁தெரிந்து 483
▁லி 483
▁வணிகம் 483
▁வழங்கப்பட்ட 483
▁அவர்களில் 482
▁நாட்டிற்கு 482
▁நிலைமையை 482
▁பராமரிப்பு 482
த்துப் 481
ருமான 481
▁ஆலய 481
▁எனினும் 481
▁படங்கள் 481
▁மூன்றாம் 481
▁விளக்கினார் 481
்கள 480
▁ஆகியன 480
▁காய 480
▁தொடர்ச்சியாக 480
வனும் 479
ிவை 479
▁இருக்கலாம் 479
▁உகந்த 479
▁பிள 479
▁முடி 479
ப்படை 478
ப்பதற்கும் 478
ாரம் 478
▁ஆழமான 478
▁உரையாற்ற 478
▁சமையல் 478
▁பெற்றுள்ளது 478
▁ராஜ் 478
▁வரவேற்பு 478
மேலும் 477
▁இனவாத 477
▁இவற்றில் 477
▁பேருக்கு 477
▁மட்ட 477
ப்பிரதேசம் 476
ுகளுக்கான 476
ூட்ட 476
ையைச் 476
▁அறிவிக்க 476
▁ஆட்சிக்கு 476
▁சுக 476
▁தமிழக 476
▁தென் 476
▁மக்களிடையே 476
▁வருகிற 476
க்களின் 475
மட்டும் 475
▁கொல்லப்பட்ட 475
▁கொள்வது 475
▁சமர்ப்ப 475
▁புரி 475
▁வாழ்க்கைத் 475
ாவிற்கும் 474
ிக்கப்பட 474
ின்றி 474
ுறை 474
ென் 474
▁அடிய 474
▁கீ 474
▁நிறுவனங்களில் 474
▁நெ 474
ப்படலாம் 473
ிட் 473
ொரு 473
▁அம்பல 473
▁ஏழைகள் 473
▁நாட்களுக்கு 473
▁பிரச்சனை 473
▁ப் 473
▁முடியவில்லை 473
▁ரஜ 473
த்தின்படி 472
ப்படவேண்டும் 472
வாதம் 472
▁உயிரிழ 472
▁குமார் 472
▁சிவில் 472
▁நிரந்தர 472
ாவோ 471
▁இரா 471
▁இழந்து 471
▁கொண்டாட 471
▁நிலைநாட்ட 471
▁விவரங்கள் 471
சின் 470
வேகம் 470
ிருந்தார்கள் 470
▁அலுவல 470
▁ஆட்சியை 470
▁உற்சாக 470
▁குறைப்பு 470
▁நடைமுறைகள் 470
▁பூச 470
▁மி 470
▁தற்போதுள்ள 469
▁பாதையில் 469
▁ரே 469
▁வெறு 469
▁வேண்டுகோள் 469
ற்கு 468
்வ 468
▁அரசாங்கங்கள் 468
▁கொல 468
▁தொழிற்சாலை 468
▁பிரச்ச 468
▁முறைய 468
▁மூட 468
00,000 467
ாவையும் 467
▁குழாய் 467
▁பக 467
▁பங்கை 467
▁பாட 467
▁மடங்கு 467
▁முழுக்க 467
▁மையமாக 467
▁விஞ்ஞானிகள் 467
▁வென்ற 467
னான் 466
ோருக்கு 466
▁ஐரோப்பா 466
▁நடிக்கிறார் 466
வச 465
▁உயர்மட்ட 465
▁கூர் 465
▁பாடல் 465
1718 464
மைப்ப 464
லால் 464
▁ஆள 464
▁தகுதி 464
▁பாதிக்க 464
▁முத 464
▁ஹர் 464
ர்களுக்கான 463
▁இருப்பதால் 463
▁கட்சியை 463
▁கட்டுப்பாட்டில் 463
▁சுற்ற 463
▁நபர் 463
ரத் 462
▁அலுவலர்கள் 462
▁வங்கிக் 462
▁விரும்பும் 462
▁வெளியிட்டுள்ள 462
▁வெளியேற்ற 462
னியின் 461
ெய 461
▁ஒப்பந்தத்தில் 461
▁தொகையை 461
▁நகரங்கள் 461
▁முடிவுகளை 461
▁வெளியிட்டார் 461
ாயிர 460
▁அட 460
▁உறுப்பு 460
▁கொண்டிருந்தது 460
▁தூர 460
▁பசுமை 460
▁பயங்க 460
▁பெண்களுக்கு 460
▁மாற்றிய 460
▁மீற 460
வராக 459
▁அனைத்துப் 459
▁எத்தனை 459
▁கவுரவ 459
▁சபையின் 459
▁தூதரக 459
▁தேசியவாத 459
மில்லாத 458
ைகளுடன் 458
ோன் 458
▁அளிக்கப்படும் 458
▁இந்தியாவிற்கு 458
▁எதிர்த்த 458
▁கூறப்படுகிறது 458
▁தீர்ப்பு 458
▁பணிய 458
▁பெற்றுள்ள 458
▁விதி 458
ங்கா 457
▁குடிய 457
▁நின்ற 457
▁பொதுமக்கள 457
199 456
▁தலைப்பில் 456
▁தவற 456
▁நெருங்கிய 456
▁பழங்குடியினர் 456
▁பேரழிவு 456
▁மல 456
65 455
லுடன் 455
ாதி 455
▁ஆட்ட 455
▁ஆண்டுக்கு 455
▁ஊடகங்கள் 455
▁ஒழ 455
▁காட்டும் 455
▁செல்வ 455
▁பத்திர 455
▁பிரகடனம் 455
▁மணிக்கு 455
▁மாநிலங்களுக்கு 455
▁வரவேற்ற 455
▁விளக்கம் 455
யூ 454
▁ஆழ 454
▁இணைக்க 454
▁உட்க 454
▁டு 454
▁நிகழ்ச்சிகள் 454
த்தலைவர் 453
ளின் 453
வித 453
▁ஆதரவாக 453
▁செய்யப்பட 453
▁வருமானம் 453
லுக்கான 452
▁எந்தவிதமான 452
▁சேன 452
▁திருப்ப 452
▁தொழில்கள் 452
▁நேட்டோ 452
▁ரீதியில் 452
▁விடுத்தார் 452
கால 451
பாத் 451
▁உரையில் 451
▁உற்பத்தித் 451
▁கொண்டுள்ளன 451
▁மருந்த 451
க்களில் 450
சம் 450
த்துற 450
பட்ட 450
▁கையாள 450
▁தேசம் 450
▁பிரபல 450
▁பொதுச் 450
▁பொருத்த 450
▁வளம் 450
ஹா 449
▁அரபு 449
▁இலவச 449
▁உப 449
▁சார் 449
▁தடைய 449
▁பயன்படுத்தும் 449
▁பெரும 449
▁பொதுத் 449
ங்களுக்காக 448
▁இழப்பு 448
▁கட்டி 448
▁கருத 448
▁தரப்பு 448
▁தியாக 448
▁நிலவும் 448
▁நிலையத்தில் 448
▁பண்டிக 448
▁பாலஸ்தீன 448
▁பிரிட்டன் 448
▁மெட்ரிக் 448
யோ 447
ினரின் 447
▁பரிமாற்ற 447
▁பழங்குடியின 447
▁வங்கிய 447
▁ஹெல 447
டித்த 446
ப்போல் 446
ுகளுக்கும் 446
ுக்கொள்ள 446
▁அரசியலில் 446
▁நொ 446
▁மகன் 446
▁முதன்மை 446
நல 445
▁ஆகியவற்ற 445
▁ஆபத்து 445
▁இராணுவத்தின் 445
▁எகிப்த 445
▁ஏனென்றால் 445
▁ஒருமுறை 445
▁கட்டுமான 445
▁செய்வதில் 445
▁மனதின் 445
▁ரச 445
▁வெளிநாட்ட 445
லர் 444
▁அனுப்பு 444
▁காலகட்டத்தில் 444
▁துவக்கி 444
▁பொருள்கள் 444
▁பொறு 444
▁வக 444
டினார் 443
டைந்து 443
▁அச்சுறுத்தல் 443
▁இளைஞர்களுக்கு 443
▁கடை 443
▁கருவிகள் 443
▁தனிமை 443
▁நம்மை 443
▁வழங்கினார் 443
▁வெகு 443
ாங்க 442
▁கொல்ல 442
பை 441
▁அழைக்க 441
▁ஓடி 441
▁குடியரச 441
▁கூட்டாக 441
▁கூறும் 441
▁கொழும்பு 441
▁தங்களுக்கு 441
▁மிருக 441
▁முடிக்க 441
ாராம் 440
▁கட்டு 440
▁செய்வதை 440
▁அமைப்பில் 439
▁கீழ 439
▁குழுவில் 439
▁சத்து 439
▁சினிமா 439
▁புலம்பெயர்ந்த 439
பெ 438
மைக்க 438
ரச 438
▁அமைய 438
▁என்பதாகும் 438
▁கண்டறிய 438
▁பிரிவினை 438
▁முறையான 438
த்திலுள்ள 437
ியைத் 437
▁அமெரிக்கத் 437
▁இணையதள 437
▁இன்ன 437
▁ஒளி 437
▁சாலைகள் 437
▁பிரதேசத்தில் 437
▁விமானங்கள் 437
ங்களே 436
த்தில 436
ப்பே 436
ம்பு 436
▁கொடுக்கப்பட்ட 436
▁சாத 436
▁ஜோன் 436
▁மாற்றங்கள் 436
டியாக 435
பூர்வமான 435
ிலோ 435
ோக் 435
▁ஆணையத்தின் 435
▁இந்தியத் 435
▁இருப்பதாகவும் 435
▁கட்டுரை 435
▁நடைமுறையில் 435
கி 434
ினேன் 434
▁அதிகாரத்தை 434
▁ஆண 434
▁கலாச்சாரம் 434
▁காதல் 434
▁சாக 434
▁தற்காலிக 434
▁தெரிந்த 434
▁மாணவர்களுக்கு 434
▁அர்த்த 433
▁மாநாட்டின் 433
த்திற்க 432
ுவதுடன் 432
▁தெரிகிறது 432
▁நோய்த் 432
▁பிரான்சின் 432
▁வந்தார் 432
▁வருமாறு 432
ியல் 431
▁கும்ப 431
▁பயன் 431
▁பிரதிநிதி 431
த்துக்குப் 430
மெ 430
ுகொண்ட 430
▁கங்கை 430
▁சந்தையில் 430
▁சமயம் 430
▁சுரங்க 430
▁சூழலில் 430
▁பகுதியை 430
▁பணத்தை 430
▁பெரும்பாலும் 430
▁முதலமைச்சர் 430
▁வெளியில் 430
க்கொ 429
ங்கும் 429
திகள் 429
லிஸ் 429
லுக்கும் 429
வள 429
▁அளிப்பது 429
▁ஆற்ற 429
▁எடுத்துரை 429
▁என்பதும் 429
▁ஒப்புக்கொண்ட 429
▁சூழலை 429
▁செய்திய 429
▁ஜேர்மனி 429
▁பணிக்கு 429
▁பொலி 429
▁மோசே 429
▁வீத 429
க்களும் 428
சக்த 428
ட்டுக் 428
▁முடிவை 428
ப்பாட்ட 427
ம்ம 427
ரிக்கப்பட்ட 427
▁அறிவித்தது 427
▁நோக்கமாகும் 427
▁பிளேயர் 427
▁மறுக்க 427
ஸ்திர 426
ுவை 426
▁அந்தத் 426
▁இப்பட 426
▁குட 426
▁தரத்தை 426
▁புகழ் 426
▁வழிவக 426
ளில் 425
ிக்காக 425
ூர் 425
்களின் 425
▁கெர் 425
▁நீட்ட 425
▁நோக்கமாகக் 425
ப்படாமல் 424
ோடும் 424
▁இடம்பெற்ற 424
▁கண்காண 424
▁கூறு 424
▁முடித்த 424
▁லீ 424
டுத்து 423
த்தினை 423
மாகத் 423
ம்க 423
ம்ச 423
▁பார்வை 423
▁பிரிவின் 423
▁விநியோகம் 423
▁வீட்டில் 423
ச்சு 422
▁இத்திட்டம் 422
▁உம 422
▁என்கிற 422
▁கட்டுப்பாடு 422
▁கழிப்ப 422
▁கேட்டு 422
▁சமயத்தில் 422
▁நடிக்கும் 422
▁பக்கம் 422
▁பொருளாதாரத்தின் 422
▁ராம 422
▁வழிவகுக்கும் 422
▁வேலையில் 422
ஜே 421
னியில் 421
ிகளிடம் 421
ியுள்ள 421
▁எடுத்துச் 421
▁கழக 421
▁நடத்தப்படும் 421
▁பொறுத்தவரையில் 421
▁போராட்டத்தை 421
▁வன்முற 421
▁வலி 421
வுகளை 420
்க்கு 420
▁அங்கீக 420
▁சீனாவின் 420
▁திட்டங்களில் 420
▁தெலுங்கு 420
▁பாதை 420
▁மாதங்களுக்கு 420
▁முக்கியமாக 420
▁ரெயில் 420
▁வறு 420
▁தண்ட 419
▁தலைமைய 419
▁முதல்வர் 419
▁வரலாற்றில் 419
டியும் 418
மைகளை 418
ற்கும் 418
ளவு 418
வார 418
ிகளைத் 418
▁அஞ்ச 418
▁அரசியலமைப்பு 418
▁எல்லாரும் 418
▁ஐரோப்ப 418
▁மூன்ற 418
▁ராஜஸ்தான் 418
▁வட்டார 418
▁விமானம் 418
ப்பன் 417
யின் 417
ளித்தார் 417
வாய் 417
▁ஆசிரிய 417
▁ஆப்பிரிக்க 417
▁குடிமக்கள 417
▁நன்மை 417
▁மாநாட்ட 417
▁முடியாமல் 417
▁ரெ 417
▁வட்டி 417
▁வழங்கியுள்ளது 417
மயமாக்க 416
▁ஆயத்த 416
▁சிறை 416
▁டோ 416
▁நிறுவனங்களை 416
▁பாக்கிஸ்தான் 416
கத்தில் 415
ங்களுக்குச் 415
த்தன 415
ரித்து 415
றை 415
▁அனுபவம் 415
▁இயங்கும் 415
▁குற 415
▁கொண்டதாக 415
▁போக்கு 415
▁முடக்க 415
நே 414
பொ 414
றிய 414
ல்களின் 414
ல்களில் 414
ாண்ட 414
▁ஆச 414
▁ஊக்கம் 414
▁என்பத 414
▁எளிதில் 414
▁சமரச 414
▁நம்ம 414
▁புரட்சி 414
▁வளரும் 414
▁வளர்ச்சித் 414
கர் 413
ிவி 413
▁அப் 413
▁ஈராக்கின் 413
▁ஒத்த 413
▁தொக 413
▁பிரச்சினைகளை 413
த்தைய 412
வுக் 412
▁இஸ் 412
▁கருதுக 412
▁சாலைப் 412
▁பங்கேற்றனர் 412
▁பெருகிய 412
▁விருப்பம் 412
▁வீட்டுவசதி 412
சிக்க 411
ந்துகொண்ட 411
ற் 411
ிருக்கலாம் 411
▁சமூகத்தின் 411
▁நிறுத்தி 411
க்கப்பட்டு 410
த்திலேயே 410
ரன் 410
▁கட்டமைப்பை 410
▁கார 410
▁சமுதாயத்தின் 410
▁சவால் 410
▁சூழ்நிலை 410
▁செயல்பாடு 410
▁நடைமுறைகளை 410
▁நம்பிக்கையை 410
▁புள்ளி 410
▁பொறியியல் 410
▁விதிகள் 410
தல்ல 409
தார 409
த்தும் 409
ப்பண 409
ப்புடன் 409
ீஸ் 409
▁எழுப்ப 409
▁நக 409
▁படங்களில் 409
▁புறக்கண 409
▁வல 409
▁வெளிவ 409
▁ஷ் 409
க்குத் 408
டுகிறது 408
ளையும் 408
▁இறப்பு 408
▁ஏர் 408
▁நடு 408
▁பொருளாதாரத்தில் 408
ீட்ட 407
▁அஞ்சல் 407
▁சேர 407
▁தேதியன்று 407
▁தேர்தல்களில் 407
▁வசிக்கும் 407
கார 406
க்கூட 406
லிக்க 406
ைகளைச் 406
▁அறிமுகம் 406
▁ஆசியான் 406
▁சராசரி 406
▁பரிமாற்றம் 406
▁புரட்சிகர 406
ட்டா 405
பான் 405
மடை 405
▁அடக்க 405
▁ஆயினும் 405
▁கப்ப 405
▁க் 405
▁தொடர்ந்த 405
▁பயன்பாடு 405
▁ஸ்தா 405
ானா 404
ினதும் 404
▁உதாரணமாக 404
▁கூறுகையில் 404
▁சேர்த்த 404
▁நிறுவனமான 404
▁நோக்கிய 404
▁வருவதை 404
ப்படுவதாக 403
ப்பார் 403
வேல 403
▁அமைப்புக்கள் 403
▁உருவாக்குவது 403
▁ஊக்குவிக்கும் 403
▁காட்டினார் 403
▁நிதியுதவி 403
▁பதவியில் 403
▁பிறப்ப 403
▁மக்களும் 403
▁ஷெ 403
டியான 402
ரிட 402
ரோன் 402
வுகள் 402
ியன் 402
ையிலே 402
▁இந்நிலையில் 402
▁உயர்வ 402
▁உற்பத்தியை 402
▁செயலி 402
▁திகழ்கிறது 402
▁நியாயமான 402
▁பிரதிபல 402
▁வம்ச 402
▁விலக 402
மென்று 401
ஷிய 401
ிருந்தான் 401
ிவைக்க 401
▁அவரின் 401
▁ஆச்சரிய 401
▁ஆன 401
▁கட்சியும் 401
▁சேர்த்து 401
▁திரும்பி 401
▁படைத்த 401
▁பெட்ரோலியம் 401
▁போதிய 401
▁வயதான 401
▁வளர்ச்ச 401
க்களுக்கு 400
ங்களுக்குப் 400
▁இரத்த 400
▁இறுதியாக 400
▁எடுக்கும் 400
▁காலமாக 400
▁செயற்கை 400
▁திண 400
▁பல்கலைக் 400
▁மய 400
▁லோ 400
▁வாரிய 400
▁வில் 400
ியால் 399
ிருக்கின்றது 399
▁கடல்சார் 399
▁சுற்றி 399
▁நினைவ 399
▁நூற்றாண்டு 399
192 398
ன்ன 398
முடியும் 398
முதல் 398
வரு 398
ாளரான 398
ுறு 398
▁ஈடுபட 398
▁சர்வ 398
▁தயாரித்த 398
▁விர 398
1819 397
ப்ட 397
▁ஆண்டுக்கான 397
▁உற்பத்திப் 397
▁ஊதியம் 397
▁சிரம 397
▁தயாரிப்பாளர் 397
▁பிரிய 397
▁மனிதவள 397
▁வழிவகை 397
▁வாரியம் 397
டுவதை 396
னைப் 396
வெ 396
ிக்குப் 396
▁ஆரோ 396
▁இடங்கள் 396
▁ஈடுபடுத்த 396
▁செய்வதற்காக 396
▁மதிப்பிட 396
▁வழங்கியது 396
ாகத் 395
ுகளால் 395
ுகளுடன் 395
▁அணுகுமுறை 395
▁அதைக் 395
▁இருந்தனர் 395
▁நடிக 395
▁படுத்த 395
▁பெட்ட 395
▁பொதுக் 395
▁ரசிக 395
▁விளைவு 395
▁அமு 394
▁அவ்வாறு 394
▁குழந்தைகளுக்கு 394
▁தல 394
கங்கள் 393
க்குற 393
சக்தி 393
ப்பட்டார் 393
ெல் 393
▁அன 393
▁அனுப்பிய 393
▁அழிவ 393
▁பேசும் 393
▁வளர்த்த 393
ற்றும் 392
ஷ்மீ 392
▁அண்டை 392
▁அமலாக்க 392
▁துவக்க 392
▁பிரப 392
▁மாறி 392
▁விளங்க 392
▁ஹை 392
ிகளான 391
▁அவற்றில் 391
▁இலக்குகளை 391
▁உக்கிர 391
▁கடிதம் 391
▁குடும்பத்தின 391
மையன்று 390
வையாக 390
ாஸ் 390
▁அஞ்சலி 390
▁தாக்கத்தை 390
▁பரிசீ 390
▁முதலாள 390
▁விஜய 390
பன் 389
மாகவே 389
▁அடித்த 389
▁அதற்குப் 389
▁அமெரிக்காவிற்கு 389
▁அழைத்து 389
▁ஒது 389
▁சூர்யா 389
▁தனிநபர் 389
▁தாக்குதல்களை 389
▁துறைகள் 389
▁நீர்வ 389
▁பிட 389
க்குழு 388
பத 388
பூர் 388
விடும் 388
▁இந்தியர்கள் 388
▁எதிர 388
▁கடின 388
▁தெரிவித்துள்ளது 388
▁பிரான் 388
▁மூலமும் 388
நாயகம் 387
முற 387
▁இடத்தை 387
▁இறங்க 387
▁உதவியுடன் 387
▁எவரும் 387
▁ஏதோ 387
▁சமீப 387
▁சம்பந்த 387
▁தொடங்கப்பட்ட 387
▁பிரவே 387
▁முடிய 387
▁வாழ 387
▁விஷயத்தில் 387
த்துள்ளது 386
ொண்டு 386
▁இதய 386
▁உத்தியோக 386
▁உருவாக 386
▁உற்பத்த 386
▁மட்டுமல்லாமல் 386
▁மன்ற 386
ப்பன 385
மூ 385
ெட் 385
்சி 385
▁குழுவ 385
▁தகவ 385
▁தம்முடைய 385
▁தாவ 385
▁தெளிவுபடுத்த 385
▁மாளிகை 385
▁வழங்கப்பட்டது 385
55 384
டிகள் 384
ானிய 384
▁எவ்வாற 384
▁கட்சியினர் 384
▁கிராமங்களில் 384
▁செய்திகள் 384
▁பரி 384
த்தான 383
▁உயர்வு 383
▁உள்நாட்ட 383
▁ஐரோப்பாவில் 383
▁கிழ 383
▁கோர 383
▁சந்திப்பு 383
▁பாரு 383
▁பிரமுக 383
▁வர்ண 383
▁வாரண 383
▁விய 383
ங்கை 382
மிய 382
ாவிலிருந்து 382
்களும் 382
▁ஆவ 382
▁இல 382
▁கட்டத்தில் 382
▁கண்டுபிடிப்ப 382
▁தலி 382
▁தேசியக் 382
▁விக்ரம் 382
வருக்கும் 381
ார்ட் 381
ுக்கே 381
்தன் 381
▁எந்தப் 381
▁சர்தார் 381
▁தொடங்கும் 381
▁நன 381
▁நியூயோ 381
▁பல் 381
▁முக்கியப் 381
▁மோட்டார் 381
▁ஆவார் 380
▁ஒப்பந்தத்தை 380
▁கால்நடை 380
▁பெய 380
▁முறைகள் 380
ூற 379
ையாடல் 379
▁எதிர்காலத்தில் 379
▁தன 379
▁நிலம் 379
▁பேராசிரியர் 379
▁பொறுப்பை 379
▁மறுத்த 379
ுகளாக 378
▁உண்மையிலேயே 378
▁கடன 378
▁கட்டமைப்ப 378
▁கண்டுபிடி 378
▁காப்பீட்டு 378
▁குறைக்கும் 378
▁ஜோர்ஜிய 378
▁தமிழில் 378
▁திருமணம் 378
▁வின் 378
ன்களுக்கு 377
வரின் 377
▁இடதுசாரி 377
▁கிட 377
▁கிலோமீட்டர் 377
▁கைப்பற்ற 377
▁கொடூரமான 377
▁சென 377
▁தீர்மானம் 377
▁துர 377
▁வழங்குவது 377
▁விதமாக 377
52 376
ப்படுத்தவும் 376
ம்ஸ் 376
வருக்கு 376
ாவிட்டால் 376
▁ஆபிரிக்க 376
▁எழுந்த 376
▁கண்டுபிடிப்பு 376
▁குறிப்பு 376
▁துன்ப 376
▁பாக 376
்க் 375
▁ஊட்டச்சத்து 375
▁ஒன்றுக்கு 375
▁தன்ன 375
▁வேண்ட 375
ப்படுகிற 374
ிகளிலும் 374
ுவதிலும் 374
ெடுக்க 374
▁கட்சிக்கு 374
▁காச 374
▁குறைந்தபட்சம் 374
▁பிரபு 374
▁மண் 374
▁முக்கியமானது 374
▁வல்லரச 374
உ 373
ங்களிலிருந்து 373
சார்பு 373
சித்த 373
டுதல் 373
ட்டத்தில் 373
தாய 373
பட்டு 373
ருக 373
ுகா 373
▁அரசுகளின் 373
▁ஒவ்வொருவரும் 373
▁கண்காணிப்ப 373
▁காக்க 373
▁திசை 373
▁பாஸ் 373
▁மையத்தில் 373
▁வாய் 373
தன 372
ியாய் 372
▁ஏற்றும 372
▁காட்டி 372
▁சந்திப்ப 372
▁சுவ 372
▁தொழிற்சால 372
▁த் 372
▁பணியாற்றிய 372
▁பிரத 372
▁யாரும் 372
▁வியாபார 372
ருங்கள் 371
ற்ப 371
ினம் 371
ீடுகளை 371
ுவதாகவும் 371
▁அட்ட 371
▁அறி 371
▁இந்தி 371
▁தளத்தில் 371
▁தொடரும் 371
▁நிகழ்வு 371
▁வரம்ப 371
ப்பிய 370
ருக்குப் 370
ிக்குமாறு 370
ைகளாக 370
▁இடை 370
▁கிளர்ச்ச 370
▁பிரிவுகளில் 370
▁முயற்சியை 370
▁வெளியேற 370
டுகளுக்கு 369
ற்க 369
வோர் 369
ாட 369
ாரர்கள் 369
ைத்தான் 369
▁உணர்வை 369
▁ஜனாதிபத 369
▁தாமத 369
▁நீதிபதி 369
▁பகுதிகளிலும் 369
▁பிரான்சில் 369
▁புதுமை 369
நாடு 368
நோ 368
ய்வு 368
வதன் 368
ியோ 368
▁அதிகாரிகளுக்கு 368
▁ஆயுதங்களை 368
▁செய்தித் 368
▁நடத்தியது 368
▁படையின 368
▁புத 368
▁முயற்சிகளுக்கு 368
செல 367
டிவ 367
ரத்தில் 367
ிக்கை 367
▁அங்கீகாரம் 367
▁அமைந்துள்ள 367
▁ஆதரி 367
▁கோரிய 367
▁ஜெய 367
▁திருத்தம் 367
▁நிதியம் 367
▁முயன்ற 367
விக 366
▁அம்மா 366
▁ஒருங்கிணைப்பு 366
▁திக 366
▁திராட்ச 366
▁பதவிக்கு 366
▁பின்னணி 366
▁போரின் 366
▁மேலான 366
▁வீடுகளில் 366
நில 365
ப்பையும் 365
ராய 365
ிலிருந்தும் 365
ொண்ட 365
▁உதவித் 365
▁எண்ணிக்கையை 365
▁செயல்பாட்ட 365
▁சேவையை 365
▁தங்கள 365
▁தாக்கம் 365
▁நம 365
▁நம்மால் 365
▁பணிகளில் 365
▁பருவ 365
▁விடைய 365
ன்கள 364
▁அரை 364
▁சிந்தனை 364
▁சிவாஜி 364
▁படையினர் 364
▁முடிகிறது 364
▁விடும் 364
த்தீ 363
நாள 363
ாவிலும் 363
▁அவசிய 363
▁இயக்குன 363
▁ஒற்று 363
▁தேர்வ 363
செய்த 362
ப்படுத்துவது 362
ப்படுவார்கள் 362
யல் 362
ஷர் 362
▁அதேவேளை 362
▁எதிர்கொள் 362
▁கடினமான 362
▁நேபாள 362
▁வருகின்றது 362
▁கிடைத்தது 361
▁தயாரிப்பாளர்கள் 361
▁திறமை 361
▁நெருக்கமாக 361
▁வலிமை 361
திகளை 360
ுவதோடு 360
▁ஊக்குவிக்க 360
▁ஒருபோதும் 360
▁நம்பிய 360
▁படைகளை 360
▁முழ 360
33 359
ன்த 359
ளி 359
வரி 359
ஸி 359
ோரின் 359
▁ஈடுபட்டு 359
▁ஒழுங்குமுறை 359
▁தலைமுறை 359
▁நகரம் 359
▁பராமரி 359
▁பிரகாஷ் 359
▁புரட்ச 359
ஈ 358
டர் 358
த்தனமான 358
ெல்ல 358
ையின 358
▁இன்றி 358
▁இவன் 358
▁உதவியாக 358
▁எழுத்து 358
▁பழ 358
▁பிளாஸ்டிக் 358
▁வைக்கிறார் 358
▁ஹே 358
பேர் 357
▁எடுத்துரைத்தார் 357
▁ஓய்வூதியம் 357
▁செலவ 357
▁நிபுணர்கள் 357
▁விகித 357
ளிப்பு 356
ையு 356
▁அக்கற 356
▁அரசாங்கத்தில் 356
▁இப்படிப்பட்ட 356
▁என்பதற்காக 356
▁காட்டிக் 356
▁காண்க 356
▁தீர்க்கதரிச 356
▁நவ 356
▁வெற்ற 356
ிரி 355
ொட்டி 355
்க்க 355
▁அதேபோல் 355
▁அளவை 355
▁உணர்ந்த 355
▁கட்சிகளும் 355
▁கொண்டே 355
▁கொள்கையின் 355
▁சொந்தமான 355
▁ஜம்ம 355
▁நினைவுகூர் 355
▁பயில 355
▁பெருக்க 355
▁விமானப்படை 355
▁ஸ்பெயின் 355
▁அதிகாரிகளும் 354
▁காணும் 354
▁டே 354
▁தெரிவித்தது 354
▁நடை 354
▁நிருப 354
▁புகார் 354
▁பொருத்தமான 354
▁ரயில 354
▁வருகின்ற 354
கிற 353
மார் 353
வேண்டு 353
ுக்குள்ளே 353
▁பின்னால் 353
▁முடிவுக்கு 353
▁விமர்சன 353
▁விவசாயம் 353
சுவ 352
ிருக்கவில்லை 352
ுப்பு 352
ைகளுக்காக 352
▁எனத் 352
▁சம்மந்த 352
▁சேமி 352
▁விளைவுகளை 352
ந்தி 351
பார 351
மையுடன் 351
ானின் 351
ியாகவும் 351
▁இவற்றை 351
▁உரிமையை 351
▁கையெழுத்திட்ட 351
▁கொடுத்தது 351
▁கொரிய 351
▁வருவதற்கு 351
னது 350
ர்ம 350
▁அறிவித்துள்ளது 350
▁இழந்த 350
▁நிற்கும் 350
▁பற 350
▁முன்கூட்டியே 350
▁வரவே 350
▁வலியுறுத்தி 350
▁வேற 350
முக 349
ஷி 349
்ச் 349
▁அடைந்து 349
▁இடைக்கால 349
▁உறுத 349
▁ஏற்று 349
▁கண்காட்சி 349
▁கிரு 349
▁ஜோர்ஜ் 349
▁தொழிற் 349
▁மண 349
▁யு 349
▁விதிமுற 349
▁விலையில் 349
ுகின்றது 348
ுட 348
▁அரசாங்கமும் 348
▁இராணுவப் 348
▁ஈரானிய 348
▁உத்தரப்பிரதேச 348
▁எந்தவித 348
▁கட்டணம் 348
▁கோத்திர 348
▁செயல்திட்ட 348
▁முன்னேற 348
▁வைத்துக் 348
34 347
திப்ப 347
▁என்ப 347
▁கழிவ 347
▁சட்டங்கள் 347
▁தொலைநோ 347
▁விளைவுகள் 347
198 346
க்காரர்கள் 346
ப்பாக 346
ழ்த்த 346
ஸ்தான் 346
ிப்பு 346
ுக்கொண்டு 346
▁இரங்கல் 346
▁ஒருங்கிணைந்து 346
▁நாடுகளுடன் 346
▁மதிப்புள்ள 346
▁வறிய 346
ணக்கான 345
வற்றை 345
▁அடிப்படையாக 345
▁ஒன்றாகும் 345
▁சண்ட 345
▁செல்வாக்கு 345
▁தங்கிய 345
▁தலைமுற 345
▁தொழில்நுட்பத்தை 345
▁தோட்ட 345
▁நடத்தப்பட்டது 345
▁நடப்பு 345
▁மூன்றில் 345
▁வழங்குதல் 345
▁விளைவ 345
டுகிறார் 344
ழுவ 344
வாறு 344
ிக்கொள் 344
்களையும் 344
▁அவைகள் 344
▁இத்திட்டத்தின் 344
▁இவற்றின் 344
▁எரிவாய 344
▁கொண்டுள்ளனர் 344
▁சக்திகள் 344
▁நசுக்க 344
▁மனைவி 344
த்தே 343
▁அய 343
▁அவசியத்தை 343
▁ஆதரவாளர்கள் 343
▁உடனடி 343
▁உறவை 343
▁எனக்குத் 343
▁எய் 343
▁குறைத்து 343
▁கூடார 343
▁பக்க 343
▁முடிந்து 343
▁வாக்குகளை 343
▁வாய 343
மைக்கும் 342
▁ஆட்ச 342
▁உத்த 342
▁உருவாக்குதல் 342
▁எதிர்பார்த்த 342
▁எல்லைப் 342
▁கவுன்சில 342
▁கூறினர் 342
▁கொள்ளவும் 342
▁பல்கலைக்கழகம் 342
▁பிடித்து 342
▁முறையின் 342
ர்களைப் 341
▁அர்ப்பணிப்பு 341
▁உத்தரவு 341
▁குடும்பங்கள் 341
▁கூட்டாட்சி 341
▁கூறுகிறார் 341
▁கொன்று 341
▁சாதகமான 341
▁சிறிது 341
▁பாதுகாப்புக் 341
▁மத்தியப் 341
▁மன்ன 341
மல்ல 340
ிக்கப்பட்டுள்ளன 340
▁சட்டபூர்வ 340
▁திருப்த 340
▁தோல் 340
▁பேட்டி 340
▁முன்பே 340
▁வைத்திருக்க 340
நாட்டில் 339
பன 339
பான 339
போய் 339
ரீதியான 339
ிடப்பட்ட 339
ையின்மை 339
▁அதுவும் 339
▁அளவ 339
▁இலங்கையின் 339
▁நடுத்த 339
▁பின்பற்றி 339
▁வளாக 339
ஃ 338
தினால் 338
ளுக்கு 338
ிக்கொ 338
ையற்ற 338
▁ஆட்சிய 338
▁இரண்டும் 338
▁உருவாகும் 338
▁ஊடகம் 338
▁எதிர்காலம் 338
▁காவல்துறை 338
▁சான்ற 338
▁பலன் 338
▁பெற்றுக் 338
▁போட்டிய 338
▁வளர் 338
▁வழிய 338
▁விருதுகள் 338
▁வெற்றிய 338
ப்பூர்வமான 337
மயமாக்கல் 337
ர்களான 337
லம் 337
ித்துப் 337
ுவின் 337
▁இந்நிகழ்ச்ச 337
▁இருக்காது 337
▁உடனே 337
▁குழுவினர் 337
▁கோவிந்த் 337
▁நடவடிக்கையில் 337
ிருக்கு 336
ேற்ற 336
ையாளர்கள் 336
▁அப்பால் 336
▁அரசும் 336
▁ஊழ 336
▁கிறிஸ்தவ 336
▁நினைவில் 336
▁யெ 336
▁வழக்கமான 336
▁விளை 336
தரு 335
த்துக்கொண்ட 335
ித்தான் 335
▁எண்ணிக்கையில் 335
▁குர்த 335
▁சக்தியை 335
களில் 334
ணை 334
மதிப்ப 334
▁* 334
▁ஆண்டுக்குள் 334
▁ஆதரிக்க 334
▁குறிக்கும் 334
▁கோரி 334
▁நியமிக்கப்பட்ட 334
▁பணியாற்றும் 334
▁போக்குவர 334
▁வார்த்தை 334
▁வெங்க 334
,0 333
தியும் 333
போக 333
ர்களா 333
ில்லை 333
▁அட்டை 333
▁அளித்தார் 333
▁எழ 333
▁எழு 333
▁ஏற்கெனவே 333
▁கொந்த 333
▁சீர்திருத்தம் 333
▁நூறு 333
▁பற்றாக்குற 333
▁புலிகளுக்கு 333
▁பூமியின் 333
▁பெறு 333
▁மாநிலங்களின் 333
▁வசதியை 333
▁விரைந்து 333
▁வெளிநாடுகளில் 333
ஜன் 332
த்ரா 332
ன்மை 332
ரப் 332
ானி 332
ாளர்கள 332
ியுள்ளன 332
ிலா 332
▁அடையும் 332
▁ஆசீர்வ 332
▁ஆள் 332
▁இத்திட்ட 332
▁இயக்கும் 332
▁ஈடுபட்டுள்ள 332
▁குறிப்ப 332
▁சார 332
▁சுரண்ட 332
▁பாரம்பரியம் 332
திப்பு 331
னைக் 331
ற்றை 331
வாய 331
ிவிட்டு 331
▁ஆராய 331
▁இயக்கிய 331
▁உரிமைய 331
▁கிமீ 331
▁திட 331
▁தெரிவி 331
▁பில் 331
▁பிள்ள 331
▁மரியாத 331
▁விழிப்புணர்வை 331
பாம 330
ாப் 330
ாவுக்கும் 330
ெடுப்ப 330
▁ஆத்து 330
▁ஏக 330
▁கடமை 330
▁கொடிய 330
▁நாடுகளிலும் 330
▁பின்னணியில் 330
முடியாது 329
ரான் 329
ிருந்தும் 329
ும்கூட 329
ுவா 329
ுவிடும் 329
▁é 329
▁அணிவகு 329
▁உயர்ந்துள்ளது 329
▁என்பதைக் 329
▁தோன்ற 329
▁நிறுவனங்களும் 329
▁படங்களை 329
▁பாபா 329
▁முன்னால் 329
▁ராஜ்ய 329
▁வழங்கப்படுகிறது 329
சுக 328
மாட்ட 328
வாச 328
▁அனைத்துத் 328
▁அரேபிய 328
▁இங்கிலாந்து 328
▁இவரது 328
▁உறுப்பினராக 328
▁ஒப்பந்தத்தின் 328
▁கமல் 328
▁குறிப்பி 328
▁சமூகம் 328
▁சம்பவம் 328
▁தாக்குதலில் 328
▁தேவையை 328
▁மீன் 328
▁வரவிருக்கும் 328
▁வளர்ச்சியில் 328
▁வானிலை 328
▁விப 328
▁வோல் 328
த்துறையில் 327
ல்ப 327
வகையில் 327
ுதிய 327
▁ஒப்பந்தங்கள் 327
▁சிந்தன 327
▁சுதந்திரமான 327
▁ற 327
▁வாக்குகள் 327
▁வாக்குற 327
த்தனர் 326
நாட்ட 326
பாக 326
▁அதன்படி 326
▁ஆசியா 326
▁கோரிக்கையை 326
▁சேர்ந்தவர்கள் 326
▁தந்தை 326
▁நூற்றாண்டின் 326
▁பல்லாயிர 326
▁முஸ்லிம் 326
▁வாங்கிய 326
▁வெளியுற 326
ப்படுகின்றனர் 325
வருமான 325
ீட்டு 325
ுமே 325
▁அதிகரிப்பு 325
▁அத்த 325
▁இரண்ட 325
▁ஓட்ட 325
▁காலனித்துவ 325
▁நிதியை 325
▁நேர் 325
▁பரிசீல 325
▁மருத்துவப் 325
▁மாற்றுத் 325
▁ரத்து 325
▁வச 325
▁வின 325
1999 324
க்குமாறு 324
ழைக்க 324
▁அறிவிப்ப 324
▁சர்வாதிகார 324
▁சுத்திகரிப்பு 324
▁செயல்பாடுகளை 324
▁துண்ட 324
▁பஞ்சாப் 324
▁முயன்று 324
▁வாகனங்கள் 324
ராம 323
வையும் 323
ாதே 323
ிக்குள் 323
▁அதைத் 323
▁சந்தித்தார் 323
▁சவுதி 323
▁நான்காவது 323
▁மோதல் 323
நி 322
ர்த்த 322
ியம் 322
ீடு 322
▁அல்லாத 322
▁ஆயிர 322
▁இரட்டை 322
▁ஒழுங்க 322
▁திங்கள 322
▁தீவிரமான 322
▁துரித 322
▁துறைக்கு 322
▁முன்னே 322
▁வரவேற்ப 322
த்துக்கொள்ள 321
ப்பார்கள் 321
முன் 321
ரைக் 321
ிவைத்தார் 321
ோட்ட 321
▁அதைச் 321
▁அமைத்த 321
▁அரங்கில் 321
▁ஆட்சியில் 321
▁எப்பொழுதும் 321
▁சர் 321
▁செலுத்திய 321
▁விரும்பவில்லை 321
37 320
ிக்கப்பட்டுள்ள 320
ையிட்டு 320
▁கடத்த 320
▁சுட்ட 320
▁தள்ளுபடி 320
▁திறன 320
▁பெயரை 320
▁வெளியிட்டது 320
னுடன் 319
ியுடன் 319
▁ஆதிக்க 319
▁குடியரசின் 319
▁குடும்பம் 319
▁சபையில் 319
▁தெரி 319
▁நித்த 319
▁பயன்படுத்துவது 319
▁வய 319
▁வருடம் 319
▁வழங்குகிறது 319
62 318
ரித்தார் 318
ுடனே 318
▁ஃப 318
▁கவச 318
▁சம்ப 318
▁செயற்ப 318
▁நிகழ்ந்த 318
▁பின்வருமாறு 318
▁பிரகடன 318
▁மேலதிக 318
ந்தன 317
படியால் 317
பின்பு 317
ாரண 317
▁அதற்காக 317
▁எழுச்ச 317
▁காப்பீடு 317
▁சித்த 317
▁செய்க 317
▁தந்திர 317
▁திருமண 317
▁முடிவில் 317
▁வீடியோ 317
ித்துறை 316
ுகளிலும் 316
▁அமைக்கும் 316
▁எஃகு 316
▁எதிர்க 316
▁ஏறத்தாழ 316
▁கட்டிய 316
▁கல்விக் 316
▁குழ 316
▁சேத 316
▁தடுக்கும் 316
▁தோல்வி 316
▁பரிசு 316
▁பார்க்கும் 316
▁பொய் 316
▁வழிமுற 316
▁வாழ்ந்து 316
▁விவரங்களை 316
▁விஷயங்களில் 316
ருகிறது 315
வதற்கும் 315
்தா 315
▁கூறப்பட்ட 315
▁கேட்டுக்கொண்ட 315
▁கோடிக்க 315
▁சரியாக 315
▁பிரிட்டனின் 315
▁பெற்றோ 315
▁முன்னரே 315
▁மேம்படுத்தவும் 315
▁வசத 315
▁விதிமுறைகள் 315
▁வீதம் 315
தெல்லாம் 314
ப்பார்க்க 314
மையைக் 314
ரெ 314
ொட 314
▁அரங்க 314
▁அவசரகால 314
▁உணர 314
▁கட்சிகளின் 314
▁தாங்க 314
▁பிரத்யேக 314
▁மருத்துவர்கள் 314
ச்சி 313
ப்பேன் 313
ராமன் 313
ராவ 313
ரிடத்தில் 313
ஹ் 313
▁ஆவர் 313
▁உபகரணங்கள் 313
▁என்பதற்கான 313
▁கூட்டத்தை 313
▁சூழ 313
▁செய் 313
▁தெரிவித்து 313
▁தேவைப்படுகிறது 313
▁நகர் 313
▁நிலைத்த 313
▁பழங்குடி 313
▁பேசி 313
▁மாண்பு 313
▁மீட்ட 313
ங்களுக்குள் 312
பால 312
▁அமைக்கப்படும் 312
▁அறக்கட்டளை 312
▁ஒன்பது 312
▁பிரெ 312
▁பெரும்பான்மை 312
▁போலி 312
▁வடகிழக்குப் 312
ப்படுவத 311
▁உயர்ந்து 311
▁எழுந்து 311
▁குறைவு 311
▁கொண்டிருப்ப 311
▁சரிவு 311
▁சூழ்நில 311
▁தலையீடு 311
▁தானிய 311
▁தோன்றிய 311
▁நட்சத்திர 311
▁பட்டியல் 311
▁போராட 311
1617 310
பண்ண 310
விருக்கும் 310
ிட்டார் 310
்கா 310
▁ஆராய்ச்ச 310
▁உரங்கள் 310
▁கண்ண 310
▁கிளின் 310
▁சமுத்திர 310
▁நோக்கத்தை 310
▁வியட்நாம் 310
டுகளும் 309
பக 309
பற்றி 309
ப்படுத்தல் 309
ப்பினை 309
▁இதன்மூலம் 309
▁ஏற 309
▁நபர்கள் 309
▁பங்கள 309
▁பயன்படுத்திய 309
▁பலிபீட 309
▁பாராட்டிய 309
▁பிளவு 309
▁பொய 309
▁பொறுத்த 309
▁மக்களிடம் 309
எஃப் 308
கன் 308
தாகத் 308
ளா 308
▁சிறப்புமிக்க 308
▁பாதுகாக்கும் 308
▁மர 308
▁மாநாட்டை 308
▁ரத்த 308
▁வடிவமைப்பு 308
▁விவாதம் 308
க்கே 307
ங்களோடு 307
த்துக்குள் 307
ப்பற்றி 307
மித 307
▁அம்ம 307
▁ஆரோக்கியமான 307
▁கலைஞ 307
▁கூறுவது 307
▁நீதிமன்றத்தில் 307
72 306
த்திட்டம் 306
த்துடனும் 306
ல்களையும் 306
▁இருந்தபோதிலும் 306
▁உறுதிமொழ 306
▁உள்ளே 306
▁செயல்பாட்டு 306
▁துருக்கி 306
▁புவி 306
▁மகி 306
▁மாற்றங்களை 306
▁மாளிகையில் 306
ழி 305
ாளி 305
▁அப்படிய 305
▁கட்டமை 305
▁கேரள 305
▁தெரியவில்லை 305
▁தொடர்வ 305
▁மட்டு 305
▁மருத்துவமனைகள் 305
க்குவது 304
தியின் 304
ஸ்ட்ட 304
ையினர் 304
▁கற்றுக் 304
▁க்கும் 304
▁சமாளிக்க 304
▁சவ 304
▁சுற்றுச்சூழ 304
▁ஜப்பானிய 304
▁தேர்ந்தெடுக்க 304
▁முக்கியம் 304
டிக் 303
ந்தா 303
ர்களால் 303
ாளிகளுக்கு 303
▁உந்த 303
▁என்னிடம் 303
▁எல்லாவற்ற 303
▁குழுக்கள 303
▁நடி 303
▁நோயாளிகள் 303
▁பதவ 303
▁பலரும் 303
▁பாதையை 303
▁பேரின 303
▁போராள 303
▁விரிவாக்கம் 303
▁வீரர்களின் 303
▁வெளியி 303
▁வேண்டுமென்று 303
ிக்கலாம் 302
ெடுத்து 302
்கு 302
▁இப்போ 302
▁ஒடுக்கு 302
▁கற்பனை 302
▁கொண்டுவரு 302
▁சின 302
▁செயல்பாடுகள 302
▁திருப்தி 302
▁திரும்பப் 302
▁துப்பாக்கி 302
▁நிரு 302
▁பற்றிப் 302
▁பீகார் 302
▁போகும் 302
▁மீட்பு 302
ண்டா 301
த்திரம் 301
பாய் 301
மித் 301
ய்வ 301
விடு 301
ுவதே 301
ேர் 301
ொல 301
▁ஆட்சியின் 301
▁ஆலோசனைகள் 301
▁எட்டிய 301
▁எழுச்சி 301
▁கண்காட்ச 301
▁கான 301
▁செய்யவில்லை 301
▁பரிசோதன 301
▁பிழை 301
▁பூமி 301
▁மேத 301
▁ரிசர்வ் 301
▁வெளியான 301
தாம் 300
வல் 300
ாட்டில் 300
▁ஆதாரங்கள் 300
▁நடத்தினர் 300
▁நிச்சயமாக 300
▁படத்துக்கு 300
▁மருத்துவமனையில் 300
▁மறைமுக 300
▁முனைய 300
▁வாழ்வில் 300
மாத 299
ிப்பதாக 299
ிப்பாக 299
ியுள்ளார் 299
ிரை 299
ைக்கும் 299
▁எழுத 299
▁சமூகத்தில் 299
▁சாரா 299
▁வாழ்வாதார 299
▁விரிவாக 299
▁வேறொரு 299
ம்பே 298
வழ 298
ிகரமாக 298
▁ஆர்வ 298
▁உம்மை 298
▁கருத்தரங்க 298
▁காட்டு 298
▁தளத்தை 298
▁புதுமையான 298
▁விளங்கும் 298
▁வெளியிட்டுள்ளது 298
கத்தின் 297
துக 297
ரூ 297
வரையும் 297
ாட்டு 297
ிரம 297
▁ஆக் 297
▁கூட்டாள 297
▁படித்த 297
▁பின்தங்கிய 297
▁பொருட்களின் 297
▁மாணவர்களின் 297
▁ரயில்கள் 297
▁விளையாட்ட 297
▁இருக்கு 296
▁கடலோர 296
▁கைவிட 296
▁நகரத்தில் 296
▁படுகொல 296
▁பாலியல் 296
▁புய 296
▁போஸ்ட் 296
▁மக்க 296
▁முன்னேறி 296
ரண 295
விர 295
▁ஆசியாவில் 295
▁கடித 295
▁கொடுத்தார் 295
▁சீதா 295
▁ஜெய் 295
▁நிர 295
▁மாறிய 295
▁முத்த 295
▁விரைவான 295
க்கப்பட்டது 294
றுப்பு 294
ிகு 294
ைக்காக 294
்டர் 294
’’ 294
▁அசாம் 294
▁அதிகபட்ச 294
▁அதிநவீன 294
▁அளித்தல் 294
▁உத்தேச 294
▁உம் 294
▁குறைக 294
▁செய்வ 294
▁டைம் 294
▁தப்ப 294
▁நோயாள 294
▁பங்குதார 294
▁பெண்களின் 294
▁வந்தன 294
▁வெட்க 294
ந்திய 293
யிற்று 293
ரக் 293
ரியின் 293
லாமல் 293
ுக்களின் 293
ூரில் 293
ொள்ள 293
▁இற 293
▁கம்பென 293
▁காலங்களில் 293
▁குற்றஞ்சாட்ட 293
▁சமமான 293
▁செய்வத 293
▁சொத்து 293
▁நலனுக்காக 293
▁புதுதில்லி 293
▁மிகத் 293
▁வருமானத்தை 293
▁வழக்கில் 293
36 292
தியாக 292
மக்களை 292
ராவும் 292
றிக்கை 292
ழை 292
ிலிருந்த 292
ேயின் 292
▁ஆண்டவர் 292
▁ஆர்ப்பாட்டம் 292
▁இக்க 292
▁சிறையில் 292
▁செய்தியை 292
▁தானே 292
▁தேடி 292
▁நிலைப்பாட்ட 292
▁முரண் 292
▁யோசன 292
▁வலுவ 292
சரி 291
தீ 291
மடைந்து 291
▁அனுப்பின 291
▁ஆகியவற்றுடன் 291
▁ஈடுப 291
▁காலத்தை 291
▁குடியேற்ற 291
▁ஜல் 291
▁தடுத்த 291
▁தலைமைச் 291
▁நிகழ்வுகள் 291
▁நிறுவனத்தில் 291
▁மனிதாபிமான 291
▁மீறி 291
▁விற்க 291
48 290
டையும் 290
த்துறையின் 290
லைய 290
ினுடைய 290
▁அவர்களைப் 290
▁இடைவெளி 290
▁தேர்தல்கள் 290
▁லு 290
தூ 289
ாட் 289
ிருப்பதால் 289
்த்து 289
▁அடிப்பட 289
▁ஆலை 289
▁இதைப் 289
▁உற 289
▁காற்று 289
▁செய்கிற 289
▁தேசத்தில் 289
▁தோற்றுவ 289
▁பகுதிகளை 289
▁பாபிலோ 289
▁மாணவர்கள 289
▁வீடுகள 289
க்கியுள்ளது 288
க்கூ 288
னைத் 288
போர்ட் 288
▁அந்தச் 288
▁ஆதரவுடன் 288
▁ஆதிக்கம் 288
▁இத்தனை 288
▁இய 288
▁உருவ 288
▁எங்கே 288
▁ஏற்பாடுகள் 288
▁காணப்படும் 288
▁கொல்லப்பட்டனர் 288
▁நிகழ்ச்சியின் 288
▁நீதித்துறை 288
▁பூமிய 288
▁வீண 288
▁வேறுபாடுகள் 288
▁வைப்பு 288
38 287
யி 287
▁அடித்தள 287
▁அளவிலும் 287
▁ஆபத்தான 287
▁இணைக்கும் 287
▁இருக்கிறேன் 287
▁ஐய 287
▁ஒடிசா 287
▁குர 287
▁கூட்டுற 287
▁கொள்கையில் 287
▁சுமத்த 287
▁தலைவரும் 287
▁திரும 287
▁பிரதிய 287
▁மாவட்டம் 287
▁வது 287
▁வளர்ச்சிய 287
▁வேக 287
ஒ 286
டுகள 286
▁ஆண்டும் 286
▁உண்மையை 286
▁உள்ளதாக 286
▁எடுக்கப்படும் 286
▁ஒருங்கிணைக்க 286
▁கர் 286
▁குழந்தைகளின் 286
▁செய்யவேண்டும் 286
▁டொ 286
▁தணிக்கை 286
▁தொடர்ந்தும் 286
▁நீடிக்க 286
▁படிக்க 286
▁பள்ளிகள் 286
▁பிரதி 286
▁மாற்றும் 286
▁முயற்சிகளில் 286
▁ரு 286
▁ரூபா 286
▁வைத்திய 286
▁ஸ்மார்ட் 286
டம் 285
டுகள் 285
பாத 285
மடைந்த 285
ுக்கோ 285
▁இருபது 285
▁செய்யலாம் 285
▁நாடுகளை 285
டுக 284
நோக்கிய 284
ன்ச 284
வந்த 284
வாங்க 284
வேண்டாம் 284
ிக்கின்றனர் 284
▁உபகரண 284
▁உருவாக்குவதில் 284
▁கொழும்பில் 284
▁சனிக்கிழமை 284
▁நடவடிக்கைகளின் 284
▁படையின் 284
▁வளர்ச்சிப் 284
▁வீடுகளை 284
▁வெடித்த 284
92 283
சால 283
த்தாலும் 283
ாலோ 283
▁அதிகாரிகளின் 283
▁அறிக்கைகள் 283
▁ஆற 283
▁உருவாக்கவும் 283
▁சூப்பர் 283
▁நாயக 283
▁பொருள 283
▁வழிமுறைகள் 283
▁விளங்குகிறது 283
85 282
ங்கின் 282
டுத்தப்பட்ட 282
விழ 282
ாரின் 282
ுவோர் 282
▁அறிமுக 282
▁உண்மைய 282
▁ஒட்டு 282
▁சாட்சிய 282
▁டை 282
▁தேவையில்லை 282
▁புர 282
▁மார்க 282
▁வளமான 282
▁விடுவ 282
▁வியாழ 282
▁விலக்க 282
▁விஷயங்களை 282
திரு 281
த்தன்மையை 281
லன் 281
ளம் 281
ளும் 281
ஸ்ஸ 281
ுறையில் 281
▁எருசலேம 281
▁ஏற்பட 281
▁கட்டுப்பாட்டை 281
▁தொழிற்சாலைகள் 281
▁நிற்ப 281
▁முடிவிற்கு 281
▁மேல 281
▁வகுப்ப 281
▁வானொலி 281
▁ஸ்க 281
னார் 280
ஸை 280
ாவி 280
ொடு 280
▁இருந்தே 280
▁சங்கத்தின் 280
▁சிக்கன 280
▁செயலாள 280
▁தியாகம் 280
▁தேதிய 280
▁பாதிக்கும் 280
▁பெற்றார் 280
▁போன்றவற்றை 280
▁மக்களில் 280
▁வாரத்தில் 280
ளவ 279
ொழ 279
▁அநேக 279
▁அபாய 279
▁உத்தரவாத 279
▁காந்தியின் 279
▁கூற்ற 279
▁நடத்துவதற்கு 279
▁நான்க 279
▁முன்னணியில் 279
▁ரசிகர்கள் 279
▁வசன 279
▁வேலைகளை 279
▁வேளை 279
ங்கில் 278
செய்து 278
ப்பட்டிருந்தது 278
ர்ட் 278
ுக்குச் 278
▁அகதிகள் 278
▁இயலும் 278
▁உலகத் 278
▁என்பதுடன் 278
▁என்றே 278
▁ஒலிபரப்பு 278
▁கடன்கள் 278
▁கழகத்தின் 278
▁சந்தைகள் 278
▁சம்பளம் 278
▁சுவாமி 278
▁நிறுத்தம் 278
▁பெறுவது 278
▁முறைக்கு 278
▁முழுவதையும் 278
▁வாழ்க்க 278
▁வீழ்ச்சிய 278
ஐடி 277
சும் 277
தல் 277
நிலையில் 277
வழி 277
▁அதிருப்த 277
▁அப்பா 277
▁இடத்திற்கு 277
▁ஏற்பட்டு 277
▁கழிவு 277
▁சிங்கப்பூர் 277
▁தொகையில் 277
▁நிபந்தன 277
▁படைகளின் 277
▁பெட்ரோலிய 277
▁மாளிக 277
▁மேற்கொண்டார் 277
▁வளங்களை 277
▁வாக்களித்த 277
டங்கு 276
ியு 276
ுவிட்டன 276
▁அமைப்புகளின் 276
▁எகிப்து 276
▁எதிர்த்துப் 276
▁ஒடுக்க 276
▁கலக 276
▁தயாரிக்கப்பட்ட 276
▁நோய 276
▁பாள 276
▁பின்வரும் 276
▁புற்றுநோய் 276
▁மகிழ்ச்சிய 276
▁வந்தனர் 276
▁வரிகள் 276
▁வாங்கும் 276
▁வெளிநாடு 276
ப்போக 275
மத 275
ாளராக 275
ுக்காகவும் 275
ேல் 275
▁அவைகளின் 275
▁குழப்ப 275
▁தொடங்கியுள்ளது 275
▁நய 275
▁பற்ற 275
▁பலத்த 275
▁பிரதிநிதித்துவ 275
▁மாண 275
▁மொபைல் 275
ங்களான 274
செய்யும் 274
ன்பி 274
ர்களைக் 274
வாக்க 274
ாந்த 274
ாலம் 274
ிப்பில் 274
ுவதையும் 274
▁அஜித் 274
▁அடிப்படைக் 274
▁இறக்கு 274
▁கட்சித் 274
▁கல்ல 274
▁காவ 274
▁சலுகை 274
▁சீற்ற 274
▁தெரிவு 274
▁தேதிகளில் 274
▁பலவீன 274
▁மாறுபட்ட 274
▁முயற்சியாக 274
போன 273
ல்த 273
ல்ஸ் 273
ிற்குப் 273
▁அரசியல்வாத 273
▁அலை 273
▁ஆந்திர 273
▁இவ்வித 273
▁ஒத்து 273
▁ஒப்பிடுகையில் 273
▁கதையை 273
▁சினிம 273
▁செய்யப்பட்டுள்ள 273
▁நாடும் 273
▁நிராகரிக்க 273
▁பயணத்தின் 273
▁முறைகளை 273
▁வந்தபோது 273
▁வேத 273
திக்க 272
ப்பாய 272
வைப் 272
ெக் 272
ெடுக்கும் 272
▁இரட்ட 272
▁கட்டிட 272
▁கனவு 272
▁கவனத்தை 272
▁கொன்ற 272
▁பயிற்சிய 272
▁பிடிக்க 272
▁வாழ்க்கையின் 272
டுவதற்கான 271
ண்டர் 271
பர 271
ரிக்கும் 271
▁உத்வேக 271
▁ஒடுக்கப்பட்ட 271
▁குண்டுவீ 271
▁கெட்ட 271
▁சட்டத்தில் 271
▁ஜோடியாக 271
▁தேவைகள் 271
▁நேச 271
▁பயணத்தை 271
▁புகைப்பட 271
▁மாதங்கள் 271
▁யார 271
▁லிமிடெட் 271
▁வளங்கள் 271
தந்திர 270
மில்லாமல் 270
ையாள 270
்களில் 270
▁கண்க 270
▁குறிப்பிட்டு 270
▁கைதிகள் 270
▁சட்டமன்ற 270
▁தனிப்ப 270
▁தெரியாது 270
▁பிளேய 270
▁பெறுவதற்கான 270
▁முதலீட்டாளர்கள் 270
▁ஸ்தாப 270
சில் 269
தின 269
போதிலும் 269
மதி 269
▁உலகிலேயே 269
▁ஒதுக்கப்பட்ட 269
▁கச 269
▁கிரேக்க 269
▁குழுவின 269
▁கூறப்பட்டது 269
▁ஜப்பான 269
▁தலா 269
▁பாரிஸ் 269
▁முன்மொழ 269
ிடு 268
ுக்கி 268
▁ஆணை 268
▁இடங்களிலும் 268
▁கர்நாடக 268
▁கிராமங்கள் 268
▁குடியிருப்பு 268
▁குவி 268
▁சாய 268
▁சொல்லிய 268
▁திட்டமிட்டு 268
▁தூத 268
▁தூதர் 268
▁நூற்றாண்டில் 268
▁பரவலாக 268
▁பிரிட்ட 268
▁புலி 268
▁பொருளாதாரத் 268
▁போத 268
▁மையத்தின் 268
▁வலிமையான 268
▁வலை 268
▁வீரர் 268
ஜேபி 267
ட்க 267
னல் 267
னைகள் 267
ல்களும் 267
வியை 267
ார்ந்த 267
ெட்ட 267
ென்ற 267
▁உண்டாக்க 267
▁சம்பவங்கள் 267
▁புகழ்பெற்ற 267
▁முகாம் 267
▁முன்வைக்க 267
▁வருத்த 267
▁வளாகத்தில் 267
▁வெளிவந்த 267
க்களையும் 266
ன்களைப் 266
ன்ட் 266
மாகி 266
மாய்க் 266
வனை 266
▁இருக்கவேண்டும் 266
▁உணர் 266
▁ஊக 266
▁என்னைப் 266
▁எளிய 266
▁கட்சியில் 266
▁காட்டியது 266
▁தரை 266
▁தெரிவிக்கும் 266
▁தொடர்புகள் 266
▁பறிமுதல் 266
▁மகாராஷ்டிரா 266
டல் 265
ன்களை 265
பொழுது 265
ப்பதும் 265
ுக்கள 265
ுள்ளே 265
ையோடு 265
▁அமைப்பான 265
▁உருவாக்கப்படும் 265
▁என்னால் 265
▁கருதி 265
▁காட்டுகின்றன 265
▁கூட்டமைப்பின் 265
▁தகவலை 265
▁பகிர்ந்த 265
▁பின்னரும் 265
▁மிர 265
▁லெபனான 265
▁வேண்டியுள்ளது 265
ப்பாடு 264
ானை 264
ார்த்த 264
ிட்டனர் 264
ிவிட்டார் 264
▁அஸ்த 264
▁கம்பெனி 264
▁குழுவை 264
▁சாத்தியமான 264
▁தன்மைய 264
▁நடாத்த 264
▁பங்காள 264
▁மியான்மர் 264
▁முற்ப 264
▁வாயு 264
▁வாரங்களில் 264
▁விதமான 264
▁வீழ்ச்சி 264
ரைத் 263
ல்கள 263
ினா 263
ையினால் 263
▁அவசியமாகும் 263
▁உதவியை 263
▁உள்நாட்டில் 263
▁சிரிய 263
▁தாண்டி 263
▁துறையை 263
▁நிலைமைகள் 263
▁பராமரிக்க 263
▁பள்ள 263
▁பிரே 263
▁பேண 263
சூ 262
ப்போடு 262
வர்களையும் 262
ாட்டின் 262
ாளர்களில் 262
▁இடம்பெற 262
▁இடைய 262
▁கிராமத்தில் 262
▁சக்தியாக 262
▁நேரில் 262
▁மாசு 262
▁யாக்கோ 262
▁வெற்றியை 262
செய் 261
டுத 261
ந்தை 261
ப்பிலும் 261
▁ஆவது 261
▁உள்நாட்டுப் 261
▁ஏதேனும் 261
▁கொண்டுவந்த 261
▁சேவையில் 261
▁தொலைத்தொடர்பு 261
▁நோக்கமாக 261
▁நோக்கில் 261
▁பேட்டியில் 261
▁முன்னெடுக்க 261
▁முன்னேறிய 261
▁லண்டன் 261
▁வாக்களிக்க 261
▁வாக்காளர்கள் 261
▁வாங்கி 261
களின் 260
ணிய 260
றைகள் 260
வைக் 260
▁அதேபோல 260
▁ஆகியவற்றிற்கு 260
▁ஆகியோரின் 260
▁ஆசார 260
▁இயங்க 260
▁உதவுகிறது 260
▁ஏவுகணை 260
▁கொண்டுவந்து 260
▁சீனாவில் 260
▁தங்கம் 260
▁தடைகள் 260
▁நதி 260
▁நிர்வாகத்தில் 260
▁பதவியை 260
▁மோசடி 260
▁வரலாற்றுச் 260
▁விவரம் 260
ஸ்கோ 259
ானால் 259
ிக்கப்பட்டன 259
▁அடிக்க 259
▁உலகெங்கிலும் 259
▁உள 259
▁கொள்வதற்கு 259
▁சமய 259
▁டேவிட் 259
▁தொடங்கப்பட்டது 259
▁நடிகை 259
▁பஞ்ச 259
▁பொழுது 259
▁வெப்ப 259
த்தள 258
த்துச் 258
▁ஆரம்பித்த 258
▁இணைப்பை 258
▁ஊழியர் 258
▁ஒருவரை 258
▁கல்வித் 258
▁காணாமல் 258
▁நட்புற 258
▁நிர்மலா 258
▁நிலைப்பாடு 258
▁நிலையிலும் 258
▁பங்கெடுத்த 258
▁பயனுள்ள 258
▁மசோ 258
▁மறுசீரமைப்பு 258
▁மறுபடியும் 258
▁மும்பையில் 258
▁ரஜின 258
▁வாஜ் 258
▁வேண்டி 258
நான 257
ய்ய 257
லனை 257
ிராத 257
▁இச்ச 257
▁கடு 257
▁கட்டள 257
▁குஷ் 257
▁கொண்டிருந்தார் 257
▁கொண்டுள்ளார் 257
▁தேர்தலுக்கு 257
▁நிலையங்களில் 257
▁பலம் 257
▁பாசிச 257
▁போட்டிகள் 257
▁போட்டு 257
▁வழிவகு 257
▁வெவ்வேறு 257
க்கத்தை 256
க்கல் 256
ப்பதோடு 256
ாரை 256
ிவா 256
▁அவைகளை 256
▁ஆளுநர் 256
▁ஈரானின் 256
▁உடன்பாட்ட 256
▁உயிரிழந்த 256
▁உருவாக்குவதற்கு 256
▁பசிபிக் 256
▁பலன்கள் 256
▁விஜயம் 256
க்கக் 255
டுகிறார்கள் 255
ரிடையே 255
ழ் 255
வதோடு 255
▁ஏற்றுக்கொண்ட 255
▁கண்டது 255
▁கலைஞர்கள் 255
▁குற்றங்கள் 255
▁சிறுபான்மையினர் 255
▁டிர 255
▁டிரில்லியன் 255
▁தெரிவிக்கிறது 255
▁பிரிவினர் 255
▁புரிந்த 255
▁பொருள்களை 255
▁மாட்ட 255
▁ரவி 255
டான 254
ாசியில் 254
ிப்பதில் 254
▁அமைந்தது 254
▁அவ்வ 254
▁ஆராய்ச்சிய 254
▁கொள்ளுங்கள் 254
▁சமுதாயம் 254
▁செலுத்தினார் 254
▁நாக 254
▁நிலைம 254
▁பெறப்பட்ட 254
▁மறைந்த 254
▁மீட்க 254
▁வகுக்க 254
க்குரிய 253
டிப்பு 253
போன்ற 253
ரல் 253
▁அணுகுமுற 253
▁அந்தந்த 253
▁இப்போதும் 253
▁இரயில் 253
▁உடன 253
▁எந்தக் 253
▁களில் 253
▁தடைகளை 253
▁திரும்பிய 253
▁நாச 253
▁நிர்ப 253
▁நுட்ப 253
▁பட்டுள்ளது 253
▁ரசாயன 253
டுகளின் 252
தாவ 252
தைய 252
மிர 252
ீட் 252
▁ஈடு 252
▁உத்திர 252
▁எத்தகைய 252
▁கண்டுபிட 252
▁சுபாஷ் 252
▁செலவிட 252
▁செல்வாக்கை 252
▁தொடர்புகளை 252
▁நேரங்களில் 252
▁பகுதிகளுக்கு 252
▁முன்னோடி 252
▁மையத்தை 252
▁வான் 252
எப் 251
ொலி 251
▁அன்பு 251
▁ஆதலால் 251
▁இதன்படி 251
▁இரக்க 251
▁எதிர்க் 251
▁கொண்டுவரும் 251
▁சாதனைகள் 251
▁செய்வோம் 251
▁தேசத்தை 251
▁போதை 251
▁மதிப்பீட்ட 251
▁முன்னெச்ச 251
▁முழுவத 251
▁மேம்படுத்துதல் 251
▁வலைதள 251
197 250
பிசி 250
ரைச் 250
ெய்த 250
▁அங்கீகரிக்க 250
▁அம்பேத்கர் 250
▁அரசை 250
▁ஊடாக 250
▁எங்க 250
▁சன் 250
▁சுத்த 250
▁செல்வதற்கு 250
▁துறையினர் 250
▁நாத் 250
▁நிகழ்வில் 250
▁பரிச 250
▁மேம்பட்ட 250
▁மையங்களில் 250
1998 249
ணர்வு 249
ர்களிடையே 249
ின்றார்கள் 249
▁அவர்களும் 249
▁ஆகியோரும் 249
▁ஆலோசகர் 249
▁இவ்வளவு 249
▁உழைப்பு 249
▁எதிராகவும் 249
▁எதிர்க்கும் 249
▁கருத்துக் 249
▁தனிமைப்படுத்த 249
▁திடீர் 249
▁நிகழ்ச்சியை 249
▁பாதிப்பை 249
▁முதலீடுகள் 249
▁வகித்த 249
▁வெற்றிகரமான 249
▁வெளியுறவுத்துறை 249
ங்களுடைய 248
டுகளை 248
பால் 248
வில 248
ிவு 248
▁அரசால் 248
▁அளிப்பதாக 248
▁இதைத் 248
▁எழுதி 248
▁ஏமாற்ற 248
▁ஏல 248
▁ஒப்படைக்க 248
▁சித்திரவதை 248
▁சொன்னார் 248
▁தொடு 248
▁நடத்தினார் 248
▁நடத்துவது 248
▁நிரப்ப 248
▁யூதா 248
▁வந்துள்ளன 248
▁வரிவி 248
ப்பதுடன் 247
ராகவும் 247
ல்லாத 247
ையிட்ட 247
▁ஆப் 247
▁இவருடைய 247
▁ஒட்ட 247
▁ஒருவேளை 247
▁காலத்தின் 247
▁கோட்ட 247
▁சுதந்திரப் 247
▁தளர்த்த 247
▁தீப 247
▁நடைமுறைக்கு 247
▁நிலுவையில் 247
▁பரப்பு 247
▁பிரதிபலிக்கிறது 247
▁மகள 247
▁மிகச்சிறந்த 247
▁மோசமாக 247
▁விழுந்து 247
ட்ஸ் 246
நாட்டு 246
ந்தர் 246
ளத்தில் 246
வர்களுடன் 246
்ட்ட 246
▁இன்ற 246
▁உரு 246
▁ஏழைகளுக்கு 246
▁கட்சியான 246
▁சீர்குலை 246
▁செயல்படுத்தி 246
▁செலவழ 246
▁தயாரித்து 246
▁தொடர்பை 246
▁நோய்கள் 246
▁பரிமாறிக் 246
▁மண்ட 246
▁மீள 246
▁முகம் 246
▁வடகொ 246
▁வளர்ப்பு 246
▁விமர்ச 246
▁விமானத்தில் 246
▁விளம்பர 246
சியா 245
ீக 245
▁அணுவாயுத 245
▁அமல் 245
▁ஆகியோ 245
▁எடுத்துக்கொள்ள 245
▁குறைந்துள்ளது 245
▁கைவிட்ட 245
▁கோரிக்கைகளை 245
▁சமுதாயத்தில் 245
▁நகரத்தின் 245
▁பார்த்தால் 245
▁போக்கை 245
▁வண்ணம் 245
பட்ச 244
லிருந்து 244
வரே 244
ாட்டி 244
▁அனுமத 244
▁இயக்குனர்கள் 244
▁உதவிகள் 244
▁ஒருவரும் 244
▁காட்சிகள் 244
▁சங்கில 244
▁சட்டங்களை 244
▁சிங்க 244
▁செனட் 244
▁ஜன் 244
▁டய 244
▁தலைவர்களை 244
▁தள்ளி 244
▁தாக்கிய 244
▁தோன்றுகிறது 244
▁பயன்கள் 244
▁பொன்ன 244
▁வெள 244
▁வைத்திருக்கும் 244
த்தையே 243
ப்படுகின்றது 243
ப்பட்டிருக்கும் 243
முறையின் 243
மூட்ட 243
ராத 243
▁அமெரிக்காவும் 243
▁அல்க 243
▁ஆழமாக 243
▁சென்றது 243
▁செல்வாக்க 243
▁ஜூ 243
▁தேசியப் 243
▁நடவடிக்கையாக 243
▁பாசன 243
▁பிரதேசங்களில் 243
▁புகழ 243
▁மறுசீர 243
▁வளர்ச்சியின் 243
▁விருந்த 243
த்தில்தான் 242
ிரா 242
ுதே 242
்கூட 242
▁அனும 242
▁அமைத்து 242
▁இணைத்துக் 242
▁என்கிறார் 242
▁கருவி 242
▁கஷ்ட 242
▁சுற்றிலும் 242
▁டா 242
▁நலம் 242
▁பெர் 242
க்கா 241
க்கால 241
பார் 241
மாவ 241
மிடம் 241
ோக 241
▁அதுதான் 241
▁அமைதியான 241
▁ஆல் 241
▁இயலாத 241
▁இவருக்கு 241
▁ஏற்படுத்திக் 241
▁காப்பீட்டுத் 241
▁காவலில் 241
▁செய்துள்ளனர் 241
▁தரப்பின 241
▁தோல்விய 241
▁நடைபெறுகிறது 241
▁பில 241
▁போராட்டத்தின் 241
▁மானியம் 241
▁ரூப 241
ட்டல் 240
ரியில் 240
வின 240
ுமா 240
▁அற்ற 240
▁தன்னாட்சி 240
▁தருணத்தில் 240
▁நிச்சய 240
▁பதவிய 240
▁பரப்ப 240
▁பொதுமக்களின் 240
▁மணிப்பூர் 240
▁முதலீ 240
▁ஹு 240
95 239
ன்ற 239
ரும 239
‌ 239
▁ஆஸ்திரேலியா 239
▁கடன்களை 239
▁குறிப்பிட்டது 239
▁சரிய 239
▁சூழ்நிலையை 239
▁தொழில்நுட்பக் 239
▁நடுவே 239
▁படிப்படியாக 239
▁பயிர 239
▁பயிற்ச 239
▁பில்லிய 239
▁பெருமளவு 239
▁முடியுமா 239
ணவ 238
த்தோடும் 238
முழ 238
மைப்பை 238
லியை 238
ல்படுத்த 238
ளைப் 238
ிக்கப் 238
ிவைத்த 238
ுறையின் 238
ென்றும் 238
▁கண்டிப்பாக 238
▁கிருமி 238
▁கொள்கைக்கு 238
▁சந்திக்கும் 238
▁சுற்றுச் 238
▁ஜார்க்கண்ட் 238
▁தமிழ்நாட்டில் 238
▁பகுதியின் 238
▁பங்கேற்பு 238
▁பல்ல 238
▁பெரும்பான் 238
▁பொய்ய 238
▁மது 238
▁வேட்பாளராக 238
கத்தை 237
ங்கோ 237
டுகளில் 237
நெ 237
மளிக்க 237
ர்ந்து 237
▁ஆஃப் 237
▁கடைசியில் 237
▁கிழமை 237
▁கூட்டுத்தாபன 237
▁தர் 237
▁தாய 237
▁புயல் 237
▁பொருட்டு 237
▁மறைக்க 237
▁மாவட்டங்கள் 237
இன் 236
ப்பட்டிருக்கிறது 236
ளவிற்கு 236
வைகள் 236
ீடுகள் 236
▁அழைத்த 236
▁அழைத்துச் 236
▁ஆணையர் 236
▁இருப்பத 236
▁கனடா 236
▁கம்ப 236
▁கிரிய 236
▁குற்றவாள 236
▁கோரும் 236
▁சக்திவாய்ந்த 236
▁தப்பி 236
▁திறமையான 236
▁நிர்வாகத்தை 236
▁மாவ 236
▁முன்னிலையில் 236
▁மூழ்க 236
▁லங்கா 236
▁வெளிச்ச 236
▁வேகம் 236
ில்ல 235
”, 235
▁அதிவேக 235
▁அமைப்பது 235
▁இட்டு 235
▁இதைச் 235
▁உதாரண 235
▁டெல்லி 235
▁தலைவரின் 235
▁தினசரி 235
▁பழக்க 235
▁பாஜக 235
▁புத்தி 235
▁போவதில்லை 235
▁மனம் 235
▁மோதல்கள் 235
▁வகிக்கும் 235
▁விவகாரம் 235
குற 234
டுகளையும் 234
ட்டுப் 234
பய 234
மளிப்பு 234
யிர 234
ரேட் 234
ஸ்தானின் 234
ாயிற்று 234
ுக்களில் 234
▁அனைத்துக் 234
▁அரசிய 234
▁ஆகியோருக்கு 234
▁சான்றிதழ் 234
▁சுதந்திரக் 234
▁தற்கொலை 234
▁தலைவர்களின் 234
▁திட்டவட்ட 234
▁தொடர்பில் 234
▁நடிப்ப 234
▁பதப்படுத்துதல் 234
▁பிஎஸ் 234
▁யில் 234
▁வார்த்தைகள் 234
▁விதை 234
▁விற்ப 234
▁விவாதங்கள் 234
▁ஹரியானா 234
க்காரர் 233
சிங் 233
த்துக்கொண்டு 233
ந்தனர் 233
முறையில் 233
ம்த 233
ற்றுப் 233
ிக்கொள்ளும் 233
ினது 233
ீய 233
ெனினும் 233
▁அழைக்கப்படும் 233
▁ஆதரித்த 233
▁இடங்களை 233
▁இவ்வ 233
▁உள்கட்ட 233
▁குழுக்களின் 233
▁கூடி 233
▁சம்பாத 233
▁சுற்றுலாத் 233
▁நிதிநிலை 233
▁பந்த 233
▁பன்னாட்டு 233
▁பிரச்சனைகள் 233
▁விடய 233
க்கியது 232
மைப்படுத்த 232
ிக்கார 232
ிதான் 232
ுறுத்திய 232
▁தமிழகத்தில் 232
▁தோற்ற 232
▁பட்டம் 232
▁முகா 232
▁முன்னேற்றத்தை 232
▁விவக 232
44 231
பெற்ற 231
மையைப் 231
ற்றம் 231
ிகளைச் 231
ினும் 231
ிருப்பார்கள் 231
▁அதிர்ச்ச 231
▁அனைவரின் 231
▁அபி 231
▁ஈட்ட 231
▁கணிப்பு 231
▁கப்பல்கள் 231
▁குல 231
▁குழந்தைகளை 231
▁கூறப்படும் 231
▁கொண்டாடும் 231
▁செய்வதன் 231
▁நடக்கிறது 231
▁நடத்தப்பட 231
▁நிறுவனத்தை 231
▁பலிய 231
▁பொருந்தும் 231
▁மறந்து 231
▁மிச்ச 231
▁மேலே 231
▁விலகி 231
ணர்வ 230
ரீதியாக 230
ளு 230
விட்டன 230
ினருக்கு 230
ுவதால் 230
▁அண 230
▁அரிசி 230
▁உறுப்பினர்களை 230
▁எழுப்பிய 230
▁காயமடைந்த 230
▁கூறுகின்றனர் 230
▁கொள்கைகளுக்கு 230
▁சிலை 230
▁தொலைபேச 230
▁தொலைவில் 230
▁பிடி 230
▁மண்டலத்தில் 230
▁ஸ்வ 230
ட்டம் 229
ப்படுகின்ற 229
ர்ப 229
ற்றி 229
ிகை 229
▁அங்குள்ள 229
▁அதிகரிக்கவும் 229
▁அன்றைய 229
▁அல்லாமல் 229
▁உலகத்தின் 229
▁ஒருமை 229
▁ஒழிப்பு 229
▁கண் 229
▁குடிமக 229
▁குற்றவியல் 229
▁கோரிக்கைகள் 229
▁சதி 229
▁சுற்றியுள்ள 229
▁செவ்வாய 229
▁சொத்துக்கள் 229
▁தீவு 229
▁துண 229
▁தொழிற்துறை 229
▁நீதிய 229
▁பாதுகாப்பாக 229
▁பிற்ப 229
▁பொலிவ 229
▁மக்களவையில் 229
▁மாய 229
▁முற்பட்ட 229
▁விசாரணைக்கு 229
▁வெளிய 229
சல் 228
லக 228
வில்ல 228
ாட்டம் 228
ாரர் 228
▁அந்தமான் 228
▁இலட்சம் 228
▁உதி 228
▁கண்ணோட்ட 228
▁கர்நாடகா 228
▁காத 228
▁கைவினை 228
▁தற்பொழுது 228
▁நன்றாக 228
▁நுழை 228
▁பங்கேற்று 228
▁புத்தக 228
▁பொதுப் 228
▁வளர்ந்த 228
▁வாரணாசி 228
▁விலையை 228
தைச் 227
ப்பகுதி 227
மைக்காக 227
ருவது 227
ாவிடம் 227
ிருக்கின்ற 227
ிஸ்த 227
▁ஆலோச 227
▁இடம்பெறும் 227
▁உள்ளாட்சி 227
▁காணப்பட்ட 227
▁துறைகளிலும் 227
▁நண்பர்கள் 227
▁மாறும் 227
▁வருடாந்திர 227
டுகின்ற 226
ட்டுகள் 226
தாஸ் 226
ன்களின் 226
போன்று 226
ப்பர் 226
வைத் 226
ிட்டம் 226
ியர் 226
ேயாகும் 226
ையிட்டார் 226
ையின்படி 226
▁உண்டான 226
▁என்பதோடு 226
▁எப்பட 226
▁ஒட்டுமொத்தமாக 226
▁கிடைத்துள்ளது 226
▁கூட்டத்தின் 226
▁கேரளா 226
▁சர 226
▁சென்றார் 226
▁செய்யப்படுகிறது 226
▁செல்வது 226
▁சை 226
▁தற்காலிகமாக 226
▁பயிர் 226
▁பரிவர்த்த 226
▁பாக்தா 226
▁முன 226
▁விசா 226
▁விலைகள் 226
▁வெடி 226
▁வெடிப்பு 226
ண்டி 225
த்தின்போது 225
மாகச் 225
மிட 225
மித்த 225
ேஷ் 225
்குமார் 225
▁அதிகமாகும் 225
▁ஆயுதம் 225
▁இயக்கமாக 225
▁இயலாது 225
▁எங்கு 225
▁எதிராகப் 225
▁எப்போது 225
▁கருதப்படுகிறது 225
▁சார்பு 225
▁சுர 225
▁தண்ணீ 225
▁தவறாக 225
▁திட்டமி 225
▁தூக்கி 225
▁நிறுத்துவ 225
▁படத்திற்கு 225
▁பட்ச 225
▁மனோ 225
▁மறக்க 225
▁முஸ்லீம் 225
ணியில் 224
மாற 224
வல்ல 224
ைக்கப்பட்ட 224
ையாகவும் 224
▁அடக்கு 224
▁ஆசை 224
▁இயந்திர 224
▁எங்கும் 224
▁எப்போதுமே 224
▁சண்டை 224
▁தனியாக 224
▁தலைமைப் 224
▁தானியங்கள் 224
▁நோக்கத்துடன் 224
▁மனிதகுல 224
▁மேன்மை 224
▁ரக 224
▁வழங்கல் 224
▁வழங்குவதற்கு 224
▁விருந்தின 224
▁வேறுவ 224
▁’ 224
43 223
டுவதில் 223
த்தினாலும் 223
மானிய 223
மேக் 223
லுக்குப் 223
ளான 223
ியைச் 223
ுவதில்லை 223
்து 223
▁அஜ 223
▁அமர்த்த 223
▁அரசாங்கத்தால் 223
▁ஆகவே 223
▁ஆய்வுக் 223
▁ஆவிய 223
▁இள 223
▁ஓராண்ட 223
▁கணினி 223
▁கலந்த 223
▁குறைபாடு 223
▁செயல்படு 223
▁தலைமையின் 223
▁நெடுஞ்சாலைகள் 223
▁பகுதிகள 223
1991 222
தர 222
திலிருந்து 222
த்திற்குத் 222
மர 222
ர்ட 222
வனுக்கு 222
ாலி 222
▁அமெரிக்காவ 222
▁ஆயுதப் 222
▁இதையடுத்து 222
▁இருப்பதுடன் 222
▁கட்சியுடன் 222
▁கண்டுபிடிக்க 222
▁கருதப்படும் 222
▁சாதனங்கள் 222
▁பின்னே 222
▁பிரக 222
▁போருக்குப் 222
▁மரணம் 222
▁மழ 222
க்கிறது 221
த்துள்ள 221
ப்பட்டால் 221
ப்பட்டிருந்த 221
மாக்கும் 221
யும் 221
வோருக்கு 221
ாமின் 221
ிருக்கையில் 221
▁அதிகாரிகளை 221
▁இரங்க 221
▁இறந்த 221
▁எச் 221
▁ஐசி 221
▁கவனத்தில் 221
▁கேள்விக்கு 221
▁சலுகைகள் 221
▁சொல்லும் 221
▁தகுதிய 221
▁தயாரிப்பில் 221
▁நடிகர்கள் 221
▁மாநிலங்கள 221
▁வாடிக்க 221
▁விழுந்த 221
▁வேண்டுமென 221
டுகின்றனர் 220
யில 220
ல்ட் 220
ோரை 220
▁அனு 220
▁அரசியல 220
▁அறை 220
▁இதுவும் 220
▁என்பவர் 220
▁காங்கிர 220
▁கான் 220
▁சமுக 220
▁சூர்ய 220
▁திரை 220
▁தென்னாப்பிரிக்க 220
▁தேர்தலை 220
▁நாட்களாக 220
▁நிதியுத 220
▁நியமி 220
▁படிப்பின 220
▁புருஷ 220
▁முதன் 220
▁முதன்முறையாக 220
▁விருதுகளை 220
▁வீடுகளுக்கு 220
▁வைத்திருந்த 220
82 219
ங்கொ 219
ப்படுகிறார்கள் 219
மார்க்க 219
ரங்க 219
ரிக்கு 219
லைவர் 219
ாண்டு 219
ாளர்களிடம் 219
ாவைப் 219
ியாகிய 219
▁அன்றாட 219
▁என்பதைப் 219
▁கையெழு 219
▁சிக்கலான 219
▁சினிமாவில் 219
▁சுற்றுப்புற 219
▁தம்மை 219
▁படையெடுப்ப 219
▁புத்தாக்க 219
▁போக்குவரத்துத் 219
▁விதிமுறைகளை 219
▁விளையாட்டுப் 219
கை 218
னியா 218
ன்களையும் 218
மயமா 218
ர்வு 218
ஸ்தானிய 218
ாடு 218
ுவிட்டு 218
▁அமெரிக்காவை 218
▁இத்தாலி 218
▁இருந்தபோது 218
▁உறு 218
▁காட்டிலும் 218
▁கிரிக்கெட் 218
▁கேட்டார் 218
▁கொஞ்சம் 218
▁சத்ய 218
▁ஜவுளி 218
▁ஜாக் 218
▁ஜீவன் 218
▁தம 218
▁தரப்பில் 218
▁தற்ச 218
▁தொட்ட 218
▁தொலைத் 218
▁பகுதிக்கு 218
▁புறப்பட்ட 218
▁போட்டிகளில் 218
▁மலையாள 218
▁மார்க்க 218
▁மோகன் 218
▁வழியை 218
▁விபத்தில் 218
▁வேகத்தில் 218
▁வைர 218
56 217
டனும் 217
நூ 217
பாடுகள 217
மையாக்க 217
வேலை 217
ின்கீழ் 217
ுதலுக்கு 217
▁அங்கீகார 217
▁இறந்து 217
▁இழப்ப 217
▁கொடூர 217
▁சர்க்கரை 217
▁தாக 217
▁நீக்கம் 217
▁பள்ளிகளில் 217
▁விஷ 217
த்தீவு 216
ேசன் 216
▁அடிக்கோ 216
▁அழைப்ப 216
▁ஆட 216
▁ஆய்வுகள் 216
▁இளைஞர்களை 216
▁ஒப்புக்கொள்ள 216
▁கட்டளை 216
▁கையாள் 216
▁சாட்ச 216
▁ஞாயிற 216
▁தவறு 216
▁தேர்ந்தெடுத்த 216
▁நுண்ணறிவு 216
▁பயன்படும் 216
▁பாதுகாப்புச் 216
▁பான 216
▁மிரட்ட 216
▁மை 216
▁யாவரும் 216
▁வணங்க 216
▁வந்திருக்கிறது 216
193 215
த்திற்குரிய 215
பம் 215
பாட்ட 215
ிக்கிறார் 215
▁அவசியமான 215
▁அவர்களால் 215
▁ஆகியவற்றால் 215
▁இவர்களில் 215
▁உரையை 215
▁காணொள 215
▁கிளர்ச்சி 215
▁தமக்கு 215
▁தலைநகர் 215
▁தெற்காசிய 215
▁தொழில்துற 215
▁பஞ்சாய 215
▁பரவல் 215
▁பிரச்சினையை 215
▁வெளிநா 215
ங்களோ 214
தர் 214
பவர்களுக்கு 214
மளிக்கும் 214
ையாவது 214
▁அருவ 214
▁அவரிடம் 214
▁இவற்ற 214
▁என்றுதான் 214
▁ஒலி 214
▁கூட்டணியில் 214
▁கொள்ளவில்லை 214
▁சார்பாக 214
▁செய்தால் 214
▁செலுத்து 214
▁திறன்களை 214
▁தீர்மானத்தை 214
▁நிகழ்ச்சிகளை 214
▁முன்னெடுத்த 214
▁வங்காள 214
▁வழங்குவதற்கான 214
▁விக்கிர 214
▁விட்டன 214
▁வீழ்ச்ச 214
நீ 213
மாண 213
ுக்களையும் 213
ையிட 213
▁அருண் 213
▁உணர்வுகளை 213
▁எண்ணெய 213
▁கச்சா 213
▁கட்டும் 213
▁காலக்க 213
▁கிராம் 213
▁கிறிஸ்துவ 213
▁குழுக்களை 213
▁சந்தைகளில் 213
▁செல்வம் 213
▁தப்பு 213
▁நல்லிண 213
▁நியமிக்க 213
▁நீங்க 213
▁பாத்திர 213
▁பிரசாத் 213
▁வணக்கம் 213
▁வரைவு 213
த்தியம் 212
முனை 212
ருக்குத் 212
வியல் 212
்டோ 212
▁அங்கமாக 212
▁அறிவுசார் 212
▁அவனைக் 212
▁அவர்களைக் 212
▁ஆகியவற்றுக்கான 212
▁இறுத 212
▁இல்லையா 212
▁உணவ 212
▁உரையாட 212
▁எதிரொல 212
▁தீவின் 212
▁நிக்கோ 212
▁நிச்சயம் 212
▁நியமன 212
▁பவு 212
▁பாதி 212
▁போராடி 212
▁போலந்து 212
▁மேற்கோள் 212
▁ரம் 212
▁ஸ்பெய 212
41 211
க்கப் 211
ட்சியின் 211
ருக்காக 211
ருக்குக் 211
ானுக்கு 211
ீர 211
ுவந்த 211
▁அவர்களிடம் 211
▁எல்லையில் 211
▁கொல்கத்தா 211
▁துயர 211
▁துறைமுகம் 211
▁தொகுப்ப 211
▁தொழிற்ச 211
▁மொழிகளில் 211
▁வந்திருந்த 211
▁வளைகுடா 211
▁விசேட 211
▁வேறுபட்ட 211
த்தாக்க 210
நாட்டின் 210
மைக்கப்பட்ட 210
ுவில் 210
▁அனுபவங்களை 210
▁அழிக்க 210
▁ஆதாரம் 210
▁இந்தியர்களின் 210
▁இலக்காக 210
▁இலக்குகள் 210
▁உதவிகளை 210
▁எளிதாக்க 210
▁கட்டுரையில் 210
▁காணொளி 210
▁குஜராத்தில் 210
▁சேரும் 210
▁தீர்த்த 210
▁துரோ 210
▁நிகழ்வ 210
▁பயங்கர 210
▁பயணத்தில் 210
▁பிரான்ச 210
▁பூட்டோ 210
▁பேச்சாளர் 210
▁வழங்கு 210
▁விலக்கு 210
▁ஸ 210
மிடையே 209
ியாகும் 209
ியைப் 209
▁அவ்வப்போது 209
▁இயற்ற 209
▁உதய 209
▁உயிரியல் 209
▁உருவான 209
▁குரோ 209
▁செய்துள்ளார் 209
▁திசையில் 209
▁தீபாவளி 209
▁நடுவில் 209
▁நிலைநிறுத்த 209
▁நிவாரணம் 209
▁பகுதிய 209
▁பணக்கார 209
▁பதக்கம் 209
▁பிராண 209
▁மறுத்துவ 209
▁மின்சக்தி 209
▁மேம்படுத்தி 209
▁வரம்பு 209
▁வரும்போது 209
▁வெளிப்ப 209
73 208
சர் 208
நிலையை 208
ப்படுக 208
மையானது 208
ாத் 208
▁இணையதளம் 208
▁இருக்கின்றனர் 208
▁ஐம்பது 208
▁கற்ற 208
▁கிடைக்கிறது 208
▁கிட்ட 208
▁கொள்ளை 208
▁சட 208
▁சுத்திக 208
▁செல்கிறது 208
▁தகவல 208
▁தபால் 208
▁தெஹ் 208
▁நன் 208
▁பருப்பு 208
▁பின்னும் 208
▁மடி 208
▁மாற்றியமை 208
▁முகாமில் 208
▁மொத்தமாக 208
▁யதார்த்த 208
▁வந்தார்கள் 208
▁விரும்பிய 208
▁விவரித்தார் 208
▁வெளிப்படுத்தும் 208
க்குழுவ 207
ங்களுக்குத் 207
டெ 207
ப்படுவதால் 207
ம்போ 207
ஸ்தல 207
ிலீ 207
ிஸ் 207
ுதல்கள் 207
▁ஆலோசக 207
▁இணைப்புகள் 207
▁குடியரசுத்த 207
▁கோவா 207
▁தத்துவ 207
▁தளத்தின் 207
▁திடீரென 207
▁திரையிட 207
▁துருக்கிய 207
▁தூண 207
▁நினைத்த 207
▁நிறுவனத்திற்கு 207
▁படு 207
▁பத்ம 207
▁பரவலான 207
▁பெய்ஜிங் 207
▁முறையே 207
▁லெ 207
▁வசதிய 207
▁வீரர்களுக்கு 207
ங்களின்படி 206
ஜோ 206
ட்டிங் 206
த்திற்குக் 206
த்திலான 206
த்துக்குத் 206
ப்பகுதியில் 206
லிச 206
ஷ்வ 206
ிப்புகள் 206
ூட்டும் 206
ெடுத்த 206
ென்றால் 206
▁இன்றைக்கு 206
▁தனிநப 206
▁துக்க 206
▁நடித்து 206
▁நிறைவேற்றும் 206
▁பழமையான 206
▁மாஸ்கோ 206
▁முறைகே 206
▁விதிகளை 206
ஃப 205
க்குள்ள 205
ச்சல் 205
வதையும் 205
ைகளிலிருந்து 205
▁அரசுகளுக்கு 205
▁உயர்த்தி 205
▁கழ 205
▁கீழ்கண்ட 205
▁குற்றம்சாட்ட 205
▁சத்திய 205
▁டிசம்பரில் 205
▁தெரியாத 205
▁பாட்ட 205
▁பெற்றுள்ளனர் 205
▁போர்க்கு 205
▁வாக்கெடுப்பு 205
▁வாயில 205
▁விளக்கிய 205
காசம் 204
ந்தும் 204
னாய 204
னால்தான் 204
ரோடு 204
லைக்க 204
▁அடிப்படையான 204
▁ஆகியவற்றைக் 204
▁இரும்பு 204
▁இலாபம் 204
▁காக்கும் 204
▁குடியிருப்ப 204
▁சிகிச்ச 204
▁சிறப்புப் 204
▁செயல்படுத்தும் 204
▁தொழிலில் 204
▁நாய 204
▁பங்கேற்கும் 204
▁பத்திரிகையாளர் 204
▁பிரதிபலிக்க 204
▁போராளிகள் 204
▁மாற்றிக் 204
▁மூலமான 204
▁வழிமுறைகளை 204
▁வைத்துள்ளது 204
91 203
பாய 203
ப்படுத்திக் 203
ரிக்கை 203
ாயா 203
ிகளுக்காக 203
ினின் 203
ியைக் 203
ிவிட்டன 203
ீம் 203
ேற்ப 203
▁அற்புதமான 203
▁இணைக்கப்பட்ட 203
▁உண 203
▁கடற்படையின் 203
▁கலந்துகொண்டனர் 203
▁கேள்வ 203
▁சகா 203
▁சந்நித 203
▁சரக்குப் 203
▁செயலக 203
▁தமிழ 203
▁துண்டு 203
▁பிரித்தானிய 203
▁மனைவிய 203
▁முத்திரை 203
▁வளர்க்க 203
எதிர் 202
சார்ந்த 202
டுவதாக 202
தென்று 202
ப்பான் 202
ரிக 202
ள்களை 202
ுக்குள்ள 202
▁அரி 202
▁இருந்தார்கள் 202
▁உணர்ந்து 202
▁உறுப்பினர்களின் 202
▁கடலில் 202
▁காஷ்மீரில் 202
▁குடும்பத்தினர் 202
▁சுற்றுலாப் 202
▁செயல்படுகிறது 202
▁செய்யு 202
▁தடுப்பூசி 202
▁நிர்வாகிகள் 202
▁நோயாளிகளுக்கு 202
▁பக்கத்தில் 202
▁பயன்பாட்ட 202
▁பிரிந்து 202
▁புரிய 202
▁மாற்றுத்திறன 202
▁லாப 202
▁வசனம் 202
▁வழிகளில் 202
▁வாடிக்கையாள 202
▁வாழ்ந்த 202
▁விக்கிரமசிங்க 202
▁விசாரணையில் 202
▁வேறுபாடு 202
▁ஹரி 202
51 201
னைச் 201
முட 201
மைத் 201
ிட்டுள்ளது 201
ுக்கொள் 201
ுமான 201
▁அணை 201
▁அவருடன் 201
▁ஆண்டை 201
▁எழும்ப 201
▁கொழும்ப 201
▁செயற்கைக்கோள் 201
▁தடவையாக 201
▁தீவுகள் 201
▁துறையின 201
▁நாளும் 201
▁பகை 201
▁படைய 201
▁பரிவர்த்தனை 201
▁பெற்றுக்கொள்ள 201
▁போட்டியி 201
▁முடிவெடுத்த 201
▁முறையும் 201
▁வந்தால் 201
▁வெள்ளிய 201
டுகிறோம் 200
மானம் 200
ர்டி 200
வணிக 200
ஷீ 200
ிக்கக் 200
ிக்கத் 200
ிலும 200
▁அலுவலகத்தில் 200
▁அழைப்பை 200
▁இருந்ததை 200
▁ஊடகங்களில் 200
▁எந்திர 200
▁கல்விய 200
▁காந்த 200
▁சமத்துவம் 200
▁சியோ 200
▁சிரியா 200
▁செய்தியாளர் 200
▁ஜென 200
▁தருகிறது 200
▁திட்டமான 200
▁தென்கிழக்கு 200
▁தெளிவு 200
▁தோழ 200
▁நீண்டகாலமாக 200
▁பட்சம் 200
▁மதுரை 200
▁மாணவ 200
▁மாறியுள்ளது 200
▁முன்னுரி 200
▁வரிசையில் 200
▁வழக்குகள் 200
▁விருப்பத்தை 200
▁வீச 200
39 199
டிப்ப 199
ப்பெ 199
விழா 199
ாதிப 199
ாயனம் 199
ினிய 199
ுவி 199
ெர் 199
▁அழக 199
▁ஆண்டுதோறும் 199
▁இதற்கிடையில் 199
▁ஏதுவாக 199
▁ஒருவ 199
▁குளிர் 199
▁கொடுக்கப்படும் 199
▁செய்யப்பட்டன 199
▁செய்வதாக 199
▁தலைமைத் 199
▁துறைகளின் 199
▁நிலவர 199
▁நூற்றாண்ட 199
▁பகுதியிலும் 199
▁பலன 199
▁பொறுப்பான 199
▁மட்டத்தில் 199
▁மருத்துவம் 199
▁மலை 199
▁வருவதால் 199
ஞ் 198
டிக்கும் 198
த்தொகை 198
னையில் 198
ப்புச் 198
லாக்கம் 198
ுள்ளதாகவும் 198
ைகளின்படி 198
▁அடைவதற்கு 198
▁அழைக்கப்பட்ட 198
▁ஆராய்ச்சிக் 198
▁உத்தரப் 198
▁எதிர்கொண்டு 198
▁எப்படிய 198
▁கவனிக்க 198
▁கார்பன் 198
▁குடிமக்களின் 198
▁குழந்த 198
▁துப்புரவு 198
▁நடைபெற்றன 198
▁நாடுகளைச் 198
▁நிகழ் 198
▁பழமைவாத 198
▁மஹி 198
▁வங்கிகளின் 198
▁வழக்கமாக 198
▁வழக்கை 198
▁ஸ்ரீலங்கா 198
லாக்க 197
ாளர்களால் 197
ுக்களுக்கு 197
ூர 197
▁ஆதாய 197
▁இயல்பான 197
▁ஊழியர்களின் 197
▁கங்க 197
▁காரணங்கள் 197
▁கொண்டன 197
▁கொள்ளப்பட்ட 197
▁சௌ 197
▁நிகழ்த்த 197
▁பிராந்தியம் 197
▁போஸ் 197
▁மற 197
▁மாணவர்களை 197
▁மீட்ப 197
▁மெகாவாட் 197
▁வசூல் 197
▁வழங்கப்பட 197
▁விண்ண 197
▁வெறுப்பு 197
▁வெளிப்படுத்திய 197
இந்த 196
என்எஸ் 196
எஸ்எம் 196
தேசிய 196
ப்படுத்துகிறது 196
ரங்கு 196
ாரோ 196
ாவைச் 196
ில்லாத 196
ுவதாகும் 196
▁எருசலே 196
▁கருவ 196
▁கலந்துகொண்ட 196
▁கார்ப்ப 196
▁கிழக்குப் 196
▁குறிக்கோ 196
▁சாதகமாக 196
▁சாம 196
▁சிவப்பு 196
▁ஜப்பானின் 196
▁தஞ்சம் 196
▁நவம்பரில் 196
▁படகு 196
▁பாடல்கள் 196
▁பூண்ட 196
▁முகமது 196
▁மேக் 196
▁வர்த்த 196
▁வார்த்தைகளை 196
சத 195
ஜாத 195
ஞ 195
ணிக்கு 195
திலும் 195
பெய 195
ப்படுவதுடன் 195
ப்படுவர் 195
மானதாக 195
முயற்சிய 195
லிலும் 195
லோக 195
ஷ்க 195
ிப்பதை 195
ுக்கென 195
ைக்குத் 195
▁இத்தாலிய 195
▁கவனமாக 195
▁கேட்ப 195
▁கொரியா 195
▁துணி 195
▁நேரமும் 195
▁பகுத 195
▁பார்த்துக் 195
▁பெருங்கடல் 195
▁மேட 195
▁விசாரிக்க 195
▁வைக்கப்பட்டது 195
ங்கர் 194
த்தினதும் 194
ரியம் 194
ர்தல் 194
வர்களே 194
விக் 194
ஸா 194
ாரில் 194
ிருத்த 194
▁அவரைப் 194
▁ஆதி 194
▁ஆவணங்கள் 194
▁இலவசமாக 194
▁ஏறக்குறைய 194
▁கணக்குகள் 194
▁கர்ப்ப 194
▁குரலில் 194
▁சிந்திக்க 194
▁சுரேஷ் 194
▁திருவிழா 194
▁முன்னணியின் 194
▁ரீதியிலான 194
▁விழாவை 194
இந்தியா 193
க்கப்பட்டுள்ளன 193
ணிகள் 193
ப்பணி 193
லங்க 193
்களுக்கான 193
்கோ 193
▁அமைப்புக்கள 193
▁அரசியல்வாதிகள் 193
▁ஆதரவையும் 193
▁உலகை 193
▁கட்டப்பட்ட 193
▁கவல 193
▁குறைப்பது 193
▁சிதை 193
▁செயலாற்ற 193
▁செய்தார்கள் 193
▁நிலத்தை 193
▁நுகர்வ 193
▁மையங்களை 193
▁வரவில்லை 193
▁வரவேண்டும் 193
▁வருவாயை 193
▁வேட்பாளர்கள் 193
1989 192
46 192
54 192
க்கிர 192
ங்டனில் 192
டைக 192
த்தலை 192
ந்துகொண்டு 192
முயற்சி 192
மூட்டும் 192
ர்ந்த 192
ிருப்பதற்கு 192
ுகோ 192
ேத 192
்துறை 192
▁அறிகுற 192
▁எஞ்சிய 192
▁எதிர்ப்புக் 192
▁எல்லாவற்றையும் 192
▁கட்டுப்பாடுகள் 192
▁கணிசமாக 192
▁களின் 192
▁காணிக்க 192
▁குடிமக்களுக்கு 192
▁குறையும் 192
▁குற்றச்சாட்டு 192
▁கூட்டணியின் 192
▁கொண்டிருப்பது 192
▁ஜோடி 192
▁திறக்க 192
▁தென்கொ 192
▁நிதிச் 192
▁பெரியார் 192
63 191
ட்டன் 191
ந்துகொள் 191
பவர் 191
புற 191
மாட்டேன் 191
▁ஏவி 191
▁கல் 191
▁சாசன 191
▁சிம்ப 191
▁சிலி 191
▁நடவடிக்கைகளும் 191
▁நீதிபதிகள் 191
▁பிராந்தியத்தின் 191
▁மக்களையும் 191
▁மாதிரியான 191
▁முத்திர 191
▁மெய்ய 191
▁வேண்டுமென்றே 191
▁வைத்துள்ள 191
196 190
கொ 190
சான் 190
டுகளுக்கும் 190
பாடுகளை 190
ரியாவின் 190
ாமி 190
▁அனுப்பப்பட்ட 190
▁அம்சங்களை 190
▁ஆண் 190
▁இலக்காகக் 190
▁உருவாகிய 190
▁எந்தத் 190
▁காணலாம் 190
▁தாழ் 190
▁தீய 190
▁தொடக்கம் 190
▁தொண்டு 190
▁நாடுக 190
▁நான 190
▁நாளைக்கு 190
▁பதிலளிக்க 190
▁பார்க்கும்போது 190
▁பியூ 190
▁பெற்றனர் 190
▁யோசனை 190
▁வகைகள் 190
▁வருடங்களுக்கு 190
▁வெளியேறும் 190
ர்களோ 189
ர்த் 189
ழிந்த 189
ிப்பத 189
▁அறிக்கையின் 189
▁இயக்குனராக 189
▁ஈர்க்க 189
▁உயர்கல்வி 189
▁எண்ணம் 189
▁எண்ணிக்கையிலான 189
▁எளிதான 189
▁ஒருமித்த 189
▁கன்ன 189
▁கருவியாக 189
▁கலாசார 189
▁கல்வியை 189
▁நல்லது 189
▁மின 189
▁மீன 189
▁வருவாய 189
▁விஜ 189
▁வித்தியாசமான 189
49 188
க்கியா 188
ளவிலான 188
ாவால் 188
ிகே 188
ூல 188
ெயின் 188
▁அபிவிருத்த 188
▁அமீ 188
▁இதனைத் 188
▁இன்றும் 188
▁ஊட்ட 188
▁ஏப்பிரல் 188
▁ஒன்றையும் 188
▁குப்ப 188
▁கூறியுள்ளனர் 188
▁சந்தேகம் 188
▁சற்றே 188
▁செய்வதற்கும் 188
▁நிர்வாகக் 188
▁பெய்ஜி 188
▁மட்டுமன்றி 188
▁மன்னர் 188
▁முதலாம் 188
▁மொத்தத்தில் 188
▁யாத 188
▁ரஷ்யாவின் 188
▁வாக்குப்பதிவு 188
▁வாய்ப்பாக 188
▁வாரங்களுக்கு 188
ணியை 187
மது 187
மிட்ட 187
முத 187
லையை 187
வரான 187
வியின் 187
ஸ்பெ 187
ாகம் 187
ிடமும் 187
ிவருகிறது 187
▁அதிகாரப்பூர்வ 187
▁அவர்களைத் 187
▁இருக்கின்றது 187
▁உரையின் 187
▁உறுதிமொழி 187
▁உற்ச 187
▁உள்ளவர்கள் 187
▁ஒதுக்கி 187
▁கடவுள் 187
▁கடைசியாக 187
▁கட்டட 187
▁கொண்டவை 187
▁சமாதானம் 187
▁சமுதாயத்தை 187
▁சென்றனர் 187
▁செலவை 187
▁தூரம் 187
▁தெருக்களில் 187
▁நடவடிக்கையின் 187
▁நிக 187
▁பணிகளுக்கு 187
▁பாகிஸ்தான 187
▁பீட்டர் 187
▁பெப்ரவரி 187
▁பெற்றுள்ளன 187
▁பேரை 187
▁மேற்கொள்வது 187
▁வரையறை 187
▁வளை 187
▁விண்வெள 187
டாக 186
தொடர் 186
பிட 186
வதும் 186
ின்றோம் 186
ையிலான 186
்களைக் 186
▁அந் 186
▁ஆலோசனைக் 186
▁இந்தியாவிற்கும் 186
▁இப்பிர 186
▁ஒன்றுதான் 186
▁ஒளிபரப்பு 186
▁கட்டம் 186
▁கையாளும் 186
▁செயல்கள் 186
▁டாலர்களை 186
▁திரைப்படம் 186
▁துருவ 186
▁துறைமுகங்கள் 186
▁தைரிய 186
▁நீர்வள 186
▁பங்குகள் 186
▁பஞ்சாயத்து 186
▁பணியாளர்கள 186
▁பாரம்பரியத்தை 186
▁புறநகர் 186
▁பொருளாதாரக் 186
▁முடிவடைந்த 186
▁மேற்பார்வ 186
▁லண்டனில் 186
▁வழிகாட்டுத 186
▁வைத்தது 186
47 185
தாய் 185
ந்தம் 185
ப்படுவதில்லை 185
ப்பதிலும் 185
ப்பதில்லை 185
லைகள் 185
வேண்டியது 185
ாளர்களுக்கும் 185
ின்றார் 185
ிரிய 185
▁அங்கிருந்து 185
▁ஆகியவையும் 185
▁ஆசன 185
▁ஆரோக்கியம் 185
▁ஆற்றலை 185
▁இணைப்ப 185
▁உலகெங்கும் 185
▁கோயில் 185
▁சென் 185
▁செய்துள்ளன 185
▁தமிழர் 185
▁தாய்மா 185
▁தாவீதின் 185
▁திரிபுரா 185
▁தீர்வை 185
▁நாயகன் 185
▁மன்றம் 185
▁முதலாவதாக 185
▁முறிய 185
▁வடிவமை 185
▁வாழ்வை 185
▁விரிவு 185
▁வெள்ளிக்கிழமை 185
டுவதற்காக 184
ட்ப 184
பிடி 184
மடைய 184
ருக்குச் 184
ஷ்ட் 184
ஸ்ரீ 184
ுவதற்க 184
ைகளான 184
ைக்குற 184
▁அநே 184
▁அமைத்தல் 184
▁இரசாயன 184
▁இருக்கக் 184
▁உயரும் 184
▁ஏற்படுத்தியது 184
▁கருவிகளை 184
▁கொள்ளப்படும் 184
▁கோபம் 184
▁கோல் 184
▁சுன்னி 184
▁செய்திகளை 184
▁தலைசிறந்த 184
▁திறன்கள் 184
▁நெரு 184
▁பாச 184
▁பொருளாதாரப் 184
▁முதலமைச்ச 184
▁முயற்சியின் 184
▁வேலைக்கார 184
டுகின்றன 183
தாகவே 183
ன்றி 183
ப்பாய் 183
விலே 183
ானே 183
ாவ் 183
ிப்பா 183
ிவான 183
ுக்குரிய 183
▁அவரவர் 183
▁அஸ் 183
▁ஆட்சே 183
▁இஸ்லா 183
▁எடுத்துக்கொண்ட 183
▁எரி 183
▁காசா 183
▁கீழ்க்கண்ட 183
▁கொண்டால் 183
▁தெரிவிக்கின்றன 183
▁நானோ 183
▁நூற 183
▁புரட்சியின் 183
▁போக்குவரத்தை 183
▁மண்ண 183
▁மாட்டார்கள் 183
▁மார் 183
▁வங்கதேச 183
▁வசதியாக 183
▁விரிவ 183
▁வீர் 183
▁வெளியிடப்பட்டது 183
இந்திய 182
கைய 182
ச்சார் 182
யாக 182
ற்றது 182
ிப்பதற்கும் 182
ீல் 182
ுத்துறை 182
ுவருக 182
▁அன்ன 182
▁அப்துல் 182
▁அலுவலர் 182
▁இப்பகுதியில் 182
▁இராணுவத்தினர் 182
▁எடுத்துக்கொண்டு 182
▁எவ்வ 182
▁ஒன்றியத்தில் 182
▁கொஞ்ச 182
▁சட்டத்திற்கு 182
▁சராசரியாக 182
▁சாய் 182
▁தமிழகம் 182
▁தியேட்ட 182
▁தீர்க்கத 182
▁துய 182
▁துவங்க 182
▁தொடங்குவதற்கு 182
▁நேரத்தை 182
▁பரபர 182
▁பாதித்த 182
▁புள்ளியியல் 182
▁வேலைக்கு 182
▁ஷேக் 182
▁ஹெக்டேர் 182
ங 181
ச்சல 181
தவிர 181
பாடு 181
ழிய 181
வதாகக் 181
ாலான 181
ீட 181
▁அதிகரிப்பது 181
▁அன்றி 181
▁அமர்ந்த 181
▁அவளை 181
▁ஆன் 181
▁ஆய்வில் 181
▁ஆளுமை 181
▁இந்தியன் 181
▁உலகத்தில் 181
▁கடத்தல் 181
▁காலக்கட்டத்தில் 181
▁சிக 181
▁சொத்துக்களை 181
▁டீ 181
▁தகுத 181
▁துன் 181
▁தெலுங்கில் 181
▁நட்புறவு 181
▁நிறைவேற 181
▁பிரிவை 181
▁முறையிலான 181
▁வசூல 181
▁விவரி 181
1995 180
இந்தியாவில் 180
த்தினரின் 180
லீ 180
வால் 180
ஸார் 180
ினரை 180
ீப் 180
▁அவர்களுடன் 180
▁இரத்தம் 180
▁ஈடுபடும் 180
▁எஃப் 180
▁கட்டுமானப் 180
▁காஷ்மீ 180
▁கொடுக்கிறது 180
▁கொண்டா 180
▁சந்தையை 180
▁ஜனாதிபதியின் 180
▁தேவைகளுக்கு 180
▁தொலைக்காட்ச 180
▁நித்திய 180
▁பத்த 180
▁பிரமாண்டமான 180
▁முப்பது 180
▁மூலதனம் 180
▁வலிமையை 180
▁வாலி 180
▁வாழ்க 180
▁விண்வெளித் 180
64 179
பதி 179
ரஸ் 179
ராது 179
ரேய 179
ல்தான் 179
வையாகும் 179
ிவிடு 179
ுட் 179
ைகளே 179
ையாகக் 179
▁; 179
▁அச்சம் 179
▁அம்சம் 179
▁அறுவடை 179
▁அற்புத 179
▁உலகளவில் 179
▁எதிர்ப்புத் 179
▁என்கிறார்கள் 179
▁ஏகாதிப 179
▁ஏற்படுகிறது 179
▁கணிப்ப 179
▁கண்டறியும் 179
▁கிராமப் 179
▁குறிக்கோள 179
▁கோடிய 179
▁சமூகத் 179
▁செய்யத் 179
▁ஜெப 179
▁நடுவர் 179
▁பக்தர்கள் 179
▁பலமான 179
▁பொதுமக்களுக்கு 179
▁போட்டியிட 179
▁மாற்றுவதற்கு 179
▁முந்திய 179
▁ராணுவம் 179
▁வருடங்களாக 179
▁வெளியிட்டு 179
டைந்துள்ளது 178
ணா 178
த்தன் 178
த்திற்குள்ள 178
ப்படைகள் 178
ப்பல் 178
ப்பால் 178
மணி 178
ம்கூட 178
யின 178
▁அக் 178
▁அஞ்சலக 178
▁அடித்து 178
▁அடுக்க 178
▁அமைப்பதற்கு 178
▁அமைப்புகளை 178
▁ஆகவும் 178
▁இழக்க 178
▁உருவாக்கம் 178
▁எண்ணிக்க 178
▁காசி 178
▁காலகட்ட 178
▁கொடுப்பது 178
▁சதுர 178
▁சின் 178
▁செயல்முறை 178
▁தீர்வுகள் 178
▁நட்ப 178
▁நிலவிய 178
▁பங்காற்ற 178
▁பண்டிகை 178
▁பலமுறை 178
▁போட்டியிடும் 178
▁முனைவோர் 178
▁முன்னைய 178
▁வகிக்கிறது 178
▁வளர்ச்சிக்கும் 178
▁விக 178
▁விரு 178
டிக்கொண்ட 177
ண்ணும் 177
ன்பே 177
ர்தன் 177
ாட்டுக் 177
ூக 177
ேயே 177
ைகளுக்குத் 177
▁அதிர்ச்சி 177
▁அரசுக்கும் 177
▁இணைத்து 177
▁எழுதினார் 177
▁கட்டுப்பா 177
▁கூட்டுப் 177
▁கொள்வதற்கான 177
▁சுனாமி 177
▁தகுந்த 177
▁தனுஷ் 177
▁தலைப்ப 177
▁நியம 177
▁பத்திரிகையாள 177
▁பிரதமராக 177
▁பிரேசில் 177
▁போட்டியை 177
▁மீனவர்கள் 177
▁மெய்நிகர் 177
▁வேலையை 177
▁ஹஜ் 177
1516 176
சங்க 176
பிஎஸ் 176
ப்பிற்கான 176
ழும் 176
ிப்போக 176
ிரியான 176
▁அதிலும் 176
▁அவர்களுக்குப் 176
▁ஆடை 176
▁இடமாக 176
▁இந் 176
▁இருப்பவர்கள் 176
▁இவ் 176
▁உய 176
▁என்பதைத் 176
▁ஒடி 176
▁ஒப்புக்க 176
▁ஒருவரான 176
▁சாதனைகளை 176
▁சிம் 176
▁டிரை 176
▁தினமும் 176
▁தொகுதி 176
▁நிகழ்ச்சிக்கு 176
▁பாதுகாத்து 176
▁பின்வாங்க 176
▁மீறிய 176
▁மோவா 176
▁வடிவ 176
▁வயதில் 176
▁விச 176
▁விழிப்பு 176
67 175
கட்ட 175
க்கீ 175
டியே 175
ப்பினால் 175
மாட்டார்கள் 175
ரியும் 175
ற்கான 175
ாக்கள் 175
ாண்டுகளில் 175
ோத 175
▁அம்ப 175
▁அறிக்கைகளை 175
▁அலுவலகங்கள் 175
▁ஆயுள் 175
▁இருப்பார்கள் 175
▁இறங்கிய 175
▁கட்டுமானம் 175
▁கண்காணிக்க 175
▁கறுப்பு 175
▁கற்றல் 175
▁கார்ட 175
▁சரத் 175
▁சிந்தனைகள் 175
▁சேரு 175
▁சோசலிசக் 175
▁துரத்த 175
▁நாலு 175
▁நிரம்பிய 175
▁நிற 175
▁பாதைகள் 175
▁பிரிக்க 175
▁பிறகும் 175
▁போன்றவற்றில் 175
▁மாநிலங்களிலும் 175
▁முன்க 175
▁மூலமாகவும் 175
▁யும் 175
▁லாபம் 175
▁வரலாற்றை 175
74 174
ண்டன் 174
திகளின் 174
த்துத் 174
ந்திரா 174
ந்துள்ளார் 174
ப்டர் 174
வர்த்த 174
ாரே 174
ிக்கப்பட்டார் 174
ிருப்பு 174
ீர்ப்பு 174
ுள்ளார்கள் 174
ோபா 174
▁அடைந்தது 174
▁அணிய 174
▁ஆபத்தை 174
▁இந்தியாவுடன் 174
▁ஒன்றிணை 174
▁கௌரவ 174
▁செய்கிறார் 174
▁செய்யுமாறு 174
▁சேர்த்துக் 174
▁நடத்தை 174
▁நிபந்த 174
▁நியமனம் 174
▁பப் 174
▁பிரிவுகளை 174
▁போகிறது 174
▁மாகாணத்தில் 174
▁முற்றிலுமாக 174
▁லூ 174
▁வளர்ந்துவரும் 174
▁வாக்கில் 174
▁விபத்து 174
▁வெட்டி 174
க்கப்பட்டன 173
நகர் 173
மோன் 173
ர்கு 173
றுக்க 173
ிவ் 173
ூன் 173
ேயா 173
▁ஆதாரங்களை 173
▁இயக்குந 173
▁கம 173
▁கரீ 173
▁கிடைக்கவில்லை 173
▁குறியீடு 173
▁கூட்டணியை 173
▁கூறவில்லை 173
▁சங்கங்கள் 173
▁சம்பந்தமான 173
▁சிங்கா 173
▁தரவு 173
▁தலைப்பு 173
▁தாய்லாந்து 173
▁தூக்க 173
▁தோட்டத் 173
▁நிதித் 173
▁பட்டியல 173
▁பிரதிபலிக்கும் 173
▁பெல 173
▁போராடும் 173
▁மாதங்களாக 173
▁முற்றுப்புள்ளி 173
▁வழியே 173
க்கலை 172
க்கொண்டு 172
த்தக்கது 172
ப்போவதாக 172
மாக்கப்பட்ட 172
ரவு 172
ஸ்தானில் 172
ஹி 172
ித்திர 172
▁உருவாக்கப்பட்டு 172
▁உள்ளடக்க 172
▁கடினமாக 172
▁குடிநீ 172
▁கைகளில் 172
▁சுவாச 172
▁செய்துகொண்ட 172
▁தந்து 172
▁தவிர்த்த 172
▁திமுக 172
▁நிகழ்த்திய 172
▁நிலையத்தின் 172
▁நெற 172
▁பண்ட 172
▁பார்வையை 172
▁பிடிக்கும் 172
▁பூஜை 172
▁பூர் 172
▁பெறுகிறது 172
▁மக்களே 172
▁மறுத்து 172
▁யோர்க் 172
▁லக்னோ 172
▁வரையிலும் 172
68 171
சாரா 171
சிங்க 171
படுத்தும் 171
போன் 171
ார்பு 171
ிலிய 171
ுவே 171
▁அந்தஸ்த 171
▁அப்பாஸ் 171
▁அமைகிறது 171
▁அமைக்கப்பட்டு 171
▁அழகு 171
▁ஆனது 171
▁ஆராய்ந்து 171
▁இந்திர 171
▁இப்படத்தின் 171
▁இருக்கின்ற 171
▁இறக்க 171
▁இற்கு 171
▁உயர்நிலை 171
▁எளிமையான 171
▁ஒன்றான 171
▁ஒருவருக்கு 171
▁கற்க 171
▁கற்பன 171
▁காட்ச 171
▁கூட்டங்கள் 171
▁செய்யாத 171
▁ஜனதா 171
▁துடிப்பு 171
▁பின 171
▁பிரபலமான 171
▁பிரித்த 171
▁பெற்றவர்கள் 171
▁மதிப்பை 171
▁மற்றவர்கள் 171
▁மூடப்பட்ட 171
▁யூனிய 171
▁வேடத்தில் 171
53 170
க்கட்ட 170
செய்யப்பட்ட 170
தேச 170
பவ 170
ம்பெ 170
யான் 170
லானது 170
ிக்ஸ் 170
ிற்குக் 170
▁அப்படிப்பட்ட 170
▁ஆலைகள் 170
▁எஜ 170
▁எழுதப்பட்ட 170
▁ஏக்கர் 170
▁ஒழுக்க 170
▁கரை 170
▁கலா 170
▁கல்லூர 170
▁கொள்ளுதல் 170
▁செயல்களை 170
▁தமிழர்கள் 170
▁திகழ் 170
▁பகுதியான 170
▁பிரச்சனைகளை 170
▁புலனா 170
▁பெரும்பான்மையான 170
▁மருந்துகளை 170
▁மஹ 170
▁மிஸ் 170
▁மேற்கொண்டது 170
▁மொழியில் 170
▁வடக்கில் 170
58 169
நட 169
ப்பவர்கள் 169
மைப்பு 169
லிசம் 169
ஷ்டம் 169
ாட்சி 169
ாண்டில் 169
ிருப்பார் 169
ேட் 169
ைத்தவிர 169
▁அடையாளமாக 169
▁அப்போ 169
▁அமைப்பாக 169
▁இணங்க 169
▁இயக்கத்திற்கு 169
▁இயன்ற 169
▁உருவாகி 169
▁எடை 169
▁கட்டுப்பாடுகளை 169
▁காணப்படுகிறது 169
▁கூறியதாக 169
▁கொண்டாடு 169
▁சந்ததிய 169
▁ஜனவரியில் 169
▁தடுப்பதற்கு 169
▁தவிர்த்து 169
▁தேர் 169
▁தொடர்பாகவும் 169
▁பயன்களை 169
▁பாழ 169
▁பேட்ட 169
▁போர்க் 169
▁முடுக்க 169
▁வளர்ச்சிக்காக 169
▁வழங்கப்பட்டன 169
▁வில்ல 169
▁விளையாட்டுத் 169
எச் 168
க்கத்தில் 168
டுக்கு 168
நிறுத்த 168
ப்பகுதிகளில் 168
ப்பைக் 168
மாற்ற 168
வசம் 168
ாரா 168
ாலத்தில் 168
ிப்பார் 168
ுக்களும் 168
்களைப் 168
▁அவனைப் 168
▁இக்கூ 168
▁இம் 168
▁இராணுவத்தில் 168
▁எனப் 168
▁கஜ 168
▁கட்டமைக்க 168
▁காணப்பட்டது 168
▁குற்றங்களை 168
▁குற்றச்ச 168
▁சமூகத்தை 168
▁சிறப்ப 168
▁செய்யப்பட்டார் 168
▁தாக்கி 168
▁தீர்வுகளை 168
▁நானே 168
▁நிறுவனமும் 168
▁நேதாஜி 168
▁பகிர்வு 168
▁பங்கேற்றார் 168
▁புத்து 168
▁போராட்டங்கள் 168
▁ரொக்க 168
▁வர்த்தகத்தை 168
▁வழக்கறிஞர் 168
▁வைக்கப்பட்டுள்ள 168
ஆக 167
டிகளை 167
ப்படுத்தியது 167
ப்படுவார் 167
ற்றின் 167
வக 167
வதற்க 167
ஷியா 167
ஷ்டவச 167
ஹே 167
ிக்கும்போது 167
ியர்கள் 167
ிருக்கக் 167
ிருக்கிறான் 167
ொள்கை 167
▁அணுகுமுறையை 167
▁அண்மை 167
▁அமெரிக்கர்கள் 167
▁அறியாத 167
▁அவரால் 167
▁அவர்களுக்குக் 167
▁உலகச் 167
▁கண்டறிந்து 167
▁கருணை 167
▁கிற 167
▁சகோதரர் 167
▁சிறுபான்மை 167
▁தந்துள்ள 167
▁தனித்த 167
▁நிறுவனங்கள 167
▁நிலவுகிறது 167
▁நேர்மையான 167
▁படைகளுக்கு 167
▁பலன்களை 167
▁பின்தொட 167
▁பொருட்கள 167
▁மஹா 167
▁முன்னேற்றங்கள் 167
க்கர் 166
திகார 166
ப்பட்டவர்கள் 166
மிதா 166
வளம் 166
ிறான் 166
ொள் 166
▁ஆந்திரப் 166
▁இரயில்வே 166
▁இருக்கவில்லை 166
▁உரையாடல் 166
▁கலந்துகொண்டு 166
▁குட்டி 166
▁குறுக்க 166
▁கூட்டமைப்ப 166
▁சரக்குகள் 166
▁செயல்திறன் 166
▁செய்கின்றன 166
▁செள 166
▁திருத்தங்கள் 166
▁தை 166
▁நிர்வக 166
▁நிறுவப்பட்ட 166
▁நோக்கு 166
▁படங்களுக்கு 166
▁பயன்படுத்துதல் 166
▁பலக 166
▁பஸ் 166
▁பாடசாலை 166
▁புள்ளிவிவர 166
▁பெட்ரோ 166
▁மதிப்பீட்டில் 166
▁மற்றம் 166
▁முட்ட 166
▁மேய 166
▁வாசக 166
திக 165
னிடம் 165
புத்திர 165
ியாவின் 165
ிரே 165
ிற்குரிய 165
ீச 165
ுதலில் 165
ுவிடு 165
▁அனுமதிய 165
▁அமைச்சராக 165
▁ஆடு 165
▁இன்னுமொரு 165
▁உடல்நல 165
▁கிரிம 165
▁கேந்திர 165
▁சாட்சி 165
▁செயலாக்க 165
▁செல்வதற்கான 165
▁ஜல 165
▁திகழும் 165
▁தேட 165
▁நிர்மாண 165
▁படேல் 165
▁பிரிட்டனில் 165
▁புள்ளிகள் 165
▁பேருந்து 165
▁மக்களுடன் 165
▁மாற்றுவது 165
▁முன்னிலை 165
▁ராக 165
▁வழங்குவதில் 165
▁விட்டார் 165
▁வைக்கப்படும் 165
ங்களாகும் 164
சித்து 164
புரம் 164
மறை 164
மில்லா 164
முறையை 164
மூலம் 164
லத்தில் 164
லாய 164
ினரும் 164
ினோ 164
ிவந்த 164
ுடா 164
▁அதிகளவில் 164
▁அலி 164
▁அவச 164
▁உந்து 164
▁உபயோக 164
▁உறுப்பினர்களும் 164
▁ஒருவன 164
▁கண்டுபிடித்த 164
▁காலனி 164
▁குடும்பத்தின் 164
▁கேள்விகள் 164
▁கொண்டாடி 164
▁சக்கர 164
▁சவாலாக 164
▁சிதற 164
▁செம்ம 164
▁செயல்பாட்டில் 164
▁தேவர 164
▁நிலையத்தை 164
▁பங்குச் 164
▁பணியிட 164
▁பயன்ப 164
▁பாரா 164
▁பெருமளவிலான 164
▁பெற்றான் 164
▁மைக்கேல் 164
▁லடாக் 164
▁லட்சத்து 164
▁விமானத் 164
▁ஹி 164
66 163
சாமி 163
டுகையில் 163
ட்சியம் 163
ண்டின் 163
நிதி 163
நிலைய 163
நூறு 163
ப்போவதில்லை 163
யர் 163
ர்ச்ச 163
லாகும் 163
விடாமல் 163
ஹூ 163
ாட்சியில் 163
ாளர்களாக 163
▁அசுத்த 163
▁அபு 163
▁அமீர் 163
▁அமைந்து 163
▁அவரும் 163
▁ஆகியோரை 163
▁இவர்களுக்கு 163
▁கட்டமாக 163
▁கருணா 163
▁கேட் 163
▁சகாப்த 163
▁சீரிய 163
▁ஜுன் 163
▁தவறிய 163
▁தவறிவ 163
▁தினத்தன்று 163
▁திருச்சி 163
▁திரைக்கதை 163
▁தொல்லியல் 163
▁மீன்வள 163
▁முழக்க 163
▁வகுத்த 163
சீ 162
சேன் 162
நாளை 162
ப்படுத்தினார் 162
லாவ 162
விலான 162
ாடுகள 162
ாதான் 162
ாரையும் 162
ீன் 162
ுதா 162
▁அந்தஸ்து 162
▁அரசுத் 162
▁இத் 162
▁இருப்பதாகக் 162
▁உந்துதல் 162
▁ஏற்பாடுகளை 162
▁ஒன்றின் 162
▁ஒருபுறம் 162
▁கருத்துத் 162
▁கழிவுநீர் 162
▁கிளை 162
▁கெடு 162
▁கைக 162
▁கையை 162
▁சிக்கிம் 162
▁டிக்க 162
▁தணிக்க 162
▁தத்த 162
▁தன்னார்வ 162
▁திரண்ட 162
▁பகுப்பாய்வு 162
▁படிப்ப 162
▁பயன்பாட்டை 162
▁போர்ட் 162
▁மரப 162
▁மாநாட்டு 162
▁வரிசை 162
▁வற்புறுத்த 162
ஒரு 161
தாம 161
ன்களில் 161
றியது 161
வற்ற 161
ஷே 161
ாதா 161
ிகளோடு 161
‘ 161
▁அண்மைய 161
▁அனுமதிக்கப்பட்ட 161
▁அமைதிய 161
▁இரத்து 161
▁கேள் 161
▁தளமாக 161
▁துவ 161
▁நஷ்ட 161
▁நிதிக்க 161
▁பத்தாண்ட 161
▁பரிமாண 161
▁போதைப் 161
▁மதிப்பீ 161
▁மலிவான 161
▁முன்னதாகவே 161
▁யாழ்ப்பாண 161
▁ரமேஷ் 161
▁வழங்கவும் 161
▁ஸ்ரீகாந்த் 161
1997 160
è 160
கூட 160
தைவிட 160
பவர்களின் 160
ப்படும்போது 160
ப்படுவதாகவும் 160
ரவை 160
வதால் 160
ெடுக்கப்பட்ட 160
▁அமைக்கப்பட்டது 160
▁அம் 160
▁ஆகியோருடன் 160
▁இக 160
▁இருப்பதற்கு 160
▁செவ்வாய் 160
▁ஜா 160
▁தீட்ட 160
▁தேடுதல் 160
▁நேரு 160
▁புதுச்சேரி 160
▁மரிய 160
▁மாதத்திற்கு 160
▁மிகப்பெ 160
▁முறைப்படி 160
▁மூங்கில் 160
▁வாக்காளர் 160
▁வாழ்வின் 160
ட்களை 159
த்துக்கள் 159
த்துக்குக் 159
நிறை 159
ப்பதே 159
ப்பெற 159
முடைய 159
ரியை 159
ர்களைத் 159
லின 159
வாலை 159
ாதது 159
ுவான் 159
ூட்டி 159
▁அகல 159
▁அரசியலமைப்புச் 159
▁அளிக்கப்பட 159
▁அவ்வளவு 159
▁ஆப்கானிய 159
▁இடங்களுக்கு 159
▁எடுக்கப்பட்டு 159
▁ஒற்றை 159
▁ஒளிப்பதிவு 159
▁கருது 159
▁கலாச்சாரத்தை 159
▁காட்சியை 159
▁கொண்டும் 159
▁சேகரி 159
▁சொத்துக்க 159
▁டோனி 159
▁திறனாள 159
▁துறையிலும் 159
▁நீதிமன்றத்தின் 159
▁பங்கினை 159
▁படையெடுப்பு 159
▁பதப்படுத்தும் 159
▁மரபு 159
▁வலுவாக 159
▁வல்லமை 159
▁வழங்கப்பட்டு 159
▁விஜயகாந்த் 159
▁விடுமுறை 159
195 158
97 158
அனை 158
ணத்தில் 158
ன்றும் 158
மையுள்ள 158
ர்கோ 158
ழிவ 158
“ 158
▁அடக்குமுறை 158
▁அதிர் 158
▁ஆய்வாளர்கள் 158
▁ஆர்வத்துடன் 158
▁ஆவணம் 158
▁இதேபோன்ற 158
▁ஈடுபடு 158
▁எண்ணற்ற 158
▁கருதிய 158
▁கார்த்த 158
▁குள 158
▁கூறப்பட்டுள்ளது 158
▁கைக்க 158
▁சான் 158
▁டிவி 158
▁தருவதாக 158
▁தாக்கும் 158
▁திட்டமும் 158
▁தோன்றும் 158
▁நம்பக 158
▁நினைத்து 158
▁நெறிமுற 158
▁பரிமாற 158
▁பர் 158
▁பிரித்து 158
▁புரட்சியை 158
▁மதம் 158
▁மனிதன் 158
▁மேற்கோ 158
▁ரைஸ் 158
▁வேண்டுமெ 158
ங்களிடம் 157
ங்கால 157
த்தொட 157
ப்பட்டதாக 157
ப்பதையும் 157
லர்கள் 157
ல்களைத் 157
ல்லை 157
ளைத் 157
வர்ட் 157
ியூ 157
ையிடம் 157
▁அட் 157
▁அமைதியாக 157
▁இந்தியாவிலும் 157
▁இப்படம் 157
▁எல்லோரும் 157
▁ஓரளவு 157
▁கடற்கரை 157
▁கண்ணிய 157
▁கொண்டார்கள் 157
▁சிறிதும் 157
▁சிறுபான்மைய 157
▁தளவாட 157
▁தவிர் 157
▁தாம 157
▁தொடங்கினார் 157
▁தொழிலாளி 157
▁நிற்கிறது 157
▁நிலவரப்படி 157
▁பார்க்கவும் 157
▁பிரிவுகளின் 157
▁பிள்ளைகள் 157
▁புவியியல் 157
▁பெயர்ந்த 157
▁பெருகி 157
▁மகள் 157
▁மக்களால் 157
▁மனிதநேய 157
▁முற்போக்கான 157
▁ரவ 157
▁வயத 157
▁ஹைட்ரோ 157
க்தி 156
நாவின் 156
பவர்கள 156
ப்பதாகவும் 156
ரள 156
வாழ் 156
ிக்குத் 156
ிரம் 156
ெடுப்பு 156
ெழ 156
▁அதிகரிக்கச் 156
▁அதிகாரபூர்வமான 156
▁அரசுத்த 156
▁அரிய 156
▁அறியும் 156
▁அறு 156
▁ஆதரவைப் 156
▁ஆராய் 156
▁உழைக்க 156
▁ஒன்றுபட்ட 156
▁ஒலிம்பிக் 156
▁கடிதத்தில் 156
▁களை 156
▁கிராமம் 156
▁குறிக்கிறது 156
▁கொண்டவர்கள் 156
▁கொள்கிறது 156
▁செயல்பாடுகளில் 156
▁சேது 156
▁ஜீவ 156
▁தட்டு 156
▁தரப்பினரும் 156
▁நிபுணர் 156
▁நிறைவேற்றிய 156
▁பகவான் 156
▁பச 156
▁பதவியேற்ற 156
▁பத்திரிகையில் 156
▁பாசா 156
▁பாரதீய 156
▁பூஜ 156
▁மாதிரிகள் 156
▁மான 156
▁முயல்க 156
▁வலியுறு 156
டுவதன் 155
தாலும் 155
ன்ட 155
பவர்களை 155
ப்படுதல் 155
ராய் 155
ளைய 155
ீட்டின் 155
ொன்று 155
்ச்ச 155
▁அன்ற 155
▁அமைதியை 155
▁உடனான 155
▁கல்யாண் 155
▁சமரசம் 155
▁சுருக்க 155
▁தடையை 155
▁தொடங்குகிறது 155
▁தொடர்கிறது 155
▁நண்பர் 155
▁நெறிமுறைகள் 155
▁படுக்கைகள் 155
▁பள்ளிக் 155
▁மதிப்பீட்டு 155
▁மனிதர் 155
▁மார்க் 155
▁மியான் 155
▁முன்வ 155
▁வாழ்வு 155
ன்னா 154
மாக்கி 154
லான் 154
வர்களால் 154
ுவருகிறது 154
▁அட்டவணை 154
▁அபிவிரு 154
▁ஆயுர்வேத 154
▁இந்தோனேசிய 154
▁இப்படிச் 154
▁உதவித்தொகை 154
▁ஒழுங்குபடுத்த 154
▁குறிப்பிட்டனர் 154
▁கைத 154
▁கொண்டிருந்தனர் 154
▁தங்கி 154
▁தீவில் 154
▁நியாயம் 154
▁படுக 154
▁பழுது 154
▁பாக்தாத் 154
▁பேரும் 154
▁போனது 154
▁முடிந்ததும் 154
▁முன்னெடுத்து 154
▁முன்வந்து 154
▁மொரீ 154
▁வெளியீடு 154
57 153
க்குழுவின் 153
பிஐ 153
மாஸ் 153
ம்பர் 153
வாமல் 153
வீன 153
ிகளுக்குப் 153
ுவோ 153
▁அட்டைகள் 153
▁அனுபவத்தை 153
▁அனுப்பும் 153
▁அமர்வ 153
▁அமைப்புகளில் 153
▁அரேபியா 153
▁அறிவை 153
▁எதிர்பார்ப்பு 153
▁என்பதன் 153
▁கண்கள் 153
▁கருத்துகளை 153
▁கலவர 153
▁காரியம் 153
▁கிளி 153
▁கூறுகின்றன 153
▁சஞ்சய் 153
▁செய்யப்பட்டனர் 153
▁சேர்க்கும் 153
▁தொடங்கின 153
▁நகரமான 153
▁நாடக 153
▁பள்ளியில் 153
▁போரி 153
▁மதிப்பில் 153
▁மாற்றியமைக்க 153
▁மொழிகள் 153
▁வழிக 153
▁விண்ணில் 153
▁விதிக்க 153
▁வெளிப்படுத்தி 153
▁வெளியீட்டு 153
▁வெள்ளி 153
ஜித் 152
ஜூ 152
ண்மை 152
ப்பிரதேச 152
ப்போன 152
ராமல் 152
ரையில் 152
ற்பு 152
ற்றார் 152
வாசி 152
விச 152
ுக்காகப் 152
ெங்கிலும் 152
ைகளுக்குப் 152
▁அசீ 152
▁அடித்தளத்தை 152
▁அமைக்கப்பட 152
▁அறுவை 152
▁ஆகியவற்றைப் 152
▁ஆசியாவின் 152
▁இணையான 152
▁இயக்கி 152
▁இழிவு 152
▁உல 152
▁ஓய்வ 152
▁காப்ப 152
▁காரணமாகும் 152
▁குறைத்தல் 152
▁கைச்சாத்த 152
▁கைபேசி 152
▁சர்மா 152
▁சுத்தமான 152
▁சொன்னால் 152
▁நாடான 152
▁படுகிறது 152
▁பாரி 152
▁பெண்கள 152
▁மன்னிப்பு 152
▁மாவோயி 152
▁மித 152
▁யுக 152
▁வாய்ந்தது 152
▁வாரியத்தின் 152
▁விகிதத்தில் 152
ஜர் 151
ஞ்சி 151
ண்ப 151
நோக்க 151
ப்படக் 151
முன்ன 151
மூல 151
வனாக 151
வாடி 151
ாகியுள்ளது 151
ினல் 151
ில்லா 151
▁அமைப்புகளும் 151
▁இச 151
▁இசைய 151
▁இடைவிட 151
▁இடைவெளியை 151
▁இதைக் 151
▁இராணுவக் 151
▁இல்லைய 151
▁உயர்ந்தது 151
▁எழுதியுள்ளார் 151
▁ஏறி 151
▁கவு 151
▁கெளரவ 151
▁சுதந்திரமாக 151
▁ஜய 151
▁டொல 151
▁திடீரென்று 151
▁திரவ 151
▁தென்னிந்திய 151
▁நலத்திட்ட 151
▁நல்லுற 151
▁நாற்பது 151
▁நிர்ப்ப 151
▁நிறுத்திய 151
▁நுழைந்த 151
▁பரிந்துரைகளை 151
▁புரு 151
▁பேசுவ 151
▁மதிக்க 151
▁மறைத்து 151
▁மெகா 151
▁வந்தாலும் 151
▁வெடிப்ப 151
▁• 151
ச்செ 150
த்துடனான 150
மயமாக்கப்பட்ட 150
ரிங் 150
ரைய 150
லாந்து 150
ளவும் 150
வண 150
வதில்லை 150
ஸ்க் 150
ாவள 150
ாவிலுள்ள 150
ிடப்பட்டது 150
ித்தார்கள் 150
ுக்கொ 150
▁அடிப்படையிலும் 150
▁அதிகாரங்களை 150
▁அமைந்துள்ளன 150
▁அமைப்புகளுக்கு 150
▁இங்குள்ள 150
▁இடர் 150
▁இதற்குப் 150
▁உச்சநீதிமன்ற 150
▁ஊற்ற 150
▁எல்லாப் 150
▁ஏலம் 150
▁கண்டறிவ 150
▁கண்டுள்ளது 150
▁கமிஷன் 150
▁கல்விக்கான 150
▁தார் 150
▁தொழிலை 150
▁நாட்டிலும் 150
▁நினைவுச் 150
▁நூல் 150
▁பணிபுரியும் 150
▁பரிந்துர 150
▁பாலின 150
▁பிபி 150
▁பெறுவதை 150
▁பெற்றிருந்த 150
▁மறுநாள் 150
▁முகமை 150
▁வடிவமைப்ப 150
ண்க 149
நாத 149
ந்தான் 149
பிக்க 149
ப்பிரிவு 149
மானவை 149
மின்மை 149
ர்த்து 149
றிக்க 149
வாகும் 149
ாராக 149
▁அவதான 149
▁இதுவரையில் 149
▁இந்தியில் 149
▁இறங்கி 149
▁உணவுத் 149
▁உதாரணம் 149
▁உத்தரவிட்ட 149
▁எதிர்வ 149
▁எம்ஜி 149
▁ஐடி 149
▁ஐரோப்பாவின் 149
▁கடனை 149
▁கட்டிடம் 149
▁கண்களுக்கு 149
▁காமெ 149
▁கிர்க 149
▁குடும்பத்தில் 149
▁செலுத்தப்படும் 149
▁ஜான் 149
▁டாக்ட 149
▁டூ 149
▁தளபத 149
▁நம்பகத்தன்மை 149
▁நாயகி 149
▁பகுதியாகும் 149
▁பக்த 149
▁பயனுள்ளதாக 149
▁பாலம் 149
▁பெறுவதற்காக 149
▁பேசும்போது 149
▁பொருட்படுத்த 149
▁போராட்டத்திற்கு 149
▁போற்ற 149
▁முரண்பாடுகள் 149
▁மென்பொருள் 149
▁வார்த்தைகளில் 149
▁விடை 149
▁வித்தியாச 149
▁வினியோக 149
▁விவேகானந்தர் 149
77 148
க்கத்தின் 148
சின 148
சொ 148
ணிப்பு 148
ந்துக 148
போதே 148
மளித்த 148
மாற்றம் 148
ற்காக 148
ாக்களை 148
ித்துக்கொண்ட 148
ித்தும் 148
ுகளைச் 148
ையின்போது 148
▁அகமதாபாத் 148
▁அடித்தளமாக 148
▁அணிவகுப்பு 148
▁அருங்காட்சியகம் 148
▁அற்ப 148
▁ஆய்வாளர் 148
▁இப்படத்தில் 148
▁இயற்க 148
▁உக்ரைன் 148
▁உடன்படிக்கையின் 148
▁ஒன்றரை 148
▁ஒளிபரப்ப 148
▁கண்டேன் 148
▁குறைக்கவும் 148
▁சம்மேள 148
▁டிரம் 148
▁நடத்தப்பட்டு 148
▁நடிகைகள் 148
▁நேரத்திற்கு 148
▁படிக்கும் 148
▁பருவமழை 148
▁பெறப்படும் 148
▁பெற்றோர் 148
▁முறையிலும் 148
▁ரியல் 148
▁லொ 148
▁வீட்டை 148
▁வெற்றிக்கு 148
▁ஸ்ட்ரீட் 148
ஐஏ 147
ஞ்ச் 147
டான் 147
டித்து 147
நமது 147
நாடுகளின் 147
ப்பட்டபோது 147
ப்பாட்டு 147
ப்பினர் 147
யு 147
லங்கள் 147
ளித்து 147
வினை 147
வியா 147
ிவருக 147
ிவிட்டனர் 147
ுதலும் 147
ொழுத 147
▁அதிகரித்துக் 147
▁அனைத்துமே 147
▁அரசியலை 147
▁ஆண்டுகால 147
▁இந்திரா 147
▁இரகசியமாக 147
▁உலகிற்கு 147
▁ஏற்படுத்துதல் 147
▁ஓராண்டு 147
▁கல்லூரிகள் 147
▁காரணத்தால் 147
▁காவல்ப 147
▁கேட்கும் 147
▁கொடி 147
▁செல்கிறார் 147
▁தர்க்க 147
▁துணைக் 147
▁நல்வாழ் 147
▁நாட்டிலுள்ள 147
▁நிலைகளில் 147
▁பட்டு 147
▁பயந்து 147
▁புகை 147
▁பென்ன 147
▁பெற்றோர்கள் 147
▁யாவ 147
▁வகைப்படுத்த 147
▁விவாக 147
▁வெகுவாக 147
▁வெளிப்பாடு 147
▁வெளியேறு 147
நாளில் 146
னப் 146
னிச 146
பின 146
மளிப்ப 146
ரிலிருந்து 146
லாளர்கள் 146
ஷ்ய 146
ிலி 146
ுகை 146
ுதி 146
ெற 146
ையிலுள்ள 146
்களுக்கும் 146
▁அன்னை 146
▁அமைப்பும் 146
▁அறிகுறிகள் 146
▁ஆதரிக்கும் 146
▁இணையம் 146
▁இல்லாததால் 146
▁உறவின 146
▁எழுதியது 146
▁கணக்கெடுப்பு 146
▁கல்லூரியில் 146
▁காமன்வெல்த் 146
▁கொள்ளப்பட்டது 146
▁சந்தித்தனர் 146
▁சித்திர 146
▁சிபிஐ 146
▁செயற்கைக்கோ 146
▁செயற்பட்ட 146
▁செலவுகள் 146
▁செலவுத் 146
▁திறமையை 146
▁நிதிப் 146
▁நிலைத்தன்மை 146
▁பகுதிகளின் 146
▁படுக்க 146
▁பரிசோதனைகள் 146
▁பாதுகாக்கவும் 146
▁பாதுகாப்பது 146
▁பிரதேசத்தின் 146
▁புனே 146
▁மனா 146
▁மறைந்து 146
▁மாநிலங்களவையில் 146
▁மாற்றாக 146
▁முடியாதது 146
▁மேடை 146
▁மேற்பார்வை 146
▁ரை 146
▁வகிக்க 146
▁வறுமையில் 146
▁வாகனம் 146
▁விலகிய 146
1996 145
மையா 145
லெ 145
ல்லி 145
ழிந்து 145
வேலர் 145
▁அடைந்துள்ளது 145
▁அதற்க 145
▁அந 145
▁அமைச்சு 145
▁அயல் 145
▁அறிக்கையின்படி 145
▁அல்லவா 145
▁அழுத்தத்தை 145
▁இடதுசார 145
▁இணையாக 145
▁இருக்கும்போது 145
▁உயிரை 145
▁உறுதிப்பாடு 145
▁ஊக்குவிப்பு 145
▁ஏழ் 145
▁ஐந்தாண்ட 145
▁கமிஷ 145
▁கூடியது 145
▁கொண்டதாகும் 145
▁கொள்வதற்காக 145
▁சஞ்ச 145
▁சீரமைப்பு 145
▁செய்தன 145
▁தளங்கள் 145
▁தாங்கிய 145
▁தினத்தில் 145
▁திருப்பு 145
▁தூது 145
▁தொலைதூர 145
▁நடத்து 145
▁நிறைவ 145
▁நூற்ற 145
▁பட்டியலை 145
▁பட்டுள்ளன 145
▁பயணிகளின் 145
▁பயன்பெ 145
▁பிரி 145
▁புறம் 145
▁பொருட்களுக்கு 145
▁மட 145
▁மரபணு 145
▁மற்றைய 145
▁முடிவாக 145
▁வண்ண 145
▁வீட்டுக்கு 145
▁வெளியிடப்படும் 145
க்ஷ 144
சம 144
சுவா 144
ண்டோ 144
த்திற்குச் 144
ப்பாட்டில் 144
ர்க்கும் 144
ளித்தது 144
ழ்ச்ச 144
ெதிரான 144
’, 144
▁அப்புற 144
▁அமைதியின் 144
▁அறிவார்ந்த 144
▁உயரிய 144
▁ஊக்குவித்து 144
▁எரே 144
▁ஒன்றிற்கு 144
▁கழுத 144
▁காலி 144
▁கேச 144
▁சான்று 144
▁சிறப்புக் 144
▁செறிவ 144
▁சோதனைகள் 144
▁தீர்ப்பை 144
▁நகரின் 144
▁படைப்பிரிவ 144
▁பயன்பாட்டு 144
▁பயிற்சிகள் 144
▁பாதுகாப்பில் 144
▁புத்தகம் 144
▁பொறுப்பேற்ற 144
▁முன்த 144
▁முயல 144
▁ராய் 144
▁விழாவ 144
▁வெள்ளிக்க 144
175 143
71 143
ச்சே 143
த்ச 143
ன்புரி 143
பெறும் 143
போம் 143
ப்த 143
ப்பெற்ற 143
மாம் 143
ளோ 143
ாதிபத 143
ியாகக் 143
▁அதிகாரியாக 143
▁அனுமதிக்கும் 143
▁அவரைக் 143
▁ஆகியவற்றையும் 143
▁ஆதாரமாக 143
▁இதனையடுத்து 143
▁இயேசுவ 143
▁ஊர் 143
▁ஒருநாள் 143
▁களத்தில் 143
▁குறித்துப் 143
▁கூறினார்கள் 143
▁கைகளை 143
▁கையாண்ட 143
▁கொண்டிருந்தன 143
▁கொள்ளவேண்டும் 143
▁சான்றுகள் 143
▁செயற்கைக் 143
▁செய்துகொள்ள 143
▁தகர்க்க 143
▁தற்கால 143
▁திட்டமிடல் 143
▁தேக்க 143
▁நிறுவனங்களுடன் 143
▁நெடு 143
▁நோக்கங்களை 143
▁படமாக்க 143
▁பதவியிலிருந்து 143
▁பத்திரங்கள் 143
▁பார்வையில் 143
▁பெறுதல் 143
▁மதிப்பீடுகள் 143
▁மீத 143
▁லெபனான் 143
▁வருங்காலத்தில் 143
▁விசேஷ 143
▁விவரிக்க 143
▁வீரர்களை 143
▁ஹார் 143
59 142
காவ 142
ண்டை 142
த்தர 142
த்ய 142
னெ 142
ப்பதால் 142
ரப்பு 142
வதுடன் 142
ிங் 142
ிலை 142
ுல் 142
ுவர் 142
ேலின் 142
▁அதிருப்தி 142
▁அர்த்தம் 142
▁அவள 142
▁ஆதரித்து 142
▁இரண்டாவதாக 142
▁உதவிக்கு 142
▁எக்க 142
▁எக்ஸ்பிரஸ் 142
▁ஐந்த 142
▁கொண்டிருப்பதாக 142
▁கோதுமை 142
▁சகோதரிகள் 142
▁செக் 142
▁செய்யப் 142
▁சோதனைய 142
▁ஜவ 142
▁ஜெயம் 142
▁திட்டங்களும் 142
▁துணிச்ச 142
▁தென்ப 142
▁தெரு 142
▁படிப்பு 142
▁பரிந்துரைகள் 142
▁போன்றே 142
▁மாச 142
▁மேடையில் 142
▁வந்துவிட்டது 142
▁வரவ 142
▁வெட்டு 142
▁வெற்றிபெற்ற 142
கூ 141
க்குகள் 141
பாக் 141
பூரில் 141
ழிப் 141
வதே 141
விட்டனர் 141
ஸும் 141
ிக்கின்றது 141
ுகிறான் 141
ுதல 141
ையாய் 141
ையுள்ள 141
▁அதிகப்படுத்த 141
▁அதிகாரபூர்வ 141
▁அந்நாட்டு 141
▁ஆன்மிக 141
▁ஆய்வகங்கள் 141
▁இடைவெளிய 141
▁இயல்ப 141
▁இருப்பார் 141
▁கடைப்பிட 141
▁கண்டறிதல் 141
▁கவி 141
▁கிரே 141
▁கொய 141
▁சுதந்திரத்தை 141
▁செங்கோ 141
▁செய்கிறார்கள் 141
▁நகரங்களிலும் 141
▁நாட்களுக்குள் 141
▁நிறுத்து 141
▁புலன் 141
▁பெண்ண 141
▁மருத்துவமனைக்கு 141
▁வெளியிடும் 141
இது 140
முறையும் 140
வூ 140
ார்களோ 140
ுதலின் 140
ுவிட்டார் 140
▁அடித்தளம் 140
▁அதற்கும் 140
▁அன் 140
▁அழித்து 140
▁இந்நாள் 140
▁இயங்கி 140
▁உள்ளார்ந்த 140
▁ஒப்பிடும்போது 140
▁கலந்தாலோ 140
▁கலந்துகொள்ள 140
▁காந்திய 140
▁கூலி 140
▁கொள்கிறார்கள் 140
▁சரிந்து 140
▁சாத்தியம் 140
▁சார்ப 140
▁டாங்க 140
▁தருவது 140
▁தாங்கி 140
▁தேவாலய 140
▁நாடாளுமன்றம் 140
▁நிகழ்ச்சிகளில் 140
▁நிஜ 140
▁நீல 140
▁பணவீக்கம் 140
▁பறி 140
▁பற்றித் 140
▁பாலா 140
▁பெறவும் 140
▁மறுசுழற்சி 140
▁முதிய 140
▁லால் 140
▁வர்த்தகத்தில் 140
▁விட்டுக்கொ 140
▁ஷங்கர் 140
கமும் 139
ஜியின் 139
டியா 139
நக 139
ந்தேதி 139
ன்களைக் 139
பிடித்த 139
ப்பொருட்கள் 139
மற 139
ரியல் 139
ர்ஸ் 139
ற்றியது 139
வனோ 139
வர்களாகவும் 139
வித்த 139
ாட்ச 139
ாயிரம் 139
ாரணம் 139
ினராக 139
ையம் 139
▁அறிவித்து 139
▁ஆய்வக 139
▁இடைவெள 139
▁இவர்கள 139
▁ஏற்பட்டால் 139
▁கண்காணித்து 139
▁காணாத 139
▁கிரி 139
▁கிருஷ்ண 139
▁குறி 139
▁குறிப்பிட்டுள்ள 139
▁சத்யராஜ் 139
▁செய்தித்தாள் 139
▁சேர்வ 139
▁சோதன 139
▁டீசல் 139
▁தம்ப 139
▁தயாரித்தல் 139
▁தாங்களே 139
▁திருத்தப்பட்ட 139
▁தெரிந்துகொள்ள 139
▁தெளிவாகத் 139
▁தேவையற்ற 139
▁தொகுப்பை 139
▁தோன்றியது 139
▁நடத்துகிறது 139
▁நிறைவேற்றப்பட்ட 139
▁நீதிபத 139
▁பணியாளர்களின் 139
▁பத்திரிகையின் 139
▁பரவும் 139
▁பார்வையாள 139
▁பின்னடை 139
▁பெண்களை 139
▁பெறலாம் 139
▁மண்டலம் 139
▁மறுக 139
▁மாற்றத்திற்கான 139
▁முற்ற 139
▁மூடிய 139
▁வளத்தை 139
▁வாடகை 139
▁விட்டனர் 139
▁விரோ 139
▁வெடித்து 139
61 138
98 138
ச்சொ 138
தாக்க 138
த்துவது 138
ந்தோ 138
பர்கள் 138
யை 138
ள்க 138
வில்லைய 138
ாண்டுகளுக்கு 138
ாமல 138
ித்தால் 138
ொள்கிறார் 138
்டா 138
▁அதேசமயம் 138
▁அனுபவங்கள் 138
▁அனைத்திலும் 138
▁அறைகூ 138
▁அலங்கார 138
▁அவரே 138
▁ஆண்டுகளுக்கும் 138
▁ஆளு 138
▁இடைப்பட்ட 138
▁இதற்க 138
▁உஸ்பெ 138
▁எதிர்பாராத 138
▁எழுது 138
▁ஏற்படக்கூடிய 138
▁கட்டுர 138
▁கன்சர் 138
▁கவர் 138
▁காலையில் 138
▁காள 138
▁கூடவே 138
▁சந்தையின் 138
▁சப் 138
▁செல்வதை 138
▁செழு 138
▁ஜெர்மனி 138
▁தாக்குதல்களில் 138
▁தீர்த்து 138
▁தீவுகளில் 138
▁துல்லியமாக 138
▁தோல்வியை 138
▁நிலையங்களை 138
▁பட்சத்தில் 138
▁பாராட்டி 138
▁பிசி 138
▁புகா 138
▁மத்தியதர 138
▁முன்மாதிர 138
▁மேன் 138
▁வந்துள்ளனர் 138
▁வெறுமனே 138
▁ஹா 138
1994 137
கரு 137
சமான 137
ச்சார 137
த்தக்கதாக 137
த்தாக 137
னிலும் 137
பணி 137
ப்பதற்க 137
மாயிற்று 137
ரித்தது 137
ரிலும் 137
வுள்ளன 137
ாவிட்டாலும் 137
ுடையது 137
ையினரின் 137
்கர் 137
▁அக்கால 137
▁அங்கத்த 137
▁ஆங்கில 137
▁இனம் 137
▁இன்றியமையாத 137
▁ஈடுபட்டனர் 137
▁உணர்க 137
▁உறுப்பினரான 137
▁எட்டும் 137
▁ஏற்படுத்துகிறது 137
▁ஏற்றுமதிய 137
▁ஒன்றிணைந்து 137
▁கழித்து 137
▁காற்ற 137
▁குழாய 137
▁குழுவிற்கு 137
▁கொடுத்துள்ளார் 137
▁கொள்ளைய 137
▁கோவில் 137
▁சிறப்புத் 137
▁திரையரங்க 137
▁தீர 137
▁தேர்ச்சி 137
▁தேர்தலின் 137
▁தொண்ட 137
▁நம்பி 137
▁நிர் 137
▁நிறைவேற்றி 137
▁நிலத்தில் 137
▁நூ 137
▁பது 137
▁பராக்கிரம 137
▁பிரசு 137
▁புத்தாண்டு 137
▁பெட்ரோல் 137
▁பெளத்த 137
▁மாணவர்களும் 137
▁முகாம்களில் 137
▁வடிவில் 137
▁வழங்குவதை 137
▁விருந்து 137
0000 136
ஐபி 136
டுதான் 136
தேக 136
மிடத்தில் 136
வருடன் 136
ாளரும் 136
ிருப்பதாகக் 136
ுகளிலிருந்து 136
ூட்டல் 136
▁அண்ண 136
▁அர்ஜ 136
▁அறியப்பட்ட 136
▁ஆக்கிர 136
▁இரட்ச 136
▁உணர்த்த 136
▁எகிப்திய 136
▁எலி 136
▁ஐயோ 136
▁கதாபாத்திர 136
▁கருதுகிறது 136
▁கருத்துகள் 136
▁கழுவ 136
▁காலத்துக்கு 136
▁குறைய 136
▁செயல்பாட்டை 136
▁சேவையா 136
▁ஜோசப் 136
▁டெல்லியில் 136
▁தரப்பட்ட 136
▁நீடித்து 136
▁பண்ப 136
▁பயங்கரமான 136
▁பிய 136
▁பூம 136
▁மரி 136
▁மருத்துவர் 136
▁மாண்ப 136
▁மில்லிய 136
▁மேஜர் 136
▁யாக்கோபு 136
▁வலைத்தள 136
▁வழிகாட்டி 136
▁விதிக்கப்பட்ட 136
டின 135
டிப்பை 135
ட்கள 135
தற்காகவும் 135
தாது 135
நீதி 135
நீர் 135
னீ 135
பூர்வ 135
ப்புறம் 135
ப்பூர்வ 135
ரம்ப 135
லினில் 135
ாக்கில் 135
ிகார 135
ீட்டில் 135
▁அடுக்கு 135
▁அதனுடைய 135
▁அதிலிருந்து 135
▁அபாயம் 135
▁அம்பேத்க 135
▁அறையில் 135
▁அழிந்து 135
▁ஆகாய 135
▁இரண்டுமே 135
▁எருசலேமின் 135
▁ஏற்படுத்தப்பட்ட 135
▁கண்டித்து 135
▁காயமுற்ற 135
▁குறிப்பிடுகிறது 135
▁கைத்தறி 135
▁கோடை 135
▁சகோத 135
▁சூழ்ச்ச 135
▁தம் 135
▁தருவ 135
▁திருத்திய 135
▁திறம்பட 135
▁தீங்கு 135
▁நகரங்களுக்கு 135
▁நிதிக் 135
▁நிமிட 135
▁நெடுஞ்சால 135
▁படக 135
▁படையினரின் 135
▁பணவீக்க 135
▁பாத்திரத்தை 135
▁பாத்திரம் 135
▁பெற்றிருக்க 135
▁மறுவாழ்வு 135
▁மின்னஞ்சல் 135
▁மைல் 135
▁ராஜீவ் 135
▁ரீதியாகவும் 135
▁லை 135
▁வாழ்நாள் 135
▁விவசாயத் 135
அமெரிக்க 134
தாவின் 134
நாட்டை 134
ப்பட்டாலும் 134
மைத்த 134
ாசிய 134
ிகோ 134
ிறீ 134
ுக்காட்ட 134
ேட்ட 134
▁அச்சு 134
▁அமலுக்கு 134
▁அவனைத் 134
▁அவர்களைச் 134
▁இண்ட 134
▁இயந்திரங்கள் 134
▁இரவில் 134
▁இருந்ததாக 134
▁உதவியது 134
▁உயர்நீதிமன்ற 134
▁உருவெடுத்த 134
▁உறுப்பினர்களாக 134
▁எப் 134
▁கதாநாயக 134
▁கள் 134
▁கள்ள 134
▁குவா 134
▁கொட்ட 134
▁கொள்வதில் 134
▁சாதி 134
▁சாலையில் 134
▁சிக்கல் 134
▁ஜோர்ஜியா 134
▁டன்ன 134
▁தனிய 134
▁நடன 134
▁நிர்ணயம் 134
▁நீரிழிவு 134
▁பதாக 134
▁பிரார்த்த 134
▁புதன் 134
▁புலம் 134
▁பூர்வ 134
▁பெரும்பான்மைய 134
▁பேரா 134
▁மாண்ட 134
▁மீள் 134
▁முகத்தை 134
▁முன்வைத்த 134
▁முயற்சிக்க 134
▁மேய் 134
▁மேற்கத்திய 134
▁மேற்பட்டோர் 134
▁வசந்த 134
▁வயதுக்கு 134
▁வற 134
▁விடுகிறது 134
▁வேதனை 134
▁வேளைகளில் 134
னத்தின் 133
ற்றில் 133
ழிவு 133
ாளரின் 133
ியிலிருந்து 133
ிலிருந்தே 133
ெய்ய 133
ொடுக்க 133
▁அரசுப் 133
▁அருங்காட்சிய 133
▁ஆவே 133
▁இணையதளத்தில் 133
▁இப்படத்தை 133
▁இழை 133
▁ஈடுபாடு 133
▁உண் 133
▁ஐஎஸ் 133
▁ஐந்தாவது 133
▁கனரக 133
▁காமெடி 133
▁கிடைப்பது 133
▁குண்டுகள் 133
▁சாதக 133
▁சொத்த 133
▁ஜீவா 133
▁ஜுலை 133
▁தடுப்பது 133
▁தாக்குதலின் 133
▁தானியங்கி 133
▁தார 133
▁தோற்றுவித்த 133
▁நதிகள் 133
▁நல்க 133
▁நல்வாழ்வு 133
▁நாட்கள 133
▁நியூஸ் 133
▁நீடிக்கும் 133
▁நீள 133
▁பங்களாதேஷ் 133
▁பயிற்சியை 133
▁பாகமாக 133
▁புனிதமான 133
▁புளோரிடா 133
▁பெறவில்லை 133
▁முகாம்கள் 133
▁முந்த 133
▁வணக்க 133
▁வரலாற்றின் 133
▁வல்லுன 133
▁வழக்கறிஞர்கள் 133
▁வழிகள் 133
▁விசாரித்த 133
▁வேள 133
நகரில் 132
னியாவில் 132
புர 132
புரி 132
மார்கள் 132
மென 132
ரத்தை 132
ஸ்டர் 132
ாலின் 132
ிகளாலும் 132
ுவதற்காகவும் 132
ையாளர் 132
ையுமே 132
▁அனைவருமே 132
▁அமைத்துக் 132
▁அரசாங்கப் 132
▁அருங்காட்சியக 132
▁ஆளுநர்கள் 132
▁இப்போதைய 132
▁இயல்பு 132
▁உன்னத 132
▁உரி 132
▁உரிமம் 132
▁எகிப்தின் 132
▁எண்ணை 132
▁எத 132
▁என்னவெனில் 132
▁கட்சியாக 132
▁கட்டுரைகள் 132
▁கமா 132
▁கவிழ் 132
▁காட்சிகளை 132
▁கிழக்க 132
▁குஜராத்தின் 132
▁கூட்டுக் 132
▁கொச்சி 132
▁கொட 132
▁கொள்கைகளின் 132
▁சத்தம் 132
▁செல்வத்தை 132
▁சொன்னது 132
▁தன்மையில் 132
▁திட்டமிடப்பட்ட 132
▁நாடெங்கும் 132
▁நிறைவே 132
▁பண்ணை 132
▁பரிசோ 132
▁பாராளுமன்றம் 132
▁பார்வைக்கு 132
▁பிறகே 132
▁பெட்டிகள் 132
▁பெற்றுக்கொண்ட 132
▁மசூ 132
▁மந்திரியாக 132
▁மன்றத்தின் 132
▁முழுவது 132
▁மெள 132
▁யாராவது 132
▁யூரியா 132
▁ரவீ 132
▁வகுப்பின 132
▁வடிவமைக்கப்பட்ட 132
▁வடிவம் 132
▁விரை 132
▁வெற்றிக 132
ச்செய்த 131
டுகளைக் 131
த்தியது 131
ப்போகும் 131
மையாகவும் 131
லாகாது 131
ளன 131
ளாக 131
விகள் 131
வைக்க 131
ஸ்வர 131
ாவல் 131
ிதமான 131
ுகால 131
ேயான 131
ைகு 131
ையாக்க 131
ையார் 131
ையிலேயே 131
▁அதிகாரத்தில் 131
▁அதுவே 131
▁அறிவிய 131
▁அழித்த 131
▁இசையமைப்பாளர் 131
▁இணையவழி 131
▁உட்பட்டு 131
▁உருவாக்கியது 131
▁உலகக் 131
▁எழுதுக 131
▁ஏஜென் 131
▁கடிதங்கள் 131
▁காகித 131
▁கூறியுள்ள 131
▁செய்யக் 131
▁செய்யாமல் 131
▁செல்வா 131
▁தேர்வுகள் 131
▁நடத்தப்பட்டன 131
▁நிரந்தரமாக 131
▁பட்டேல் 131
▁பயன்படுத்தப்பட 131
▁பாக் 131
▁பாரதிய 131
▁புரியும் 131
▁பெட்டி 131
▁பெய்த 131
▁பெரி 131
▁போவதாக 131
▁மலேசிய 131
▁முதன்மையான 131
▁மும் 131
▁லியோ 131
▁வராத 131
▁வழிநடத்த 131
▁விகிதத்தை 131
▁விமானங்களை 131
▁வெற்றிபெற 131
▁வெளிவரும் 131
▁வேகத்தை 131
▁வைத்தனர் 131
கர 130
குமார 130
சாக 130
ச்செய 130
திவ 130
படியும் 130
ப்பொ 130
யன் 130
ரது 130
வைகளை 130
ஷியஸ் 130
ாததால் 130
ாதார 130
ுக்கட்ட 130
ுள்ளதால் 130
ெரி 130
ொண்டார் 130
▁அகற்றி 130
▁அதனுடன் 130
▁இருந்ததால் 130
▁இருப 130
▁உருவாகியுள்ளது 130
▁உள்ளிட்டோர் 130
▁என்பவர்கள் 130
▁ஒள 130
▁கடி 130
▁கம்யூனிச 130
▁குழந்தைகள 130
▁கூறினால் 130
▁சர்வாத 130
▁சுனாம 130
▁செயல்படுவது 130
▁சேகரிப்பு 130
▁தொலைக்க 130
▁நிகழ்ச்சித் 130
▁பாரசீக 130
▁பாரிசில் 130
▁புதன்கிழமை 130
▁புல் 130
▁பெப்ருவரி 130
▁பெயர 130
▁மனிதர்கள் 130
▁மருத்துவத் 130
▁மாற்றத்தின் 130
▁மேன 130
▁மேயர் 130
▁மையமாகக் 130
▁மோசம 130
▁யை 130
▁வழங்குவதற்காக 130
▁விற்ற 130
▁ஷோ 130
81 129
க்ட 129
ங்களுக்குக் 129
சாட் 129
சேக 129
ட்சியை 129
ட்டோ 129
தற்க 129
மையால் 129
மையே 129
ரங்கம் 129
ரிட்ட 129
ரியால் 129
ர்க்கில் 129
ர்த்தி 129
லாத் 129
ாயின் 129
ியிலும் 129
ிறன் 129
ுக்கிடையே 129
ுவதைக் 129
▁அகற்றும் 129
▁அதற்குக் 129
▁அறிவுரை 129
▁அலுவலகத்தின் 129
▁அவருக்குப் 129
▁அவளுடைய 129
▁ஆண்கள் 129
▁ஆர்ட 129
▁இந்தோனே 129
▁இம்மா 129
▁கடலோரப் 129
▁கூடியதாக 129
▁கூட்டங்களில் 129
▁கைப்பற்றிய 129
▁கோரு 129
▁சிறந்து 129
▁தகவல்களின் 129
▁தந்தது 129
▁தர்ம 129
▁தாயின் 129
▁திரும்பவும் 129
▁திரைப்படங்கள் 129
▁துடி 129
▁படங்களின் 129
▁பள்ளத்தாக்க 129
▁பள்ளிக்கூட 129
▁புத்துயிர் 129
▁பொற 129
▁மாற்றத்திற்கு 129
▁முகாமை 129
▁மெல்லிய 129
▁யோச 129
▁வசதியான 129
▁வருத்தம் 129
▁வளாகம் 129
▁வாக்கெடுப்ப 129
▁விற்று 129
▁விழாவின் 129
▁வெள்ளம் 129
▁வேட 129
▁வேடம் 129
▁வைப்பது 129
1947 128
83 128
சியில் 128
ட்டார் 128
ண்டும் 128
னிட 128
ாவர் 128
ாவுடனான 128
ிக்கின்றன 128
ிருந்தபோது 128
ுகளுக்காக 128
ுறிப்பு 128
ொழுதும் 128
▁அடிமை 128
▁அதிகாரியான 128
▁அம்சமாக 128
▁ஆப்கான் 128
▁ஆவணங்களை 128
▁என்றழைக்க 128
▁கருண 128
▁காந்தியடிகள் 128
▁கூறியிருந்தார் 128
▁கேரளாவில் 128
▁சட்டபூர்வமான 128
▁சுட 128
▁சுவி 128
▁ஜொ 128
▁தண்ணீரை 128
▁தோற்றம் 128
▁நேபாளம் 128
▁படிவ 128
▁படைப்பு 128
▁பன்னிரண்டு 128
▁பலவித 128
▁பிலிப்பைன்ஸ் 128
▁புரிந்துகொள்ள 128
▁பெய்ய 128
▁வகு 128
▁வலய 128
▁வலைப்பின்ன 128
▁வழித்தட 128
▁வாரங்கள் 128
▁வார் 128
▁விருதை 128
டிக 127
துகள் 127
த்துக்குச் 127
த்துக்கொள் 127
பூர்வமாக 127
மில் 127
ராஜா 127
வம் 127
வுக்கும் 127
ஸுக்கு 127
ாலேயே 127
ிர் 127
ுய 127
▁+ 127
▁அடங்குவர் 127
▁அண்ணா 127
▁அப்பட 127
▁அமைப்புக்களின் 127
▁அளிக்கப்பட்டு 127
▁இம்மாதம் 127
▁இயக்கங்கள் 127
▁ஈரானில் 127
▁உத்தராக 127
▁எம 127
▁கணவர் 127
▁கருதுகின்றனர் 127
▁காவலர் 127
▁கீழ்க்காணும் 127
▁குத்த 127
▁குறிக்கோள் 127
▁குழுக்களுக்கு 127
▁குழுவும் 127
▁சட்டரீதியான 127
▁செய்வார்கள் 127
▁தகரா 127
▁தடுக்கவும் 127
▁தப்பிய 127
▁தரவ 127
▁தலைமுறையின 127
▁தேதியில் 127
▁நீரை 127
▁நுழைய 127
▁பிண 127
▁பேரணி 127
▁மைக்ரோ 127
▁யோசேப்பு 127
▁வனத்துறை 127
▁வனம் 127
▁வேண்டுமா 127
78 126
கரமான 126
ங்கத்தில் 126
ச்சின் 126
டுவத 126
ணங்கள் 126
திக்கும் 126
பில் 126
ப்பிங் 126
ப்பிரிவ 126
ப்பூர் 126
முறைகள் 126
ரிடமிருந்து 126
ர்ஜ 126
ளிக்கப்பட்ட 126
வீர 126
ஸ்வ 126
ாரிய 126
ிகளிடையே 126
ுகொள் 126
ையில்தான் 126
ோல் 126
▁அதிகரித்தல் 126
▁அரசுடன் 126
▁அழித்துவ 126
▁ஈடுபட்டுள்ளது 126
▁உணர்வுகள் 126
▁உறவுகளின் 126
▁உழைத்து 126
▁என்பவை 126
▁கலங்க 126
▁காட்சிய 126
▁கிருஷ்ணா 126
▁சரத்குமார் 126
▁சாகச 126
▁சூழ்நிலைய 126
▁செலவுகளை 126
▁செல்லு 126
▁ஜூலையில் 126
▁ஜோதி 126
▁தருண 126
▁திரும்பும் 126
▁திறந்தவெளி 126
▁தேவையாக 126
▁நகருக்கு 126
▁படமும் 126
▁பணியின் 126
▁பயணிகளுக்கு 126
▁பாகிஸ்தானின் 126
▁பிபிசி 126
▁போன்றவற்றின் 126
▁போர 126
▁மகிமை 126
▁மன் 126
▁மாநிலத்திற்கு 126
▁யோசே 126
▁வக்க 126
▁வடி 126
▁வெண்கல 126
▁வெளிச்சம் 126
▁ஸ்டுடியோ 126
1993 125
76 125
உத 125
காச 125
ச்சியில் 125
தற்குப் 125
த்துவத்தை 125
படும் 125
மார 125
மியா 125
மைச் 125
ராக் 125
ரையை 125
வாதி 125
விக்கு 125
ஹெ 125
ிடங்கள் 125
ும்பி 125
ுள்ளும் 125
ூக்க 125
ொள்ளும் 125
▁அதிகரித்தது 125
▁அப்பகுதியில் 125
▁ஆப்பிரிக்கா 125
▁ஆர்க 125
▁ஆலயத்தின் 125
▁இணக்க 125
▁இருப்பதோடு 125
▁இருவர் 125
▁ஈர்க்கும் 125
▁உயர்த 125
▁எல்லைகளை 125
▁கப்பலில் 125
▁கேமரா 125
▁சம்பிரதாய 125
▁சென்ன 125
▁செய்தான் 125
▁ஜவு 125
▁தளங்களை 125
▁தீவ 125
▁நடத்தின 125
▁நம்பிக்கையுடன் 125
▁நிறுவிய 125
▁நிலத்தடி 125
▁பாடத்திட்ட 125
▁பின்னி 125
▁பீம் 125
▁பெல் 125
▁பொதுநல 125
▁மாற்றீடு 125
▁முற்போக்கு 125
▁லண்ட 125
▁வாதம் 125
▁விழு 125
▁வெளியாக 125
▁வெளியேறிய 125
▁ஹிட் 125
ü 124
ட்சிகள் 124
ட்சியான 124
நோக்கி 124
ந்துள்ளதாக 124
னுக்குப் 124
ப்பரி 124
மியோபதி 124
மிரு 124
முக்கு 124
ர்களோடு 124
ர்ப்பு 124
லைகளை 124
ஸ்டில் 124
ிக்குச் 124
ுவதைத் 124
▁அரசியலமைப்ப 124
▁இடம்பெற்றுள்ளன 124
▁இதற்குக் 124
▁இழு 124
▁ஈசா 124
▁கட்டாயமாக 124
▁கல்வியில் 124
▁காட்டினர் 124
▁கேள 124
▁சட்டப்படி 124
▁சுரங்கங்கள் 124
▁சூழலுக்கு 124
▁சேமிக்க 124
▁தெரியவ 124
▁நாடி 124
▁நிர்ம 124
▁நீர்ப்பாசன 124
▁நேய 124
▁நேரிடும் 124
▁பெங்களூரு 124
▁போலிய 124
▁மதிப்புமிக்க 124
▁யோகி 124
▁வசதிகளும் 124
▁வழிமுறை 124
▁விடுத 124
▁வியாழக்கிழமை 124
குமார் 123
க்கொண்ட 123
த்துக்களை 123
படு 123
ப்புற 123
ரிப்பு 123
லாவை 123
ஸ்டன் 123
ாகச் 123
ாளர்களுடன் 123
ாவைக் 123
ினுள் 123
ிப்படுத்த 123
ிராம 123
ுகொள்ள 123
ெனில் 123
▁அடிப்படையை 123
▁அதிரடி 123
▁அப்படியான 123
▁அவ்விட 123
▁ஆன்மீக 123
▁ஆலையில் 123
▁இதேபோல் 123
▁உத்தரவிட்டார் 123
▁உத்தி 123
▁என்டி 123
▁ஏற்றி 123
▁ஒருவருக்கொருவர் 123
▁கட்டுமானத் 123
▁கருதும் 123
▁கல்லூரிகளில் 123
▁குணம் 123
▁கைவிட்டு 123
▁சந்திரசேகர் 123
▁சரண 123
▁சாதாரணமாக 123
▁சென்றடையும் 123
▁டொனால்ட் 123
▁தண 123
▁தரி 123
▁தழுவிய 123
▁தேவி 123
▁பகுதியினர் 123
▁பகுதியைச் 123
▁பச்ச 123
▁பருவத்தில் 123
▁மணித்தியால 123
▁முறைகளில் 123
▁ரெட்டி 123
▁வரியை 123
▁வல்லுந 123
▁வழக்கம் 123
▁வாதி 123
▁வேல் 123
▁ஸ்வீடன் 123
1415 122
சிவ 122
நாதன் 122
பென் 122
ப்படுவதன் 122
மனைய 122
மாநில 122
ம்மு 122
ளிக்கிறது 122
வருடைய 122
வர்களுக்கான 122
வாரம் 122
ஸ்ச 122
ிடவும் 122
ுவதற்குத் 122
▁அக்டோபரில் 122
▁அத்தோடு 122
▁அழகான 122
▁அழகிய 122
▁அவற்ற 122
▁ஆனந்த 122
▁உண்ம 122
▁உன்னதமான 122
▁ஊக்குவித்தல் 122
▁ஊர்க 122
▁எதை 122
▁என்பதையே 122
▁ஏப்ரலில் 122
▁கவனித்த 122
▁காயம் 122
▁காய்ச்சல் 122
▁குழப்பம் 122
▁கையெழுத்து 122
▁கொடுக்கப்பட 122
▁சன 122
▁சிபி 122
▁சிப்பாய 122
▁செவில 122
▁சேகரிக்க 122
▁தடையாக 122
▁தாங்கினார் 122
▁துல்லியமான 122
▁தெரியாமல் 122
▁தேர்வில் 122
▁நை 122
▁படப்பிடி 122
▁பண்டாரநாயக்க 122
▁பத்திரிகைகள் 122
▁பருத்தி 122
▁பிரதேசங்கள் 122
▁பூரி 122
▁போனால் 122
▁மடங்காக 122
▁மாக 122
▁மாதத்தின் 122
▁முன்னோடியாக 122
▁முற்றுக 122
▁ரயில்வேயின் 122
▁வராமல் 122
▁வெளிக்காட்ட 122
▁ஷியா 122
சில 121
த்தொ 121
னிலிருந்து 121
புள் 121
பெற 121
ப்படையின் 121
மாண்ட 121
மால 121
ருக்குள் 121
றிந்து 121
ினில் 121
ுதவி 121
▁அதிகாரப் 121
▁அதிகாலை 121
▁ஆகா 121
▁இடு 121
▁உட் 121
▁எண்ணங்கள் 121
▁எல 121
▁எழுச்சிய 121
▁ஓட 121
▁கருத்துப் 121
▁கொல் 121
▁சமசமாஜக் 121
▁சமூகக் 121
▁சிறுவ 121
▁சில் 121
▁செப்டம்பரில் 121
▁செயல்படுகின்றன 121
▁செல்ப 121
▁தன்மையைக் 121
▁தன்மையையும் 121
▁தொகுதியில் 121
▁நாடுகளையும் 121
▁நிகர 121
▁நிறுவனமாக 121
▁பகுப்பாய்வ 121
▁பாடல்களை 121
▁பாய் 121
▁பிரகாச 121
▁பிரதானமாக 121
▁போக்கில் 121
▁மட்டும்தான் 121
▁மாறிவிட்டது 121
▁முரண்ப 121
▁மேற்கோள 121
▁வடிவமைக்க 121
▁வளர்க்கும் 121
▁வாகனங்களை 121
▁வாழ்க்கைத்த 121
▁விடுவிக்க 121
▁விட்டுக் 121
▁விளைவிக்கும் 121
▁வெறுக்க 121
1992 120
இடி 120
நேர 120
பிரதேச 120
ப்படல் 120
ப்போக்கு 120
ப்போதும் 120
மற்றது 120
மென் 120
யாண 120
லாக் 120
லாள 120
வள் 120
வாய்ந்த 120
ஸீ 120
ிருக்கவேண்டும் 120
ுண்ட 120
ெய் 120
▁அடையாளத்தை 120
▁அனல் 120
▁அவரைத் 120
▁அவர்களுக்குத் 120
▁ஆதரவான 120
▁ஊடகத்தில் 120
▁ஊட்டச்ச 120
▁எடுக்கப்பட்டது 120
▁என்பன 120
▁ஒருங்கிணைத்து 120
▁ஒருவரின் 120
▁கழகத்தில் 120
▁காப்பு 120
▁குறைப்பதற்கு 120
▁கூட்டண 120
▁கூட்டணிய 120
▁சமநிலை 120
▁சமயங்களில் 120
▁சமூகத்தின 120
▁சில்லறை 120
▁சுந்தர் 120
▁சுற்றில் 120
▁தடய 120
▁தன்னல 120
▁தூரத்தில் 120
▁தேவ் 120
▁நந்த 120
▁நல்லெண்ண 120
▁நியமித்த 120
▁பரிமாற்றங்கள் 120
▁பாக்கிய 120
▁பாடலை 120
▁புதியதொரு 120
▁பொறுப்பில் 120
▁முகவரி 120
▁முறி 120
▁மைல்க 120
▁வருடத்தில் 120
▁வருமானவரி 120
▁வழிகளை 120
▁வழிநட 120
▁விஞ்ஞ 120
▁விட்டுப் 120
▁விமர்சனம் 120
▁விளையாடு 120
▁விளையாட்டுகள் 120
▁வேட்டையா 120
▁வேண்டு 120
93 119
சிடி 119
ச்சர் 119
ணைய 119
த்திறன் 119
னுக்கான 119
ப்பாத 119
மீன் 119
மைப்புத் 119
ம்பி 119
ரிசிய 119
லாமா 119
லுக்காக 119
லைச் 119
ஹாரி 119
ாடுகள் 119
ிக்கள் 119
ீன 119
ுமோ 119
ுள்ளேயே 119
ூடாக 119
்டி 119
▁அடைவதற்கான 119
▁அரசிற்கு 119
▁அஹ 119
▁ஆளுகை 119
▁இடம்பெற்றுள்ள 119
▁இடையூற 119
▁இயக்கப்படும் 119
▁இருமட 119
▁இவற்றிற்கு 119
▁உண்டாகும் 119
▁எப்பொழுது 119
▁எழுப்பு 119
▁கண்காட்சியில் 119
▁காட்சியில் 119
▁கொடுத்தனர் 119
▁சக்திகளை 119
▁சணல் 119
▁சீரான 119
▁செய்தித்தாள 119
▁ஞாபக 119
▁தற்கா 119
▁தாண்ட 119
▁தாண்டிய 119
▁தான 119
▁தீவிரவாதிகள் 119
▁தொகைக்கு 119
▁தொழில்களை 119
▁தொழில்நுட்பப் 119
▁நிதான 119
▁பதி 119
▁பன 119
▁பறக்க 119
▁பிரமாண்ட 119
▁பெறாத 119
▁போட்டுக் 119
▁மன்றத்தில் 119
▁மாதிர 119
▁மார்ஷல் 119
▁மூர்க்க 119
▁மேற்கொண்டனர் 119
▁யூதர்கள் 119
▁வடிவத்தில் 119
▁வடிவேலு 119
▁வலியுறுத்தும் 119
▁வீச்ச 119
▁ஹீ 119
1948 118
த்தியை 118
நீக்கம் 118
ப்படுகிறார் 118
ரியான 118
ளவுக்கு 118
ழ்க்க 118
வர்த 118
வற்றில் 118
விக்க 118
ானவர் 118
ும்பு 118
்தி 118
▁அக்கினி 118
▁அவதூ 118
▁ஆட்க 118
▁இட்டுச் 118
▁ஈர் 118
▁உட்கட்டமைப்பு 118
▁உறை 118
▁எசே 118
▁எடுத்தது 118
▁ஏவ 118
▁ஒழிய 118
▁கடற்படைய 118
▁கண்ணீர் 118
▁கதவ 118
▁கருப்புப் 118
▁கவனித்து 118
▁கூடங்கள் 118
▁கொழு 118
▁சூரியன் 118
▁செலுத்துகிறது 118
▁செலுத்துவது 118
▁சோதனைக் 118
▁ஜோஸ் 118
▁தனித்துவமான 118
▁தன்னார்வல 118
▁தொடரில் 118
▁நிலைகள் 118
▁நெஞ்ச 118
▁பங்காற்றிய 118
▁பார்வையாளர்கள் 118
▁பெரும்ப 118
▁பொரு 118
▁போய்வ 118
▁மகப்பேறு 118
▁மாற்றப்பட்ட 118
▁ராமே 118
▁வங்கியில் 118
▁வீரம் 118
கையில் 117
சியல் 117
ஜென் 117
டிப் 117
தயா 117
நித 117
னாய் 117
னிக் 117
பஸ் 117
ப்படம் 117
ப்படுவதில் 117
வர்களைக் 117
ிருப்பினும் 117
ுகொண்டு 117
ைட் 117
ையில 117
▁அமெரிக்காவிலும் 117
▁அமைப்புக்கு 117
▁அரசுகளும் 117
▁ஆடி 117
▁ஆய்வின் 117
▁இடைத்தே 117
▁இவர்களை 117
▁எடுப்பது 117
▁என்பதாக 117
▁ஏற்கும் 117
▁ஏற்றுக்கொள் 117
▁ஓட்டு 117
▁கனி 117
▁காரணமாகவே 117
▁கேள்விகளுக்கு 117
▁கோடியில் 117
▁சாம்ப 117
▁சிட்டி 117
▁டொலர் 117
▁தகர்த்த 117
▁தயாரிக்கப்படும் 117
▁திறனையும் 117
▁துறையும் 117
▁நிலக்க 117
▁நோர்வே 117
▁பங்கா 117
▁பேதுரு 117
▁போராட்டங்களை 117
▁மக்களைக் 117
▁மதிய 117
▁மாநிலமான 117
▁முடித்து 117
▁முன்வர 117
▁ரகசிய 117
▁வரலாற்றுப் 117
▁வளர 117
▁வாங்குவதற்கு 117
▁வாஜ்பாய் 117
▁விட்டால் 117
▁வெளியுறவுத் 117
▁வேறுபாடுகளை 117
115 116
ஃபா 116
சலோ 116
சியை 116
டுப்பு 116
திற்கு 116
ப்பற்ற 116
ராஜன் 116
ரிக் 116
ர்களுக்காக 116
றிந்த 116
விடக் 116
வெறி 116
ஷை 116
ுகூட 116
ுக்கிடையில் 116
ுவீ 116
ைகளோடு 116
▁அதிகாரங்கள் 116
▁அழிவு 116
▁ஆட்டம் 116
▁உலகத்தை 116
▁கடைபிடிக்க 116
▁கருவூல 116
▁கவிஞர் 116
▁காத்திருக்க 116
▁குறிப்பிடப்பட்ட 116
▁கேள்விக்க 116
▁சர்ச்ச 116
▁சில்ல 116
▁செழ 116
▁தரக்கூடிய 116
▁திட்டமாகும் 116
▁நடா 116
▁நர்மதா 116
▁நாளன்று 116
▁நிர்வாண 116
▁பயன்படுத்துவதை 116
▁பறந்து 116
▁பலதர 116
▁பலனை 116
▁பெருகும் 116
▁பொக்கி 116
▁மரு 116
▁மில்லியனுக்கும் 116
▁மோதலில் 116
▁வசூ 116
▁வஞ்ச 116
▁வழக்குகளில் 116
▁வெற்று 116
▁வெளியாகும் 116
க்குறை 115
க்குவரத்து 115
ச்சா 115
ட்டியின் 115
ணர்வை 115
தென்ன 115
ன்தாரா 115
ன்னை 115
மேம்ப 115
ரிஷ 115
ர்ப்ப 115
வரிடம் 115
ிக்கொண்டது 115
ியான் 115
ிற்குத் 115
ுள் 115
ெஸ் 115
ொருவர் 115
ொழில்நுட்ப 115
ோவின் 115
▁அங்கீகரித்த 115
▁அசாதாரண 115
▁அடிப்படையிலேயே 115
▁அமைந்திருந்தது 115
▁அருமையான 115
▁ஆயிரத்து 115
▁ஆரம்பித்து 115
▁இத்துறையில் 115
▁இலட்ச 115
▁இவைய 115
▁ஈர்த்த 115
▁உணவை 115
▁உறவினர்கள் 115
▁எவர் 115
▁ஏற்றத்தாழ் 115
▁ஒருவராக 115
▁கடைபிட 115
▁கனிம 115
▁காண்பது 115
▁காரணமான 115
▁காலத்திலும் 115
▁கிடைக்கின்றன 115
▁கூடுத 115
▁கேர் 115
▁கொடுக்கப்பட்டது 115
▁கோட்டை 115
▁சத்தீ 115
▁சத்தீஸ்கர் 115
▁செயற்பாடுகள் 115
▁டோக்கியோ 115
▁திறமைகளை 115
▁துவங்கிய 115
▁தொகுப்பில் 115
▁தொடுக்க 115
▁நம்பிக்கையில் 115
▁நல்லிணக்க 115
▁நாளான 115
▁நாளுக்கு 115
▁பகிர் 115
▁பண்டிட் 115
▁பாணியில் 115
▁பிலிம் 115
▁பூங்கா 115
▁பேர்கள் 115
▁பொறுப்பாக 115
▁போட்டியிட்ட 115
▁மத்தியிலும் 115
▁மனத 115
▁மலர் 115
▁மவு 115
▁மாதவன் 115
▁மீட்புப் 115
▁முனையம் 115
▁ராணி 115
▁வந்தவர்கள் 115
▁வலிய 115
▁விடுவி 115
ஃபி 114
ங்கொண்ட 114
ஜான் 114
த்தினுள் 114
ப்படுவதையும் 114
ப்பதாகும் 114
மட்ட 114
ரைன் 114
ற்த 114
ற்றல் 114
ழ்ச்சி 114
ாரஸ் 114
ினையும் 114
ியிடம் 114
ிருப்பவர்கள் 114
ுகளான 114
ெதிராக 114
▁அபராத 114
▁அபராதம் 114
▁அமெரிக்கக் 114
▁அமைத்துள்ளது 114
▁ஆபிரகாம 114
▁ஆர்வத்தை 114
▁இணையக் 114
▁இந்தோ 114
▁இம்முறை 114
▁இருந்தான் 114
▁இருபதாம் 114
▁உரிமையாளர்கள் 114
▁எலியா 114
▁எல்லையை 114
▁கட்ச் 114
▁குத 114
▁கூறுவத 114
▁கெல்லி 114
▁கைப்ப 114
▁கொள்வார்கள் 114
▁சம்ம 114
▁சாகுபடி 114
▁சேரன் 114
▁தக்கவை 114
▁தாலி 114
▁தேசியத் 114
▁தேவைக்கு 114
▁நினைவிட 114
▁நிபந்தனை 114
▁பங்குகளை 114
▁பர்வத 114
▁பலவீனமான 114
▁பல்ப 114
▁பெள 114
▁மக் 114
▁மதிப்புக் 114
▁மனிதனின் 114
▁மாநிலங்களும் 114
▁மீண்டு 114
▁மூலமே 114
▁ஸ்டார் 114
கமான 113
க்குழ 113
க்ஸ 113
ங்கே 113
சர 113
சைன் 113
ச்சென்ற 113
டித்தான் 113
ட்லி 113
நாட 113
ப்போர் 113
மல் 113
யத்தில் 113
வராய 113
வர்களிடம் 113
வல 113
ாரப் 113
ாளரை 113
ாவான 113
ியலின் 113
ையி 113
ோடி 113
்களாக 113
▁அதோடு 113
▁அத் 113
▁அளித்துள்ளார் 113
▁ஆண்டுகளுக்குப் 113
▁இருந்தவர் 113
▁இவர்களின் 113
▁ஈடுக 113
▁ஊடகத்தின் 113
▁எடுப்பதற்கு 113
▁என்பவ 113
▁ஒலிவ 113
▁கங்கா 113
▁கன்னட 113
▁கற்பித்த 113
▁கழிவுகளை 113
▁கவுத 113
▁கிளம்ப 113
▁குடித்த 113
▁குறைபாடுகள் 113
▁கொண்டவர் 113
▁கொண்டுவரப்பட்ட 113
▁கொள்ளாமல் 113
▁சீர்த்த 113
▁சென்றடைய 113
▁தனிமனித 113
▁தாழ்த்த 113
▁தொடர்புபடுத்த 113
▁தொடுத்த 113
▁நகரங்களை 113
▁நபர்களுக்கு 113
▁நுக 113
▁நோக்கங்கள் 113
▁நோயால் 113
▁படப்பி 113
▁படைப்ப 113
▁பணிப்ப 113
▁பயணிக்க 113
▁பலியான 113
▁பிறந்தநாள் 113
▁பெறுவதில் 113
▁பேசினர் 113
▁மடங்க 113
▁மின்சாரத்தை 113
▁மிஷன் 113
▁மேல்முறைய 113
▁வரையறுக்கப்பட்ட 113
▁வளர்த்து 113
▁விடிய 113
▁விண்ணப்பம் 113
▁விலைக்கு 113
▁விவேக் 113
▁வீடுகளின் 113
ணியின் 112
தார் 112
திகா 112
துக்க 112
ப்படாது 112
மாட்டாது 112
லையில் 112
ழுவின் 112
வரது 112
வியும் 112
வைய 112
ஸ்தா 112
ிக்கொண்டார் 112
ிட்டுக் 112
ிஸ்தான் 112
ைக்கார 112
ையிழ 112
▁அசாதாரணமான 112
▁அவற்றுக்கு 112
▁ஆண்டிற்கான 112
▁ஆதரவும் 112
▁ஆரம்பிக்க 112
▁ஆராதனை 112
▁இடி 112
▁இண 112
▁இல்லாதது 112
▁உயிர்த்த 112
▁எதிர்க்கட்சி 112
▁ஏடி 112
▁ஒப்பிடும் 112
▁கடைப்பிடிக்க 112
▁கந்த 112
▁கன் 112
▁கரும்பு 112
▁கலந்தா 112
▁காரணங்களுக்காக 112
▁கிரெ 112
▁குறைத்த 112
▁குழந்தைகளும் 112
▁சிப்பாய்கள் 112
▁செட்ட 112
▁செலுத்தப்பட்ட 112
▁தரிசன 112
▁தரையில் 112
▁துத 112
▁நிர்வாகி 112
▁நோக்கிக் 112
▁பகிர 112
▁பயணத்தின்போது 112
▁பாகு 112
▁மகேஷ் 112
▁மக்களுக்காக 112
▁மனநிறை 112
▁முதியோர் 112
▁முன்கூட்ட 112
▁மேற்பட்டவர்கள் 112
▁மேலை 112
▁வருவதற்கான 112
▁வழிகாட்டுதல் 112
▁விரும்பினால் 112
▁விழிப்புணர்வ 112
▁வெளிநாட்டில் 112
1971 111
1983 111
க்காரன் 111
க்ஸ் 111
ங்காய் 111
சல 111
திர் 111
த்திற்காகவும் 111
த்தோட்ட 111
பாடுகள் 111
பிள் 111
ருளும் 111
ர்ட்ட 111
விட்டார் 111
ஹார் 111
ாக்களின் 111
ாக்கின் 111
ாதிக்க 111
ாரணமாக 111
ிவரை 111
ுடனேயே 111
்கிறது 111
▁அபிஷேக 111
▁அவமான 111
▁ஆப்கானிஸ்தானின் 111
▁இடத்தைப் 111
▁உணர்ச்ச 111
▁உரைக்க 111
▁எரிக 111
▁ஏய் 111
▁ஏழாம் 111
▁கடமைகளை 111
▁காசோ 111
▁காட்சிக்கு 111
▁கொண்டிருப்பத 111
▁சதவீதமும் 111
▁சபைக்கு 111
▁சரண் 111
▁சிந்தனைகளை 111
▁சூடான் 111
▁செஞ்சிலுவைச் 111
▁ஞாயிறு 111
▁டான் 111
▁தலைநகரான 111
▁தீர்மானித்த 111
▁தேவைகளைப் 111
▁நன்ம 111
▁நமக்குத் 111
▁நலன 111
▁நிரப்பு 111
▁நெரிச 111
▁நேரத்திலும் 111
▁பாகிஸ்தானில் 111
▁பிற்பகல் 111
▁புள்ளிவிவரங்கள் 111
▁பெரும்பகுதி 111
▁பெற்றன 111
▁மகாராஷ்டிர 111
▁மதி 111
▁முறியடிக்க 111
▁யாத்திரை 111
▁வரலாற்ற 111
▁வழங்குவதாக 111
▁வழிவகுத்தது 111
கள் 110
ங்கல் 110
ஜின் 110
ணியும் 110
த்தொக 110
நம்பிக்க 110
நாம 110
பாண 110
பேர்ட் 110
யிலிருந்து 110
யே 110
ராலும் 110
ாட்சிய 110
ாவதாக 110
ிலில் 110
்களைத் 110
▁? 110
▁அளிப்பு 110
▁ஆக்கிரம 110
▁ஆவி 110
▁இருக்கையில் 110
▁உக்ரை 110
▁உறுப்பினரும் 110
▁எதுவுமில்லை 110
▁ஐஸ்வர்யா 110
▁கதைகள் 110
▁கவர்னர் 110
▁காயமடைந்தனர் 110
▁கீழான 110
▁குடும்பமும் 110
▁குழுக்களும் 110
▁கோள் 110
▁சனிக்கிழ 110
▁சாதிக்க 110
▁செய்வேன் 110
▁சைப் 110
▁தடுப்பதற்காக 110
▁திண்ட 110
▁நிலவி 110
▁நெதர்லாந்து 110
▁பெண்களும் 110
▁பெறுகின்றனர் 110
▁மருந்துப் 110
▁மீளா 110
▁முதுநிலை 110
▁மெதுவாக 110
▁ராவ் 110
▁வரிகளை 110
▁வல்லுனர்கள் 110
▁விலங்குகள் 110
▁வேண்டுமென்ற 110
ஊ 109
டுத்தார் 109
டுவதற்கும் 109
டெக் 109
தாக்கும் 109
த்ர 109
ந்தின் 109
னுக்குக் 109
பாட 109
பாலான 109
பொரு 109
மாவது 109
ம்பிய 109
ராக்க 109
ருவதாக 109
லைன் 109
ல்களால் 109
ள்ளது 109
ழிப்பு 109
வடையும் 109
ாதை 109
ிக்கப்பட்டனர் 109
ிப்பதோடு 109
ீடாக 109
ெழு 109
ெழுத்துக்க 109
ேகா 109
ொடுத்த 109
▁அகத 109
▁அப்போதுதான் 109
▁அறிந்துகொள்ள 109
▁அறிவிக்கும் 109
▁ஆங்கிலம் 109
▁ஆண்டிற்கு 109
▁ஆந்திரா 109
▁ஆய்வுக்கூட 109
▁உபதேச 109
▁உளவியல் 109
▁உள்ளதாகவும் 109
▁ஊனமுற்ற 109
▁எடுத்துக்க 109
▁எலும்ப 109
▁எளிமை 109
▁எழுத்தாளர் 109
▁கண்ணோட்டம் 109
▁காணவில்லை 109
▁கெல்ல 109
▁சக்தியின் 109
▁சட்டத்தின்படி 109
▁சிதைந்து 109
▁சீட்டு 109
▁சீர் 109
▁செய்தித்த 109
▁ஜின் 109
▁தசாவ 109
▁தமிழ்நாட்டின் 109
▁தலையிட 109
▁தாகூர் 109
▁தோல்வியடைந்த 109
▁நிறுவனத்துடன் 109
▁நூற்றாண்டுகளாக 109
▁படைக்க 109
▁பரம 109
▁பஹ் 109
▁பாடுபட்ட 109
▁பிரமாண 109
▁பிரயோக 109
▁மக்களுக்கான 109
▁மஞ்சள் 109
▁மண்ணில் 109
▁மாஸ்டர் 109
▁முதலாளி 109
▁வங்கம் 109
▁வல்லுநர்கள் 109
▁வளர்த்துக் 109
▁விமர்சித்த 109
▁விரட்ட 109
▁விள 109
▁விவசாயி 109
▁வேட்பு 109
▁வேலைக்க 109
112 108
கல் 108
ங்க் 108
ஜிய 108
த்தவர் 108
ல்டு 108
வுக்கான 108
வெள 108
ஹோ 108
ாமை 108
ியுள்ளனர் 108
ுப்புற 108
ெடுப்பது 108
▁அப்போதைய 108
▁இழப்பீடு 108
▁எல்லைகள் 108
▁கட்டியெழுப்ப 108
▁கருவிய 108
▁கிடைக்காத 108
▁சுரங்கத் 108
▁செய்ததாக 108
▁சேவைகளில் 108
▁தனித்துவ 108
▁தயாரிப்பது 108
▁தலையை 108
▁திருப்பதி 108
▁தூண்டும் 108
▁தொலைவ 108
▁நாடுகளிடையே 108
▁நாட்டுத் 108
▁நிகழ்வுகளை 108
▁நிபுணத்துவம் 108
▁நீதிமன்றங்கள் 108
▁படுகொலைகள் 108
▁படையை 108
▁பண்பாட்டு 108
▁பத்திரிக்க 108
▁பயணிகளை 108
▁பயிர்கள் 108
▁பழி 108
▁பழைமை 108
▁பார்வையிட 108
▁பின்ப 108
▁பிள்ளை 108
▁மட்டுமல்லாது 108
▁முதல்முறையாக 108
▁முன்னோக்கி 108
▁மேகாலயா 108
▁வகித்தார் 108
▁வழக்குகளை 108
▁விதம் 108
84 107
99 107
ங்களாலும் 107
ங்குகள் 107
த்தியில் 107
நாடுகள் 107
ப்பதிவ 107
மொன்றை 107
யிலில் 107
ராவில் 107
வார்ட் 107
ாளர்களையும் 107
ாவா 107
ின்போது 107
ியாக்க 107
ிற்கே 107
ுக்கொள்ளும் 107
ூம் 107
ைகளினால் 107
்சிங் 107
▁அதிர 107
▁அந்நாள 107
▁அளித்தனர் 107
▁ஆட்டோ 107
▁ஆயின 107
▁இணைப்புகளை 107
▁இத்திட்டத்தை 107
▁இம்ம 107
▁உச்சநீதிமன்றம் 107
▁எடையுள்ள 107
▁எழுதியுள்ள 107
▁ஓய்வுபெற்ற 107
▁கண்ணாடி 107
▁கதாநாயகனாக 107
▁கருப்பு 107
▁காட்டவில்லை 107
▁குதிரை 107
▁குறைவாகவே 107
▁குழும 107
▁சாதனையை 107
▁சான்றிதழ்க 107
▁சுமை 107
▁சேர்க்கப்பட்ட 107
▁சேர்ந்தவர் 107
▁ஞானம் 107
▁தலைவ 107
▁தவி 107
▁தொங்க 107
▁நடிப்பு 107
▁நாடுகளிலிருந்து 107
▁நாயகனாக 107
▁நிர்ணயிக்க 107
▁நோயாளிகளின் 107
▁படமாக 107
▁பரவி 107
▁பலவகையான 107
▁போராடிய 107
▁மறைவுக்கு 107
▁முடிவுக்குக் 107
▁முன்பதிவு 107
▁வரக்கூடிய 107
▁வருடங்கள் 107
▁வறட்சி 107
▁ஹாலிவுட் 107
தானது 106
தீவிர 106
தெ 106
த்திலோ 106
த்தூ 106
ந்தன் 106
பேச 106
பொன் 106
ப்படுவதற்கான 106
யான 106
ராட்ட 106
ரியன் 106
ரியாக 106
ானோ 106
ாளருக்கு 106
ிகளுடனும் 106
ிகாரி 106
்கார 106
▁அதிமுக 106
▁அத்தனை 106
▁அரண 106
▁அவற்றிற்கு 106
▁இடைத்த 106
▁இருத்தல் 106
▁இருப்பதையும் 106
▁இவரை 106
▁ஓரளவிற்கு 106
▁கல்வியின் 106
▁குஜரா 106
▁கேள்விகளை 106
▁கைக்கொள்ள 106
▁கோபி 106
▁சுழற்சி 106
▁செயல்படத் 106
▁ஜு 106
▁ஜேம்ஸ் 106
▁தலைவி 106
▁துணைப் 106
▁தேடு 106
▁நின்றது 106
▁நுழைந்து 106
▁நோய்க்கு 106
▁பண்டைய 106
▁பாரதி 106
▁பிரம்மாண்டமான 106
▁புத்தர் 106
▁பெயர்கள் 106
▁பொருளாதாரச் 106
▁போக்குகள் 106
▁மலிவு 106
▁மலேசியா 106
▁ரோபோ 106
▁வரையறுக்க 106
▁விருத்த 106
▁விஷால் 106
▁வேண்டுமானால் 106
69 105
87 105
ச்சை 105
டைந்தது 105
ட்களில் 105
ணிகளை 105
தேவ் 105
த்தனமாக 105
த்திரு 105
த்துவிடும் 105
த்தொடர்ந்து 105
த்ரி 105
போகும் 105
ப்படக்கூடிய 105
ப்பாளர் 105
மேல 105
ர்களுக்குப் 105
வரைய 105
விஸ் 105
வுகளில் 105
வுப் 105
ஸ்கள் 105
ார்கள 105
ார்ட 105
ிகளிடமிருந்து 105
ியானது 105
ிலின் 105
ிவே 105
ுட்படுத்த 105
ூரின் 105
ென்ன 105
▁அதேநேரத்தில் 105
▁அந்நாட்டின் 105
▁அரங்கு 105
▁அரசிடம் 105
▁அவசியமாகிறது 105
▁அவரோ 105
▁ஆய்வை 105
▁ஆர்வமாக 105
▁உதவியும் 105
▁உருவாக்கு 105
▁உற்பத்தியின் 105
▁உள்ளடங்கிய 105
▁எமிரே 105
▁எல்லாக் 105
▁காக 105
▁காரணங்களால் 105
▁கீத 105
▁குதிர 105
▁கையே 105
▁கொண்டதாகவும் 105
▁கொள்வதை 105
▁சிலையை 105
▁செலாவணி 105
▁டார் 105
▁டாலருக்கு 105
▁தலைவரை 105
▁திங்கள் 105
▁துறைகளுக்கு 105
▁தோல்வ 105
▁நிறுத்தும் 105
▁நிலநடுக்க 105
▁நிலையிலிருந்து 105
▁நேரடியான 105
▁படையில் 105
▁பண்பாடு 105
▁பிசா 105
▁பென 105
▁பெயரிட 105
▁பெரிதாக 105
▁முக்கியமானதாக 105
▁லோக் 105
▁வங்கிகளில் 105
▁வரையற 105
▁வாசல் 105
▁விடவும் 105
▁வியாபாரம் 105
▁வேலூர் 105
▁ஹைதராபாத் 105
ச்சீட்டு 104
டில் 104
தொ 104
ந்துகொள்ளும் 104
னமான 104
படுத்தி 104
புக 104
ப்போட்ட 104
மாணம் 104
யாக் 104
ர்க்கு 104
லினால் 104
ல்களைக் 104
ஸ்தர் 104
ாதிபதிய 104
ித்துள்ளார் 104
ெங்கும் 104
▁அடைக்கப்பட்ட 104
▁அமர் 104
▁அம்சங்களில் 104
▁அருணாச்சலப் 104
▁அலங்க 104
▁ஆச்ச 104
▁ஆண்டுகளை 104
▁இதழில் 104
▁உரம் 104
▁கடலோ 104
▁கட்டத்தை 104
▁காட்டுகின்றது 104
▁கிறிஸ்து 104
▁சல் 104
▁சிங்களப் 104
▁சிறும 104
▁சொற்கள் 104
▁ஜார்கண்ட் 104
▁டென்மார்க் 104
▁தன்னால் 104
▁தயாரிக்கிறது 104
▁தாரா 104
▁திரும்பத் 104
▁திரைப்படத் 104
▁திரையுலக 104
▁தொழிற்ப 104
▁தோற்க 104
▁நடப்பது 104
▁நவ் 104
▁நாமம் 104
▁நிகழ 104
▁படப்பிடிப்ப 104
▁பணிகளையும் 104
▁பண்பு 104
▁பயிலும் 104
▁பழங்கள் 104
▁பிணைய 104
▁போயிற்று 104
▁ருவா 104
▁வம்சாவளிய 104
▁வர்த்தகப் 104
▁விதித்த 104
▁வீட்டிற்கு 104
கமாக 103
ஞ்சம் 103
த்தைவிட 103
நாம் 103
நீக்க 103
ப்போக்க 103
முழுவதும் 103
ல்களுக்கும் 103
வர்களைப் 103
வாரா 103
ாடி 103
ொன்றை 103
்க்கும் 103
▁ஃபோ 103
▁அட்மிரல் 103
▁அமைப்புக்களை 103
▁ஆயிற்று 103
▁ஆழ்த்த 103
▁இசைவு 103
▁உடனடிய 103
▁உடைத்து 103
▁ஏற்படுத்தக் 103
▁ஏற்பாட்ட 103
▁ஒர் 103
▁ஒற்றுமையை 103
▁கட்டாயப்படுத்த 103
▁கண்காணிக்கும் 103
▁கருத்துப்படி 103
▁கார்கில் 103
▁குற்றவாளிகள் 103
▁கோர் 103
▁செந்தில் 103
▁செய்திக் 103
▁செல்க 103
▁ஜோர்டான் 103
▁டன்கள் 103
▁தந்தார் 103
▁தன்மையும் 103
▁நுகர்வு 103
▁நோயை 103
▁பச்சை 103
▁பணப் 103
▁பயிற்சியில் 103
▁பிரசுரிக்க 103
▁பெருந்தோட்ட 103
▁பொருளை 103
▁பொறிய 103
▁பொறியாளர்கள் 103
▁போடும் 103
▁மண்டலங்களில் 103
▁முகத்தில் 103
▁முக்கியத் 103
▁மூலை 103
▁மேக 103
▁லெப 103
▁வழங்கினர் 103
▁வாய்ப்பும் 103
▁விடுத்து 103
▁விளக்கும் 103
▁விவசாயப் 103
▁ஸ்கொட் 103
86 102
ஐஎஸ் 102
க்கப்படும் 102
க்டர் 102
ங்களிலேயே 102
டின் 102
ட்கள் 102
ணு 102
த்தட்ட 102
த்திலிருந்த 102
த்ம 102
பரி 102
பவை 102
பாத்தில் 102
பெட் 102
ப்பட்டதை 102
ப்பாட 102
ப்புகளும் 102
ப்பூரில் 102
ப்பைப் 102
முறைக்கு 102
மென்ற 102
வாள 102
ாடும் 102
ெள 102
ொள்கிறது 102
▁அநேகமாக 102
▁அபே 102
▁ஆயுர்வே 102
▁ஆஷா 102
▁உயரமான 102
▁உருவாக்கிக் 102
▁உறுதிபடுத்த 102
▁ஏஞ்சல்ஸ் 102
▁ஏழ்மை 102
▁கர்னல் 102
▁காசநோய் 102
▁காப்புரிமை 102
▁குடியுரிமை 102
▁சுற்றுப் 102
▁சேவைத் 102
▁தங்கும் 102
▁தடையின்றி 102
▁தளபதிகள் 102
▁தழுவ 102
▁திட்டமாக 102
▁துறைமுகத்தில் 102
▁தெள 102
▁தெளிவாகக் 102
▁தொழில்முறை 102
▁நிபந்தனைகள் 102
▁நீட்டிக்க 102
▁நேர்மறையான 102
▁பதன 102
▁பன்முகத் 102
▁பயன்படுத்தலாம் 102
▁பயோ 102
▁பாடலுக்கு 102
▁பான் 102
▁போர்வ 102
▁மனதை 102
▁மன்மோகன் 102
▁மறுத்துவிட்டார் 102
▁மற்றவர்களுக்கு 102
▁மீரா 102
▁மேற்குக் 102
▁யாருக்கும் 102
▁ரீதிய 102
▁லிருந்து 102
▁வியத்தகு 102
▁வெங்கட 102
▁வெல்ல 102
▁வேகமான 102
▁வேண்டியதில்லை 102
▁வோ 102
▁ஷூ 102
!! 101
குத 101
க்கும்போது 101
சப 101
சாலை 101
நிறுவன 101
னால 101
பார்க்க 101
பியின் 101
ப்பைத் 101
ருமே 101
ர்களுடைய 101
லாவில் 101
வாதக் 101
ொட்ட 101
▁அமைச்சின் 101
▁அலைவரிச 101
▁அவற்றைப் 101
▁இடத்துக்கு 101
▁இணைத்த 101
▁இதழ் 101
▁இமாச்சல 101
▁இலங்க 101
▁எல்லைப்புற 101
▁ஒழுங்கை 101
▁கணக்கிட 101
▁கல்லூரியின் 101
▁காண்பதற்கு 101
▁கான்ப 101
▁காலநிலை 101
▁குடியேறிய 101
▁குறிப்பில் 101
▁கொடுத்தான் 101
▁கொள்கைகளில் 101
▁சாராத 101
▁சிங்கப்பூ 101
▁சின்னம் 101
▁சூட்ட 101
▁சூழ்நிலைகளில் 101
▁சென்றிருந்த 101
▁செய்யப்படவில்லை 101
▁சொல்வத 101
▁தகுதியான 101
▁தரவரிசை 101
▁தளத்திற்கு 101
▁துரிதமாக 101
▁நகர்வு 101
▁நாவ 101
▁நிலையத்திற்கு 101
▁நீக்கப்பட்ட 101
▁நெச 101
▁பயனற்ற 101
▁பற்றியது 101
▁பெற்றிருக்கும் 101
▁போதன 101
▁மக்களவை 101
▁மனது 101
▁ரஷ்யாவில் 101
▁லோக 101
▁வசதிகளையும் 101
▁விஜே 101
▁வினா 101
அரசியல் 100
கம்ப 100
காப்பு 100
சுக்கு 100
த்தினருக்கு 100
ந்தைய 100
பாடும் 100
பியா 100
ப்பாது 100
ப்பிட்ட 100
வர்க்க 100
வாசிகள் 100
வியர் 100
வீத 100
ஸாக 100
ாட்டுத் 100
ாவுக்குப் 100
ிக்கா 100
ிருப்பதும் 100
ுவர 100
ொழில் 100
ோரும் 100
்ட் 100
▁அடைத்து 100
▁அனைத்திற்கும் 100
▁அமர்வில் 100
▁ஆகஸ்டு 100
▁இதற்கென 100
▁இறையாண்மை 100
▁இல்லத்தில் 100
▁உணவுக் 100
▁எல்லாவ 100
▁எழுதுகிறார் 100
▁ஒட்டிய 100
▁கலைக்க 100
▁கூட்டுத் 100
▁கூற்று 100
▁சந்தாதார 100
▁சுட்டிக்காட்டி 100
▁செய்வதற்க 100
▁சேனா 100
▁தரத்தில் 100
▁தருகின்ற 100
▁தானும் 100
▁தாமதம் 100
▁நகராட்சி 100
▁நீட்டிப்பு 100
▁பகுதிகளுக்கும் 100
▁படுக்கை 100
▁பரவிய 100
▁பலருக்கு 100
▁பிரசார 100
▁பிரதிநிதியாக 100
▁பிரமி 100
▁பிலிம்ஸ் 100
▁புதை 100
▁பூரண 100
▁பொருள்களின் 100
▁பொறுப்பே 100
▁போடு 100
▁போய்விட்டது 100
▁மீதமுள்ள 100
▁ராய 100
▁வகுக்கும் 100
▁வகைகளில் 100
▁வதந்த 100
▁வரிச 100
▁வரிய 100
▁வெடிக்க 100
1968 99
89 99
கப் 99
க்கிலும் 99
ங்களாகவே 99
ஜு 99
ஞர்கள் 99
டந்த 99
டிகளில் 99
த்தொழில் 99
ப்க 99
ப்போகிறது 99
மனை 99
மீக 99
முட்ட 99
மேன் 99
ம்பா 99
ர்வ் 99
லத்தின் 99
ள்ளி 99
வைக்கும் 99
ாக்குதல் 99
ாசி 99
ிருக்கும்போது 99
ீத 99
்களிலும் 99
▁அப்பாற்பட்ட 99
▁அழிக்கப்பட்ட 99
▁ஆதரவளிக்க 99
▁இயந்திரம் 99
▁இயை 99
▁உதவு 99
▁என்றோ 99
▁எவருக்கும் 99
▁ஒவ்வொன்றும் 99
▁கட்டுப்பாட்டின் 99
▁காங்கிரசின் 99
▁சம்மதி 99
▁சிலவற்றை 99
▁சுவர் 99
▁செலுத்துதல் 99
▁ஜப்பானில் 99
▁தனிநபர்கள் 99
▁தொற்றுநோய 99
▁நன்கொடை 99
▁நபர்களை 99
▁நாடுகளான 99
▁நாட்டிய 99
▁நோய்களை 99
▁பாட் 99
▁புத்தகத்தை 99
▁பூமியில் 99
▁பெருமையை 99
▁மின்ன 99
▁மிரு 99
▁முதற்ப 99
▁மைதானத்தில் 99
▁வந்தான் 99
▁வரவழை 99
▁வருடங்களில் 99
▁வீட 99
▁வெளிப்பட்ட 99
▁வேண்டியிருந்தது 99
88 98
எஸ்சி 98
ஐசி 98
க்கப்பட்டார் 98
சிக்கு 98
ச்சட்ட 98
ஞ்சீ 98
ட்ரோ 98
தனை 98
தார்த்த 98
த்திரி 98
நிதிய 98
நோய 98
னையை 98
ப்ட் 98
ப்பட்டதுடன் 98
ம்பர 98
ர்ச்சிய 98
வட 98
வனே 98
விலும் 98
வெளியில் 98
ாக்கள 98
ிகளோ 98
ிக்கப்படுகின்றன 98
ிவைத்து 98
ுறுதி 98
▁அதனைத் 98
▁அப்துல்லா 98
▁இறை 98
▁இவர்களுடைய 98
▁உண்டாக்கி 98
▁உதவியாளர் 98
▁உயர்த்திக் 98
▁எதிர்மறை 98
▁ஒப்படை 98
▁ஒழிக்க 98
▁கடற்ப 98
▁கட்டுவதற்கு 98
▁கல்வியாளர்கள் 98
▁காவல்துறையினர் 98
▁கூட்டி 98
▁கூறுகிறார்கள் 98
▁கையாண்டு 98
▁சாட்டினார் 98
▁சுருக்கமாக 98
▁செய்துவ 98
▁சொந்தமாக 98
▁சொற்றொட 98
▁தகவல்களைப் 98
▁தரவில்லை 98
▁திருவிழ 98
▁தெரியுமா 98
▁நிறைவடைந்த 98
▁நீக்கி 98
▁நெருங்க 98
▁நோக்கிச் 98
▁பகல் 98
▁பணிகளும் 98
▁பயிற்றுவ 98
▁பரம்ப 98
▁பாதிக்கப்படும் 98
▁பிரா 98
▁மகிழ் 98
▁மருத்துவச் 98
▁முதலீட்டில் 98
▁மையப் 98
▁ரஹ்மான் 98
▁வகித்து 98
▁வாய்வ 98
▁வால் 98
▁விடுதல 98
▁விளங்கிய 98
▁விழுமிய 98
▁வீசி 98
▁வீட்டின் 98
▁வேண்டுகோ 98
▁வைத்திருப்பத 98
▁வைத்திருப்பது 98
94 97
க்கூடியது 97
ட்டுமான 97
நெட் 97
னியும் 97
பவர்களாக 97
ப்பகுத 97
ப்பார்த்த 97
மையற்ற 97
ய்யா 97
ரகம் 97
ரத்தின் 97
ராவ் 97
ராஸ் 97
ழுத்த 97
ஸிற்கு 97
ஸ்கா 97
ஸ்த்த 97
ாடுகளை 97
ிண 97
ிவர 97
ுடன 97
▁அணிந்த 97
▁அயோ 97
▁அளப்ப 97
▁அழுக 97
▁அழைப்பின் 97
▁ஆட்சிக் 97
▁ஆணையாளர் 97
▁ஆதாயம் 97
▁ஆதிக்கத்தை 97
▁ஆனந்த் 97
▁ஆப்க 97
▁ஆஸ்திரேலியாவின் 97
▁இடம்பெய 97
▁இன்ப 97
▁இப் 97
▁இரண்டரை 97
▁உடன்படிக்கையில் 97
▁உண்மையாக 97
▁எத்தனால் 97
▁கடலின் 97
▁கட்டணங்கள் 97
▁காணவும் 97
▁காந்தியடிகளின் 97
▁குண்டுவெ 97
▁கொழ 97
▁சார்ந்து 97
▁சுமையை 97
▁செய்கின்ற 97
▁செய்கின்றது 97
▁செய்கின்றனர் 97
▁செய்வதும் 97
▁தரிசனம் 97
▁தீயணைப்பு 97
▁தொழில்களில் 97
▁தோற்றத்தை 97
▁நிழ 97
▁நீண்டகாலம் 97
▁நு 97
▁பட்டதார 97
▁பாபு 97
▁பெல்ஜிய 97
▁போட்டோ 97
▁மனப்பான் 97
▁ரிச்சர்ட் 97
▁வகுப்புகள் 97
▁வடக்கே 97
▁வணிகப் 97
▁வர்த்தகக் 97
▁வாக்குகளைப் 97
▁வித்த 97
▁வித்யா 97
▁விளைபொரு 97
▁ஹெக்ட 97
142 96
க்கூடியதாக 96
ங்கிற்கு 96
ச்செல்லும் 96
ட்டர்கள் 96
ண்டிய 96
த்தவர்கள் 96
னர்கள் 96
ப்படுத்தப்பட்டது 96
மல 96
மாக்கிய 96
மிட்டு 96
யோகம் 96
ருட 96
வராகவும் 96
விதமான 96
ிக்குக் 96
ிக்குரிய 96
ிப்பின் 96
ில்கள் 96
ுக்கிடையிலான 96
ொற்ற 96
ொல்ல 96
்கீழ் 96
▁அயர்லாந்து 96
▁அரு 96
▁அர் 96
▁அவ் 96
▁ஆறாவது 96
▁ஆளுந 96
▁இடத்திலும் 96
▁இதைவிட 96
▁இல்லாம 96
▁இவ்வாறான 96
▁எந்தச் 96
▁எல்லோருக்கும் 96
▁கடினம் 96
▁கட்டமைப்புகளை 96
▁கட்டுரையை 96
▁கருதப்பட்ட 96
▁கலைஞர் 96
▁கல்த 96
▁கார்கள் 96
▁கிரக 96
▁குடா 96
▁குடியே 96
▁குறைக்கப்பட்ட 96
▁கூற்றை 96
▁கேட்ஸ் 96
▁சட்டப் 96
▁சவுத் 96
▁சாமி 96
▁சேவைகளின் 96
▁தன்னிடம் 96
▁தற்செய 96
▁திங்கட்கிழமை 96
▁திருச்ச 96
▁தென்மேற்கு 96
▁தெரிவித்தன 96
▁நுழைவு 96
▁பணிபுரி 96
▁பாலி 96
▁பிணைப்பு 96
▁பின்னரே 96
▁புலம்ப 96
▁மறைவு 96
▁மாநகராட்சி 96
▁மாறுத 96
▁மிகை 96
▁மூட்ட 96
▁மென் 96
▁மெல்ல 96
▁ராக்கெட் 96
▁ராவ 96
▁வடக்க 96
▁வளர்வ 96
▁விஞ்ஞானி 96
▁விபர 96
▁விபரங்கள் 96
▁வீராங்க 96
▁வெல் 96
▁வைரச 96
▁ஸ்ட் 96
1956 95
96 95
உலக 95
சேஷ 95
ஜியா 95
டியது 95
த்துக்குள்ள 95
ந்தீ 95
பணிய 95
பாட்டை 95
பாதை 95
ப்பூ 95
மின 95
மைத்து 95
ல்வி 95
வதிலும் 95
ாக்கும் 95
ார்டு 95
ிக்கோ 95
ிப்பதன் 95
்தாம் 95
▁ஃபெ 95
▁அடங்க 95
▁அதிசய 95
▁அனுப்பியது 95
▁அமைதிப் 95
▁அறிமுகமான 95
▁ஆகி 95
▁இயற்கையான 95
▁இருந்தவர்கள் 95
▁உடல்நலம் 95
▁உற்பத்தியாளர் 95
▁எரிபொரு 95
▁கட்டமைப்பில் 95
▁கண்டம் 95
▁காட்சிப்படுத்த 95
▁கூறும்போது 95
▁சகோதரி 95
▁சங்கத்தில் 95
▁சமூகத்திற்கு 95
▁சரக்க 95
▁சுற்றிவ 95
▁சோதி 95
▁டெக் 95
▁நாடகம் 95
▁நிலையையும் 95
▁நுணுக்க 95
▁நோக்கத்தில் 95
▁பரந்து 95
▁பவன 95
▁பாத் 95
▁பாப 95
▁பிரச்சினையாக 95
▁பெய் 95
▁பெற்றிருக்கிறது 95
▁பொதி 95
▁மணிநேர 95
▁மணியளவில் 95
▁மறைமுகமாக 95
▁மாநகர 95
▁மாநிலங்களை 95
▁முதலமைச்சராக 95
▁முத்து 95
▁மோக 95
▁யூன 95
▁வாழ்க்கைக்கு 95
▁விரும்பாத 95
194 94
க்கமும் 94
க்களால் 94
ன்மிக்க 94
பலி 94
பின்னர் 94
ப்படுவதோடு 94
மக்கள் 94
மனித 94
மாக்கல் 94
ரன்ஸ் 94
றையில் 94
ற்றுவ 94
ழிப்ப 94
விடம் 94
வெளி 94
ிகளிலிருந்து 94
ிகளுக்குத் 94
ிகொண்ட 94
ிராஜ் 94
ேகன் 94
ொன்ற 94
்களால் 94
▁அதன்மூலம் 94
▁அறநெறி 94
▁அலைக்க 94
▁அவைகளில் 94
▁ஆபிரகாம் 94
▁உறுதிசெய்ய 94
▁உள்க 94
▁உள்ளட 94
▁எஸ்டேட் 94
▁ஒருங்கிணைக்கும் 94
▁கடற்பட 94
▁கிழக்கிலும் 94
▁குழுமம் 94
▁கூர்மையான 94
▁சம் 94
▁சரக்குகளை 94
▁சாந்த 94
▁சிகிச்சைப் 94
▁சிக்கல்கள் 94
▁சீரமை 94
▁சென்றபோது 94
▁செயற்படுத்த 94
▁செயலிய 94
▁சேதம் 94
▁தனு 94
▁நகரத்தை 94
▁நம்பிக்கையின் 94
▁நாளே 94
▁நிகழும் 94
▁பூகம்ப 94
▁பேசிக் 94
▁பொறுத்து 94
▁மரக்க 94
▁வருவார்கள் 94
▁வாட் 94
▁வார்த்தையை 94
▁விசாரணைகள் 94
▁விரும்பினார் 94
▁விழை 94
▁வேண்டுமானாலும் 94
கத் 93
க்கல 93
ங்கியது 93
செய 93
ச்சின 93
ச்சில் 93
டுகளிலும் 93
டுவதில்லை 93
ணத்தின் 93
தையடுத்து 93
ப்பழ 93
ப்பிட 93
ப்பூர்வமாக 93
ப்ள 93
ரசு 93
லாந்தில் 93
வாண 93
வியாக 93
ஸ்கார் 93
ுவதாகக் 93
▁அன்னிய 93
▁அம்சமாகும் 93
▁அரங்கம் 93
▁அறிவாற்றல் 93
▁ஆடியோ 93
▁இருத்த 93
▁உலகுக்கு 93
▁எண்ணி 93
▁ஒளிபர 93
▁கடல 93
▁கட்டளையிட்டார் 93
▁கத்தோலிக்க 93
▁காம 93
▁கிஷ 93
▁கீர்த்தி 93
▁குறியீட்டு 93
▁கொள்கின்றனர் 93
▁கொள்வோம் 93
▁கோவில 93
▁சந்திப்பில் 93
▁சார்புடைய 93
▁சித்தாந்த 93
▁சிலருக்கு 93
▁சீனாவை 93
▁சுமந்து 93
▁சூறையா 93
▁டர் 93
▁தளங்களில் 93
▁திருட்டு 93
▁தூண்டி 93
▁தெரிவிக்கப்பட்ட 93
▁தொன்மையான 93
▁நடத்தப்படுகிறது 93
▁நடமாடும் 93
▁நிமி 93
▁நிர்வாகத் 93
▁நிலத்தின் 93
▁நெறிமுறை 93
▁பதினைந்து 93
▁பவன் 93
▁பிரசுர 93
▁பிரான்சுவா 93
▁பிறப்பு 93
▁பேரு 93
▁மகாரா 93
▁மணிரத் 93
▁மண்டபத்தில் 93
▁மரபார்ந்த 93
▁மாநிலத் 93
▁மாவட்டங்களின் 93
▁முன்னுத 93
▁முயற்சித்த 93
▁லியோன் 93
▁லெப்டினன்ட் 93
▁வண்ட 93
▁வரலாற்றிலேயே 93
▁வழிவ 93
▁விட்டதாக 93
▁வித்யாலயா 93
▁விளக்கு 93
▁விவரித்த 93
▁வெறி 93
1979 92
க்காகவும் 92
ச்சன் 92
டியால் 92
டிவ் 92
டுவதும் 92
ட்சம் 92
ன்களும் 92
பிறகு 92
ப்பட்டுக் 92
ப்பர 92
மக 92
மதிப்பு 92
முகம் 92
றியும் 92
ல்களுக்கான 92
விட்டர் 92
ாவு 92
ிப்பான 92
ிப்புத் 92
்டின் 92
்தொ 92
▁அசை 92
▁அமைப்பிற்கு 92
▁அவுஸ்திரேலிய 92
▁அவையின் 92
▁ஆக்கிய 92
▁இட்ட 92
▁இளவரசர் 92
▁இழி 92
▁உப்பு 92
▁உயர்நிலைப் 92
▁எழுத்தறிவு 92
▁ஒருசில 92
▁கடிதத்தை 92
▁கட்டிடங்கள் 92
▁கண்களை 92
▁கதா 92
▁கமி 92
▁கமிட்ட 92
▁களைய 92
▁காரணமாகவும் 92
▁காவல 92
▁குற்றஞ்ச 92
▁குவாண்டம் 92
▁கையக 92
▁கைவினைப் 92
▁சந்தித்தது 92
▁சமூகச் 92
▁சேர்க்கை 92
▁தண்ணீர 92
▁தானாகவே 92
▁திட்டமானது 92
▁திணைக்களம் 92
▁தேவையில் 92
▁தோன்றி 92
▁தோல்வியுற்ற 92
▁நற்ப 92
▁நாணயம் 92
▁நெல் 92
▁படத்திலும் 92
▁பாட்னா 92
▁பார்வையி 92
▁பிரச 92
▁புழ 92
▁பொங்க 92
▁பொறுப்புகளை 92
▁மரம் 92
▁மலைவாழ் 92
▁மேலாளர் 92
▁மேல்த 92
▁யுரேனிய 92
▁ராக்க 92
▁வலியுறுத்தியது 92
▁வாகனங்களின் 92
▁விகிதங்கள் 92
▁வியாத 92
▁விலக்கிக் 92
ங்களினால் 91
ச்செய்ய 91
டங்க 91
டிக்கப்பட்ட 91
டுவர் 91
ணைப்பு 91
த்திடமிருந்து 91
த்துக்கொள்ளும் 91
த்துவதற்கு 91
நேரம் 91
மலை 91
லாளர் 91
ியலில் 91
ேடு 91
்தர 91
▁அங்கம் 91
▁அனுபவித்த 91
▁அருகிலுள்ள 91
▁அளவுகோ 91
▁அளிக்கின்றன 91
▁அவரைச் 91
▁அவர்களுக்கும் 91
▁அவளுக்கு 91
▁இதயம் 91
▁இந்தியாவிலேயே 91
▁இவைகள் 91
▁உடனுக்குடன் 91
▁உடலில் 91
▁உத்திகள் 91
▁உத்திய 91
▁எரிய 91
▁கண்டுபிடித்து 91
▁கலக்க 91
▁கல்யாண 91
▁காணப்படுகின்றன 91
▁காப்புறுதி 91
▁கிடைத்து 91
▁குடிவ 91
▁குடும்பங்களின் 91
▁குடும்பத்திற்கு 91
▁கொடுத்தல் 91
▁சட்டப்பூர்வ 91
▁சுரு 91
▁சூறாவளி 91
▁திருத்தி 91
▁தீர்ப்ப 91
▁நாளொன்றுக்கு 91
▁நிரூபித்த 91
▁நெறிமுறைகளை 91
▁பணிகளுக்காக 91
▁பணியாளர்களை 91
▁பன்ன 91
▁பறக்கும் 91
▁பலமாக 91
▁பழக 91
▁பிடித்துக் 91
▁பிணைக்க 91
▁பெற்றவர் 91
▁பொருளாக 91
▁போன்றது 91
▁போர்கள் 91
▁மதிப்பீட்டை 91
▁மர்ம 91
▁மற்றவர்கள 91
▁மாட்டாது 91
▁மோதி 91
▁யூகோஸ்லாவிய 91
▁வருமானத்தில் 91
▁வரைய 91
▁வழிப்ப 91
▁வெறிய 91
▁வேலைகளில் 91
கக் 90
க்கப்பட்டனர் 90
சியாவின் 90
செய்க 90
ஞ்சிய 90
டித் 90
ட்டது 90
தளம் 90
த்திற 90
நம்பிக்கை 90
நாயக 90
னியாவின் 90
படை 90
பார்த்து 90
பிள 90
ரங்கில் 90
ரிஸ் 90
ருக்கள் 90
ல்லாமல் 90
விருந்த 90
ஸ்கர் 90
ாமலேயே 90
ிருத்தல் 90
ுகொண்டார் 90
ுதியை 90
ும்படி 90
▁அடிப்படைத் 90
▁அமைக்கவும் 90
▁ஆந்திரப்பிரதேச 90
▁ஆய்வுக்கு 90
▁இடம்பெயர்ந்த 90
▁இத்துடன் 90
▁உயிர்களை 90
▁உழ 90
▁ஊடுருவ 90
▁எதிரே 90
▁எம்பி 90
▁ஏற்படவில்லை 90
▁ஒப்பிட 90
▁ஓரா 90
▁காட்டுவது 90
▁காய்கறிகள் 90
▁கொடுப்ப 90
▁சிக் 90
▁சிறுவர்கள் 90
▁சுத்தம் 90
▁சுற்றிய 90
▁செய்பவர்கள் 90
▁சேமிப்புக் 90
▁சேர்ந்தார் 90
▁சொல்க 90
▁சொல்வது 90
▁தனித்தனி 90
▁தம்ம 90
▁தலைநக 90
▁தாது 90
▁திபெத்திய 90
▁துன்புறுத்த 90
▁துறைகளை 90
▁துவார 90
▁தூர்தர் 90
▁தொற்றுநோய் 90
▁நன்ன 90
▁நம்பகமான 90
▁நாகரீ 90
▁நிறைவேற்று 90
▁நெருங்கி 90
▁பக்கத்து 90
▁பனி 90
▁பாடம் 90
▁பிக்க 90
▁புரட்சிய 90
▁மாதாந்திர 90
▁முகவ 90
▁முக்த 90
▁மையத்திற்கு 90
▁ராயல் 90
▁வணிகர்கள் 90
▁விட்டுச் 90
▁விஸ்வ 90
▁ஹெல் 90
க்கணக்கில் 89
ஜை 89
ண்டுகள் 89
திகளில் 89
தில 89
ந்தரி 89
ந்தால் 89
ன்படி 89
பாடாக 89
புறத்தில் 89
மிக் 89
மைகளின் 89
ரியர் 89
ருடனும் 89
ர்களிடமிருந்து 89
லாவின் 89
ளாய் 89
வனின் 89
ினைப் 89
ியுமான 89
ிள 89
ுகொள்ளும் 89
ேஷன் 89
ோருக்கான 89
– 89
• 89
▁அடிப்படைப் 89
▁அதைவிட 89
▁அமைச்சரான 89
▁அருக 89
▁அழிக்கும் 89
▁இருந்ததில்லை 89
▁இலங்கைக்கு 89
▁ஊர்வல 89
▁கட் 89
▁கவனிப்பு 89
▁கால்பந்து 89
▁கொச 89
▁கோரினார் 89
▁சகோதரன் 89
▁சாட்டப்பட்ட 89
▁சாத்தியக்கூற 89
▁சிறைச்சால 89
▁செயல்களில் 89
▁செய்யவேண்டிய 89
▁ஜால 89
▁தங்கப் 89
▁தன்னம்பிக்க 89
▁தவிர்க்கும் 89
▁தில 89
▁தெருக்க 89
▁தெற்கில் 89
▁தேனி 89
▁நகர்ந்து 89
▁நடப்ப 89
▁நாளாக 89
▁நிகழ்வை 89
▁பட்டயம் 89
▁பதிப்பில் 89
▁பதிப்பு 89
▁பாதாள 89
▁பாதுகாப்பதற்காக 89
▁பிளாஸ்ட 89
▁பீட 89
▁பூச்ச 89
▁பெறவேண்டும் 89
▁போன்றவற்ற 89
▁மனிதர்களின் 89
▁மும்ப 89
▁வசதிகளுடன் 89
▁வசிப்ப 89
▁வன்ம 89
▁வாய்ப்புள்ள 89
▁விடக் 89
▁விரிவா 89
▁விளம்பரம் 89
▁விளையாட்டை 89
▁வீசிய 89
▁வெளியேறி 89
1967 88
ஃபெ 88
சாய் 88
த்தினரும் 88
த்தொடர் 88
ப்படவும் 88
ப்பின்பு 88
மதிய 88
யாவின் 88
ய்ட 88
லியும் 88
ளத்தின் 88
வற்றின் 88
வுட 88
வைச் 88
ாக்களும் 88
ாரன் 88
ிட்டி 88
ிருப்பர் 88
ில்லியன் 88
ுகளுக்குப் 88
ுடை 88
ுன 88
்தே 88
▁அதற்குத் 88
▁அதிகமாய் 88
▁அநீ 88
▁அமர்ந்து 88
▁அறிஞர்கள் 88
▁அளவாக 88
▁இந்தியர்களுக்கு 88
▁இருப்பதற்கான 88
▁இலட்சக்கணக்கான 88
▁இழப்பை 88
▁ஈடுபாட்ட 88
▁உடுத்த 88
▁உதவிப் 88
▁உத்தம 88
▁உள்ளிட்டவை 88
▁கலாச்சாரத்தின் 88
▁காரணியாக 88
▁கிடைத்துள்ள 88
▁கொண்டாடப்படும் 88
▁கொள்கிறார் 88
▁சங்கிலி 88
▁சான 88
▁சாமுவேல் 88
▁சூட 88
▁சைக்கிள் 88
▁சொந்தக் 88
▁தகவல்களையும் 88
▁தங்கியிருந்த 88
▁தரப்படும் 88
▁தியேட்டர் 88
▁திரும்பக் 88
▁துணிவ 88
▁தோள 88
▁தோள் 88
▁நகரங்களின் 88
▁நடுப்பகுதியில் 88
▁நதிய 88
▁நாட்டிற்கும் 88
▁நிமிடங்கள் 88
▁நிரூபிக்க 88
▁நீர்த்தேக்க 88
▁பதிவே 88
▁பாதுகாப்பற்ற 88
▁பார்க்கலாம் 88
▁பார்ப்பது 88
▁பிரபுக்கள் 88
▁பிரார்த்தனை 88
▁பிரிவுகளும் 88
▁புகைப்படங்கள் 88
▁புரித 88
▁போர்த்த 88
▁மகிழ்ச்சியுடன் 88
▁மக்களவைத் 88
▁மாவட்டத்தின் 88
▁மின்னஞ்ச 88
▁மீதிய 88
▁மீன்பிடி 88
▁மேரி 88
▁யாத்திர 88
▁யே 88
▁வடிவிலான 88
▁வளைகுட 88
▁வாரத்திற்கு 88
▁விரும்பி 88
911 87
கவ 87
ங்கிப் 87
சிஸ் 87
ட்டுக்கு 87
தானே 87
தாரம் 87
த்தேன் 87
னவாக 87
பொருளாதார 87
ப்பற்றிய 87
முற்ற 87
ம்ப் 87
லியில் 87
ல்களைப் 87
ல்துறை 87
விமான 87
ிக்காட்ட 87
ிடமிருந்தும் 87
ித்துச் 87
ையாடி 87
▁ஃ 87
▁அடைவது 87
▁அனுபவித்து 87
▁ஆண்டிற்குள் 87
▁ஆர்யா 87
▁இன்டர் 87
▁இருக்கக்கூடும் 87
▁இறையா 87
▁உடையது 87
▁உடையவர்கள் 87
▁உற்பத்திக்கு 87
▁ஊடகங்களின் 87
▁எஞ்சியுள்ள 87
▁எதுவு 87
▁ஒன்றைக் 87
▁ஒருமைப்பாடு 87
▁கட்டமைப்பின் 87
▁கருதப்பட்டது 87
▁கவர்ச்சி 87
▁காரணத்தை 87
▁காலணி 87
▁குட்ட 87
▁குருதி 87
▁குறியீ 87
▁கூடு 87
▁கைகோ 87
▁கொண்டாலும் 87
▁க்க 87
▁சாப 87
▁சூழ்நிலைகள் 87
▁செல்லும்போது 87
▁செவி 87
▁சேமித்து 87
▁தமிழாக்கம் 87
▁தயாரிக்கப்பட்டு 87
▁தீமை 87
▁நீர்மின் 87
▁நெறிப்படுத்த 87
▁நேர்ந்த 87
▁பகிர்ந்துகொள்ள 87
▁பங்களாதே 87
▁பசி 87
▁பட்டின 87
▁பள்ளியின் 87
▁பாதிக்கப்பட்டு 87
▁புகலிடம் 87
▁பூட்ட 87
▁பெறுகின்றன 87
▁பெற்றுள்ளார் 87
▁போட்டித் 87
▁மதிப்பி 87
▁மறுப்பு 87
▁முதலிடம் 87
▁முன்னறிவ 87
▁முர 87
▁முறையீடு 87
▁முழுமைய 87
▁மூடு 87
▁வன் 87
▁வரைக்கும் 87
▁வாய்ப்புள்ளது 87
▁விதிகளின் 87
▁வைக்கிறது 87
▁ஸ்ட்ரீ 87
1988 86
ச்சார்பற்ற 86
த்தரம் 86
த்தெ 86
னியர் 86
ன்னு 86
ன்பட்ட 86
பிடித்து 86
பிலி 86
ப்பாளர்கள் 86
மத் 86
முடன் 86
ம்பேர் 86
லியின் 86
வரைவு 86
வாவின் 86
வேளை 86
வோன் 86
ஷ்கர் 86
ஷ்டி 86
ிடை 86
ினைக் 86
ிராம் 86
ுக்குள்ளும் 86
ையுடைய 86
்சின் 86
▁அரசில் 86
▁அழுத்தத்தின் 86
▁ஆளாக 86
▁ஆளுக 86
▁இரவும் 86
▁உறவின் 86
▁உறவில் 86
▁எண்ணிக்கையும் 86
▁எதிரி 86
▁எருசலேமில் 86
▁எழும் 86
▁ஒன்றுக்கொன்று 86
▁கட்சிகளில் 86
▁கண்ணோட்டத்தில் 86
▁கலாம் 86
▁காம் 86
▁குத்துவ 86
▁குளிர 86
▁குழந்தைகளுக்கான 86
▁கோல 86
▁சட்டத் 86
▁செப்டெம்பர் 86
▁சேர்ந்தது 86
▁சொல்லிக் 86
▁ஜெட் 86
▁திறனும் 86
▁தொடர்ச்ச 86
▁தோட்டக்கலை 86
▁நாட்டைப் 86
▁நிறுவப்பட்டது 86
▁படித்து 86
▁படையெடுத்த 86
▁பயமுறுத்த 86
▁பரு 86
▁பழங்கால 86
▁பவுண்ட 86
▁பாசி 86
▁பாதிப்புகளை 86
▁பாதிப்புகள் 86
▁பிரதிபலிப்ப 86
▁புட 86
▁பெயரால் 86
▁பெருநகர 86
▁பெல்ஜியம் 86
▁மக்களைப் 86
▁மட்டக்களப்பு 86
▁யாருக்கு 86
▁யூரே 86
▁வரப்பட்ட 86
▁வாக 86
▁வாய்ப்புக்கள் 86
▁வேற்று 86
▁வைத்தல் 86
135 85
எம்எஸ் 85
ங்கட 85
சமாக 85
சாய 85
ச்சிய 85
பற்றிய 85
புதிய 85
ப்பானது 85
யார 85
ரிம 85
ற்றுக்கு 85
லூ 85
ல்கா 85
வண்ண 85
வய 85
வினால் 85
ஷோ 85
ஸ்டி 85
ாதீர்கள் 85
ிகரமான 85
ிச்ச 85
ிதம் 85
ிப்பதற்க 85
ிரியை 85
ிவாக 85
ிஸ்ட 85
ுகளோடு 85
ுக்குள்ளேயே 85
ுரை 85
ூரு 85
ைக்குரிய 85
ையடுத்து 85
▁அணுகும 85
▁ஆரோக்கியமாக 85
▁ஆற்றின் 85
▁இப்பிராந்திய 85
▁இயற்றிய 85
▁இயலவில்லை 85
▁இரண்டையும் 85
▁இரத்தக்க 85
▁உகாண்டா 85
▁எதிர்நோக்க 85
▁எழுதும் 85
▁எவ்வாறாயினும் 85
▁ஏவுகண 85
▁கர்ப்பி 85
▁கழிவுகள் 85
▁கூறின 85
▁கொடுமை 85
▁கொண்டிருப்பதால் 85
▁சமமாக 85
▁சிறுத 85
▁சிறுவர் 85
▁ஜோஷி 85
▁தனியான 85
▁தரித்த 85
▁தளவாடங்கள் 85
▁தாக்கப்பட்ட 85
▁திகழ 85
▁திருப்பிக் 85
▁திரைக்கு 85
▁தொடர்ந்தது 85
▁தொடர்ந்தார் 85
▁நீட்டி 85
▁பணிபுரிந்த 85
▁பாதுகாத்தல் 85
▁பாரதிராஜா 85
▁பின்பற்றும் 85
▁புரோ 85
▁புள்ள 85
▁ப்ள 85
▁மண்டலத்தின் 85
▁மறுத்தார் 85
▁மாறு 85
▁மாலையில் 85
▁முயலும் 85
▁முழுப் 85
▁மேற்கண்ட 85
▁யாவும் 85
▁யூனி 85
▁வத 85
▁வராது 85
▁வளைய 85
▁விடுபட்ட 85
▁விண்கல 85
▁வியட்நாம 85
▁வெனி 85
▁வெளியீ 85
▁வெளியீட்ட 85
▁வேண்டுகோளை 85
1972 84
1981 84
1982 84
சாரம் 84
ச்சுவ 84
டுக்கும் 84
டையச் 84
ட்சியும் 84
ந்துகொள்ள 84
முடியாமல் 84
முண்டு 84
மையினால் 84
மொழி 84
ருகே 84
ளைக் 84
வாயு 84
வீதம் 84
வையின் 84
ஷெ 84
ாவுக்கான 84
ிகி 84
ிலட 84
ில்லாமல் 84
ிழா 84
ுகளே 84
ுவிட்டால் 84
ேஸ் 84
ைகளாலும் 84
ைகோ 84
ொடர் 84
ொள்கின்றனர் 84
ொழில 84
்களுடன் 84
்துறையின் 84
▁அசோ 84
▁அஹ் 84
▁ஆபிர 84
▁ஆப்பிரிக்காவில் 84
▁ஆஸ்கார் 84
▁இக் 84
▁இந்தோனேசியா 84
▁இலத்தீன் 84
▁இல்லாவிட்டால் 84
▁உட்கார்ந்து 84
▁உயர்தர 84
▁ஓடும் 84
▁கடைகள் 84
▁கண்களில் 84
▁கத்தார் 84
▁கப்பல்களை 84
▁குடிமகன் 84
▁குலை 84
▁கைக்கு 84
▁கொள்ளப்பட 84
▁கோவிந்த 84
▁சங்கீத 84
▁சந்தைப் 84
▁சிறப்பம்ச 84
▁சீனப் 84
▁சீரமைக்க 84
▁செயல்திற 84
▁சோனியா 84
▁டச்சு 84
▁தடுத்தல் 84
▁தனித்தன்மை 84
▁தருக 84
▁தலையில் 84
▁தேன் 84
▁நகர்வ 84
▁நதியின் 84
▁நிகழ்வுகளில் 84
▁நிக்கோபார் 84
▁நிலையின் 84
▁நுகர்வோ 84
▁நேரடித் 84
▁பகத 84
▁பக் 84
▁பதின 84
▁பயந்த 84
▁பரிசோதி 84
▁பிகார் 84
▁பின்பற்று 84
▁புகைப்படம் 84
▁பூட்டான் 84
▁பொதுப்பண 84
▁பொழுதுபோக்கு 84
▁ப்ரீ 84
▁மதிப்பீடுகளை 84
▁மதியம் 84
▁மனநல 84
▁மறுபுறம் 84
▁மார 84
▁மாறுதல் 84
▁முப்ப 84
▁ரக் 84
▁வசூலிக்க 84
▁வாங்கு 84
▁விளக்குகள் 84
▁வைக்கப்பட்டு 84
த்திற்கே 83
னாவ 83
னியை 83
னேன் 83
பர்ட் 83
ப்பாள 83
மாட்டார் 83
மென்ட் 83
மெல்லாம் 83
மையாகக் 83
ராச 83
ராள 83
ற்றதாக 83
வதாகும் 83
வரிடமும் 83
ஸன் 83
ாய்வ 83
ிக்கொண்டிருந்த 83
▁அடிமட்ட 83
▁அணியின் 83
▁அதையும் 83
▁அனுப்பினார் 83
▁அன்றாடம் 83
▁அறிவித்தனர் 83
▁ஆஸ்திரேலியாவில் 83
▁இசையில் 83
▁இதன 83
▁இதேபோல 83
▁உடல 83
▁எதிரிகள் 83
▁எய 83
▁காரணங்களை 83
▁கார்டியன் 83
▁காலாண்டு 83
▁கீழும் 83
▁குடிசை 83
▁குடியேற 83
▁கேலி 83
▁கைதுசெய்ய 83
▁கொண்டாட்டம் 83
▁சல 83
▁சித்திரவத 83
▁சிரு 83
▁தண்டிக்க 83
▁தத்துவம் 83
▁தலைநகர 83
▁தவறாகப் 83
▁நாட்டையும் 83
▁நியூசிலாந்து 83
▁நிறுத்தத்தில் 83
▁நெறி 83
▁பட்டிய 83
▁பன் 83
▁பரத் 83
▁பெருமைக்குரிய 83
▁போதைப்பொருள் 83
▁போரைத் 83
▁போர்க்கால 83
▁மட்டுப்படுத்த 83
▁மாட்டேன் 83
▁மாலும 83
▁மிசோரம் 83
▁முகர்ஜி 83
▁முன்பாகவே 83
▁முன்மாதிரி 83
▁முறையாகும் 83
▁மையக் 83
▁வந்தே 83
▁வன்முறைகள் 83
▁வளர்ச்சிக் 83
▁வழிவகுக்க 83
▁வான்வழி 83
▁விலக்கி 83
▁விழுந்தது 83
▁வென்று 83
ஆய 82
கிர 82
க்கிங் 82
சியும் 82
ச்செல்ல 82
டனின் 82
தைக்கு 82
த்தர் 82
நோய் 82
பசிபிக் 82
பார்த்த 82
ப்ர 82
மலே 82
முள்ளது 82
ம்பாப்வே 82
ராப் 82
ரூப 82
லக் 82
லோன் 82
விலிருந்து 82
ாவிடில் 82
ியாகப் 82
ிருக்கக்கூடும் 82
ூறிய 82
்தல் 82
▁அகற்றப்பட்ட 82
▁அணிந்து 82
▁அதற்குச் 82
▁அதற்கேற்ப 82
▁அமைச்சரவையில் 82
▁அலைவரிசை 82
▁அளவும் 82
▁அழைத்துவ 82
▁அவையில் 82
▁ஆசிரியர்களும் 82
▁ஆண்டாக 82
▁ஆபிரிக்கா 82
▁ஆய்வறிக்க 82
▁இடத்திலிருந்து 82
▁இடைவெளியில் 82
▁இணைப்புத் 82
▁இனிமேல் 82
▁இயல்பாக 82
▁இருவருமே 82
▁இருவரையும் 82
▁இலாபத்தை 82
▁இவைகளை 82
▁இவ்விட 82
▁ஈடுபட்டிருந்த 82
▁உரிமைகளையும் 82
▁உருவாக்கப்பட 82
▁உறுதுணையாக 82
▁உள்ளதால் 82
▁என்பவன் 82
▁எப்போ 82
▁ஏற்றுக்கொண்டு 82
▁கடக்க 82
▁கட்டுக்க 82
▁காலப்பகுதியில் 82
▁கிடைக்கப் 82
▁கில 82
▁குடிக்க 82
▁கூட்டாண்மை 82
▁கொரில்லா 82
▁கொள்ளக் 82
▁கோழ 82
▁சந்தோஷ் 82
▁சாப்பிட 82
▁சித்தரி 82
▁சிவாஜ 82
▁செய்யும்போது 82
▁சொற்ப 82
▁ஜாம்ப 82
▁தயங்க 82
▁தலைநகரில் 82
▁திறனில் 82
▁துவக்கத்தில் 82
▁தொடர்பும் 82
▁தொழிநுட்ப 82
▁நாட்களை 82
▁நிலையங்களின் 82
▁நீச்சல் 82
▁பயணிக்கும் 82
▁பல்வகை 82
▁பழக்கம் 82
▁பிரிவைச் 82
▁பிளாக் 82
▁புத்தா 82
▁பூஜா 82
▁போக்கும் 82
▁போதனைகள் 82
▁போன்றவர்கள் 82
▁போரிட 82
▁முஸ்லிம்கள் 82
▁மேலாள 82
▁ராஜேஷ் 82
▁ரிச்சார்ட் 82
▁வகுப்பினர் 82
▁வடமேற்கு 82
▁வழக்கறிஞ 82
▁விசை 82
▁விதைகள் 82
▁வியட்நாமில் 82
▁விளையாட்டில் 82
▁வெளிப்பட்டது 82
▁வைத்துக்கொள்ள 82
▁வைப்பதற்கு 82
1949 81
என்ப 81
கித 81
கெ 81
க்கின்றன 81
சபை 81
செல் 81
டுகின்றது 81
த்திலிருந்தே 81
த்துக்குரிய 81
ன்பு 81
பாரி 81
புத் 81
புறம் 81
மாகிறது 81
மேயானால் 81
மையாகும் 81
ம்பட்ட 81
யோக 81
ரவி 81
ரிச 81
ருகின்றனர் 81
ளிப்பது 81
ளிய 81
ழ்ந்த 81
வதைத் 81
விற்கும் 81
வோரின் 81
ஷனின் 81
ாளம் 81
ிப்பும் 81
ிருக்காது 81
ிற்காகவும் 81
ுக்கிய 81
்துறையில் 81
▁அடுத்தடுத்து 81
▁அணியில் 81
▁அனுபவிக்க 81
▁அமைப்புடன் 81
▁அலுவல் 81
▁ஆசிரியர்களுக்கு 81
▁ஆண்டுவ 81
▁இடம்பெற்றது 81
▁இத்திட்டத்தில் 81
▁இனத்த 81
▁இப்போதுள்ள 81
▁இயற்கைப் 81
▁இயற்றப்பட்ட 81
▁கற்பித்தல் 81
▁கல்லற 81
▁காணப்பட 81
▁கிம் 81
▁கிராமங்களை 81
▁குறைகளை 81
▁கூறலாம் 81
▁கேப்டன் 81
▁சார்பற்ற 81
▁சித 81
▁சுற்றுலாத்துறை 81
▁செல்லவும் 81
▁ஜெர்மன் 81
▁தன்மையின் 81
▁தற்காப்பு 81
▁தால 81
▁திரைய 81
▁துறைமுகங்களில் 81
▁தேனீ 81
▁நன்கொடைய 81
▁நம்பிக்கையும் 81
▁நம்புகின்றனர் 81
▁நினைவூட்ட 81
▁நிறுவனத்தால் 81
▁நேபாளத்தில் 81
▁பயணித்த 81
▁பரிணாம 81
▁பலதரப்பட்ட 81
▁பார்த்திபன் 81
▁பின்னணிய 81
▁பிரெஞ்ச 81
▁புத்தாண்ட 81
▁பொம்மை 81
▁பொருட்களையும் 81
▁பொறுப்பேற்க 81
▁மீதி 81
▁முக்கியமானவை 81
▁முதலான 81
▁முன்னின்று 81
▁முரளி 81
▁மோட்டார்ஸ் 81
▁ரசிகர் 81
▁விசாக 81
▁வித்தியாசம் 81
▁வியாபாரிகள் 81
1964 80
ங்களிலே 80
ஜக் 80
தக 80
த்தியும் 80
ந்திரிய 80
னிக்கு 80
பாவ 80
ப்ஸ் 80
மாவை 80
மியின் 80
மெண்ட் 80
மைகளுக்கு 80
யமான 80
ரிமை 80
ருகின்ற 80
ர்களாகவும் 80
ற்றுக் 80
வையில் 80
ாங்க் 80
ாயின 80
ாயும் 80
ாய்க் 80
ாளர்களான 80
ிகாரம் 80
ுவந்து 80
ேப் 80
ேயர் 80
ைகளோ 80
ொல் 80
்ய 80
▁ஆண்டுகள 80
▁ஆராய்ச்சியில் 80
▁ஆறுதல் 80
▁ஆளில் 80
▁இப்படியான 80
▁இருந்திருக்க 80
▁இலக்கிய 80
▁உருக்கு 80
▁எறிந்து 80
▁ஏற்றிச் 80
▁ஐந்தாம் 80
▁கச்ச 80
▁கற 80
▁காய்ச்ச 80
▁காற்றாலை 80
▁கிடக்கும் 80
▁குறிப்பிடத் 80
▁குறுக்கே 80
▁குழுமத்தின் 80
▁கென் 80
▁கொய் 80
▁கோரியது 80
▁கோவிலில் 80
▁சந்தைக்கு 80
▁சந்தைப்படுத்த 80
▁சர்க்க 80
▁சார்பான 80
▁சிக்கிய 80
▁சிந்தனைய 80
▁சுயாட்சி 80
▁செய்வார் 80
▁சொத்துரிமை 80
▁டாக 80
▁டிகிரி 80
▁திரண்டு 80
▁திறந்துவை 80
▁திறப்பு 80
▁துட 80
▁தெரியவந்தது 80
▁தெற்க 80
▁தெளிவற்ற 80
▁தேசபக்த 80
▁தேவைகளையும் 80
▁தேஷ் 80
▁நடனம் 80
▁நடைபெறுகின்றன 80
▁நரக 80
▁நிர்வாகப் 80
▁நிறுவனத்துக்கு 80
▁நீரின் 80
▁பங்குதாரர்கள் 80
▁பாகிஸ்தானிய 80
▁பாய்ச்ச 80
▁பார்ப்ப 80
▁பின்த 80
▁புவனே 80
▁மறியல் 80
▁மாத்திரம் 80
▁மாநாடுகள் 80
▁மாநிலங்களவை 80
▁முதன்மைச் 80
▁முன்மொழி 80
▁முயன்றார் 80
▁முழுவதுமாக 80
▁மெக் 80
▁மொழிகளிலும் 80
▁ரணில் 80
▁ரத் 80
▁வகுப்பில் 80
▁வகைய 80
▁விதிக்கப்படும் 80
▁வீதி 80
▁ஹாக்கி 80
காலம் 79
க்களுடன் 79
ங்களுள் 79
ங்கின 79
சாம 79
சிசி 79
டாது 79
ட்டான் 79
தென்றும் 79
னமாக 79
னுக்குச் 79
பக்க 79
பங்க 79
படியாக 79
பிள்ள 79
போர் 79
ப்பட்டவர் 79
மையோடு 79
ய்ந்த 79
ராவின் 79
ர்ட்டில் 79
லியா 79
வலை 79
ஷியல் 79
ிடையேயான 79
ிலிருக்கும் 79
ீட்டுத் 79
ீது 79
ுகு 79
ோகன் 79
▁அணிவ 79
▁அதிகரிப்பதற்கு 79
▁அனுப்பப்படும் 79
▁அமைந்திருக்கும் 79
▁அழிவை 79
▁ஆச்சார் 79
▁ஆதரவளிக்கும் 79
▁ஆதரவில் 79
▁ஆற்றும் 79
▁இங்கிலாந்தில் 79
▁இயல்பாகவே 79
▁இருக 79
▁இறுக்க 79
▁உத்திகளை 79
▁எம்ப 79
▁ஐந்தில் 79
▁ஓட்டம் 79
▁கத்த 79
▁கனவுகள் 79
▁காத்து 79
▁கொல்லப்பட்டார் 79
▁கொள்கைகளையும் 79
▁சாதனங்களை 79
▁சாம் 79
▁சிங்களம் 79
▁சேவைகளுக்கு 79
▁சொட்டு 79
▁ஜாதி 79
▁திரட்டி 79
▁நடித்துள்ளார் 79
▁நீளம் 79
▁நுண்ணறிவ 79
▁நேர்ந்தது 79
▁பகதூர் 79
▁படைகளும் 79
▁பணியமர்த்த 79
▁பதவிகளை 79
▁பயன்படுத்தியது 79
▁பலி 79
▁பாம் 79
▁பால்க 79
▁புத்தரின் 79
▁புறம்ப 79
▁பெட்டிகளில் 79
▁பெறுவ 79
▁பொருத்தமாக 79
▁மணிப்ப 79
▁மறுவா 79
▁மாறியது 79
▁மிகக்குறைந்த 79
▁யுவ 79
▁ராதா 79
▁வாக்கெடுப்பில் 79
▁வாரியாக 79
▁விக்ர 79
▁விடயம் 79
▁வில்லன் 79
▁வீச்சு 79
1987 78
அப் 78
கன 78
ங்காவ 78
ங்கில 78
சமூக 78
சினி 78
ணியாக 78
திட்ட 78
னன் 78
னையையும் 78
பும் 78
போடு 78
போஸ் 78
ப்படுபவை 78
ப்புகளுக்கு 78
மடையும் 78
ராகப் 78
லரின் 78
லுக்க 78
ள்கள் 78
ஷ்வா 78
ஸ்டோ 78
ஸ்து 78
ாஜி 78
ாதவர்கள் 78
ிச 78
ிப்பதுடன் 78
ீத் 78
ையின்றி 78
▁அடிப்படையில 78
▁அடையாளங்கள் 78
▁அதன்பின் 78
▁அதிகாரபூர்வமாக 78
▁அந்ந 78
▁அப்பம் 78
▁அமைப்புகளுடன் 78
▁அரசுகள 78
▁அலைய 78
▁அழுது 78
▁ஆக்கும் 78
▁ஆட்சிக்க 78
▁இடையூறு 78
▁இருந்திருக்கும் 78
▁இல்லாது 78
▁ஈடுபட்டுள்ளனர் 78
▁உறுப்பினர்களில் 78
▁உற்பத்திச் 78
▁ஊழலுக்கு 78
▁எதிர்ப்புப் 78
▁எரிபொருள 78
▁எறிய 78
▁ஏவுகணைகள் 78
▁ஐந்தாண்டு 78
▁ஒத்தி 78
▁கண்ம 78
▁கலந்துகொள் 78
▁காண் 78
▁கோட்பாடு 78
▁சூரத் 78
▁செய்யக்கூடிய 78
▁ஜன்ன 78
▁ஜவஹர்லால் 78
▁டெல் 78
▁தனித்தனியாக 78
▁தனித்து 78
▁தலைமைக் 78
▁திணைக்கள 78
▁தீர்க்கும் 78
▁தூய 78
▁தொகைகள் 78
▁தொழிலதிபர்கள் 78
▁நன்மைகள் 78
▁நாடுகளுக்கிடையே 78
▁நினைவக 78
▁நினைவாக 78
▁நிறுத்திக் 78
▁நிறுவனங்களையும் 78
▁நூலை 78
▁பங்குபற்ற 78
▁பணியாற்றினார் 78
▁பத்திரிக்கை 78
▁பரந்துபட்ட 78
▁பறவ 78
▁பாகுபாடு 78
▁பாதிப்புக்கு 78
▁பார்த்தார் 78
▁பின்வா 78
▁பிரகாசமான 78
▁புரட்சிகரமான 78
▁புறக்கணிக்க 78
▁புலம்பெயர் 78
▁பெருமைய 78
▁பேரரசு 78
▁பொருந்த 78
▁போபால் 78
▁மக்கள்தொகை 78
▁மண்டப 78
▁மனப்பான்மை 78
▁மரங்கள் 78
▁மறுஆ 78
▁மாற்றப்படும் 78
▁மின்னணுவியல் 78
▁முரண்பாடு 78
▁முழுத் 78
▁வணிகத் 78
▁விதிமுறை 78
▁விளிம்பு 78
▁விளையாட்டுக்கள் 78
▁விளையும் 78
▁வேண்டுமென்றால் 78
▁ஸ்பெ 78
1978 77
79 77
அரச 77
இஸ் 77
க்கிழ 77
ஞ்சலி 77
டுக்கி 77
ட்சிக்கு 77
ணத்தை 77
தற்குக் 77
தளத்தில் 77
த்துகள் 77
த்துள்ளார் 77
நாய 77
னாவில் 77
பட்டது 77
புர் 77
ப்பாகும் 77
முறைகளை 77
யாகும் 77
ரின 77
ரியோ 77
ரோவின் 77
ர்ந்தது 77
றல் 77
ல்களுடன் 77
ழகம் 77
வரோ 77
வாஸ் 77
விளை 77
ாந்த் 77
ாயுத 77
ுப்ப 77
ுறும் 77
ைகளுக்குள் 77
ையாகத் 77
்கே 77
்டன் 77
▁அசோக் 77
▁அதிகரிக்கிறது 77
▁அமைத்தது 77
▁அமைப்புச் 77
▁அவசியமானது 77
▁ஆகியவற்றிலும் 77
▁ஆன்ம 77
▁ஆர்டி 77
▁இடங்கள 77
▁இனை 77
▁இருவருக்கும் 77
▁உரிமையாளர் 77
▁உள்ளாக 77
▁உள்ளூராட்சி 77
▁எதிர்நோ 77
▁ஏபி 77
▁ஏற்படாமல் 77
▁ஐபி 77
▁ஒலிபர 77
▁ஒளிப்பதிவாளர் 77
▁கான்பூர் 77
▁கும்பல் 77
▁குருக 77
▁குறிக்க 77
▁கைவிடப்பட்ட 77
▁கோப்பை 77
▁கோரக் 77
▁சவூதி 77
▁சாஸ்திரி 77
▁சிங்களத் 77
▁செயல்கள 77
▁செல்வதற்காக 77
▁செவ்வாய்க்கிழமை 77
▁சேகர் 77
▁சேவையின் 77
▁தடவை 77
▁தாக்கு 77
▁துப்பாக்கிச் 77
▁துர்கா 77
▁தூய்மைப்படுத்த 77
▁தேடும் 77
▁தொடர்க 77
▁தொழிலுக்கு 77
▁தோற்கடிக்க 77
▁நட்சத்திரங்கள் 77
▁நாகாலாந்து 77
▁நாட்டிலேயே 77
▁பட்டப்படிப்பு 77
▁பழிவாங்க 77
▁பழுத 77
▁பாதிப்புக்குள்ள 77
▁புகுந்து 77
▁புத்தகங்கள் 77
▁புரிதல் 77
▁புல்ல 77
▁பெற்றுத் 77
▁பேரவை 77
▁பேரின் 77
▁பொறுப்பேற்றார் 77
▁போன் 77
▁மகிழ்ச்சியான 77
▁மற்றவை 77
▁வந்துள்ளார் 77
▁வாக்குறுதி 77
▁வாழ்கின்றனர் 77
▁விக்ரம 77
▁விதைக்க 77
▁விளங்கியது 77
▁வெயில் 77
▁வெளிப்படும் 77
▁வேறுபாடுகள 77
▁ஸ்டேட் 77
▁ஸ்வா 77
காலத்தில் 76
க்கெ 76
ங்காக 76
சக் 76
சாவில் 76
சிப்ப 76
சென் 76
சென்ற 76
சேர் 76
ண்டையில் 76
நாயக் 76
படியான 76
ப்பக 76
மயம் 76
மாவின் 76
மொழிகள் 76
ரையின் 76
ர்களிலும் 76
லாய் 76
வாயில் 76
வையாகவும் 76
ஸ்பர்க் 76
ஸ்லோ 76
ஹர் 76
ார்களா 76
ாலில் 76
ாவிட 76
ித்தின் 76
ித்தோ 76
ிருப்பதைக் 76
ீனம் 76
ுடையதாக 76
ேற்றம் 76
ைக்கொண்டு 76
ையாகப் 76
▁அசைக்க 76
▁அடைவதற்காக 76
▁அண்ணன் 76
▁அதிகபட்சமாக 76
▁அமைச்சரும் 76
▁அம்சங்களையும் 76
▁அறக்கட்ட 76
▁அறிகுறி 76
▁ஆகக் 76
▁ஆகியவையே 76
▁ஆய்வுகளை 76
▁ஆரவார 76
▁ஆலோ 76
▁இணைந்துள்ள 76
▁இருந்துள்ளது 76
▁இவற்றுடன் 76
▁உபரி 76
▁உரத்த 76
▁உள்ளுர் 76
▁என்க 76
▁எழுப்பும் 76
▁ஓய் 76
▁ஓல் 76
▁கருணாநிதி 76
▁கருத்தரங்குகள் 76
▁கற்றுக்கொள்ள 76
▁கல்விக்கு 76
▁காட்டப்பட்டது 76
▁காதல 76
▁காப்பாற்றும் 76
▁காலக் 76
▁கிளர்ச்சிய 76
▁கேள்விய 76
▁கைகள் 76
▁சங்கர் 76
▁சத்தியாக 76
▁சுட்டு 76
▁செயற்றிட்ட 76
▁டைரக 76
▁தடம் 76
▁தரவுகள் 76
▁தலைமைத்துவ 76
▁தொகுப்பின் 76
▁தொழிலதிப 76
▁நாகரிக 76
▁நாட்டுப் 76
▁நினைக்கும் 76
▁நீரில் 76
▁பகுதியும் 76
▁பட்டா 76
▁பணிவ 76
▁பலவற்றை 76
▁பித 76
▁புவிசார் 76
▁பெங்களூருவில் 76
▁பெருந்திர 76
▁பெறுவர் 76
▁மாதிரிகளை 76
▁மிகைய 76
▁மிதி 76
▁முறைப்படுத்த 76
▁முற்று 76
▁மூன்றாவதாக 76
▁வயல் 76
▁விசாகப்பட்டினம் 76
▁விடப்பட்ட 76
▁விடுவிக்கப்பட்ட 76
▁விமர்சனங்கள் 76
▁விழாக்க 76
▁வீடுகளும் 76
▁வெளிநாட்டுப் 76
▁வெளியாகி 76
சந்த 75
சனை 75
சிக 75
சீர் 75
ச்சந்த 75
ச்சாவ 75
டுவதோடு 75
த்தினுடைய 75
நாயக்க 75
ந்திரநாத் 75
ப்படியான 75
ப்பிலிருந்து 75
மன்ற 75
முடியவில்லை 75
ரசி 75
ரிசி 75
ரியாவில் 75
ர்களுடனும் 75
ர்கின்றன 75
லாலும் 75
லித் 75
லோடு 75
ல்லாம் 75
வகை 75
வழிக் 75
வானி 75
ாண்ட் 75
ாவிற்கான 75
ின்க 75
ிற்குட்பட்ட 75
ிலு 75
ுட்ப 75
ுமானால் 75
ுவைத் 75
▁அட்டவண 75
▁அண்ட 75
▁அதன்பிறகு 75
▁அதற்குள் 75
▁அந்நாட்டில் 75
▁அரசியலமைப்பின் 75
▁அரவணை 75
▁அறக்கட்டளையின் 75
▁அறிக 75
▁அறுபது 75
▁ஆசியாவிலும் 75
▁ஆழ் 75
▁இடித்து 75
▁இணக்கம் 75
▁இல்லையென்றால் 75
▁இழந்தது 75
▁இழுத்த 75
▁உடனேயே 75
▁உயர்கல் 75
▁உயர்நிலைக் 75
▁உருவாக்குவதன் 75
▁உள்ளடக்கியதாக 75
▁உள்ளவர்களுக்கு 75
▁எடி 75
▁என்கிறது 75
▁எல்பி 75
▁எழுபது 75
▁எழுப்பி 75
▁ஏற்படுவது 75
▁ஒரேயொரு 75
▁கட்டுதல் 75
▁கணக்கெடுப்ப 75
▁கமிட்டி 75
▁கருத்தியல் 75
▁கருத்தைக் 75
▁கால்நட 75
▁கிரேக்கம் 75
▁கூறப்பட்டுள்ள 75
▁கொள்ளத் 75
▁சாப்பி 75
▁செயல்திறனை 75
▁தடுப்பூ 75
▁தருமாறு 75
▁தாஸ் 75
▁திச 75
▁நடந்துகொண்ட 75
▁நன்மைகளை 75
▁நாக்பூர் 75
▁நாற்ப 75
▁நிறுத்தப்பட்ட 75
▁நிஷ 75
▁நேரடிப் 75
▁பங்குத 75
▁படைகளால் 75
▁பரீ 75
▁பாரம்பரியமாக 75
▁பிரஸ் 75
▁பிரிவுகளுக்கு 75
▁பிற்பகுதியில் 75
▁பீரங்கி 75
▁புதுமுக 75
▁பெயர்களை 75
▁பேற 75
▁போகலாம் 75
▁மணிநேரம் 75
▁மதுபான 75
▁மலையாளத்தில் 75
▁மலையின் 75
▁மாத்திர 75
▁மால் 75
▁முடிவெடுக்கும் 75
▁மெக்சிகோ 75
▁லாஸ் 75
▁வடக்குப் 75
▁வடிவமைத்த 75
▁வல்லுனர் 75
▁வளாகங்கள் 75
▁வழித்தடம் 75
▁ஹொ 75
▁ஹோட்டல் 75
க்ரோ 74
சேகர் 74
ச்செய்யும் 74
டையாக 74
தம 74
துரு 74
த்தகுந்த 74
நிர 74
நிலைக் 74
பரப்பு 74
மழை 74
ர்தலில் 74
லின்போது 74
ாமில் 74
ாலய 74
ிக்கிறார்கள் 74
ுக்கிடையேயான 74
ைக்குக் 74
்ரீ 74
▁அதிகப்படியான 74
▁அனுச 74
▁அபக 74
▁அய் 74
▁அலன் 74
▁அலுவலகங்களில் 74
▁ஆகிறது 74
▁ஆரிய 74
▁இசையமைப்ப 74
▁இதழ 74
▁இதிலிருந்து 74
▁இந்தியர் 74
▁இராம 74
▁ஈடாக 74
▁உடற்பயிற்சி 74
▁உழைப்பின் 74
▁எக் 74
▁எதுவுமே 74
▁எல்லைகளில் 74
▁ஐம்ப 74
▁ஒளிய 74
▁ஓக 74
▁கணக்கை 74
▁கண்டத்தில் 74
▁கண்டறி 74
▁கனடாவின் 74
▁காஞ்சீ 74
▁கிடங்கு 74
▁கிராமங்களின் 74
▁கில் 74
▁குறும்பட 74
▁குறைகள் 74
▁குழந்தையை 74
▁கோவை 74
▁சபையை 74
▁சாந்தி 74
▁சிட்ட 74
▁சிப்ப 74
▁சுற்றுப்பயணம் 74
▁செயலா 74
▁சேகரித்து 74
▁சைக்கி 74
▁ஜிம் 74
▁தகுதியை 74
▁தனிப் 74
▁தனியே 74
▁தன்மைக்கு 74
▁தன்மையுடைய 74
▁தம்பி 74
▁தரிச 74
▁தற்ப 74
▁தலைமையக 74
▁தலையின் 74
▁தாக்கியது 74
▁துறையாக 74
▁நமக்குக் 74
▁நாகரீக 74
▁நிம்ம 74
▁நியூயார்க் 74
▁நிலையும் 74
▁பதக்க 74
▁பதுளை 74
▁பத்தாண்டுகளில் 74
▁பயிற்சிகளை 74
▁பள 74
▁பிடிவ 74
▁பிரசவ 74
▁பிரசித்தி 74
▁பிரான்சு 74
▁புத்தகத்தில் 74
▁புற்றுநோய 74
▁பெட 74
▁பெண்ணின் 74
▁போதுமானது 74
▁மதிப்பிட்ட 74
▁மற்றுமொரு 74
▁மீண்ட 74
▁முடிவெடுக்க 74
▁முற்பகுதியில் 74
▁முஸ்லீம 74
▁மையக்கரு 74
▁வசித்து 74
▁வந்தவர் 74
▁வன்க 74
▁வலைப்பின்னல் 74
▁வளைந்து 74
▁வாழ்க்கைச் 74
▁விளையா 74
ட்டையில் 73
னிக்க 73
ன்களுக்கும் 73
பொருள் 73
ப்பணிகள் 73
முறைப் 73
மையிலும் 73
ரையே 73
ர்வின் 73
ளித்தனர் 73
வசதி 73
விகித 73
ாயி 73
ிகன் 73
ிகொ 73
ித்தொக 73
ிரியும் 73
ிவின் 73
ிவுகள் 73
ெயர் 73
ைகொண்ட 73
ைக்குப் 73
ொன்றில் 73
ோமா 73
்கால 73
▁ஃபை 73
▁அகமதா 73
▁அகாட 73
▁அதிகமானோர் 73
▁அதிகாரத்தின் 73
▁அமைதிக்கான 73
▁அவர்களோடு 73
▁ஆப்பிரிக்காவின் 73
▁ஆளும 73
▁இணையும் 73
▁இப்பகுதி 73
▁இம்மாத 73
▁இயக்குநர்கள் 73
▁இருப்பதைக் 73
▁இவ்விரு 73
▁உயரத்தில் 73
▁உரிமைகளைப் 73
▁உருவாக்குகிறது 73
▁ஏராளமாக 73
▁ஓவிய 73
▁கட்டுவது 73
▁கரியமில 73
▁காய்கற 73
▁கிடந்த 73
▁குடும்பத்த 73
▁குழுவான 73
▁குழுவுக்கு 73
▁குழுவுடன் 73
▁குவைத் 73
▁கோது 73
▁சிகாகோ 73
▁சிக்கிக் 73
▁சிந்து 73
▁சூடு 73
▁செயலில் 73
▁செய்தாலும் 73
▁சேர்த்துக்கொள்ள 73
▁சோத 73
▁டிடி 73
▁தனக்குக் 73
▁தன்ம 73
▁தரையிற 73
▁தலைவருக்கு 73
▁தலைவர்களில் 73
▁திருநாள் 73
▁துருக்க 73
▁தூத்துக்குடி 73
▁தேவைப்படுகின்றன 73
▁தொண்டர்கள் 73
▁நிதியின் 73
▁நிறுவனர் 73
▁நோபல் 73
▁பகுதியிலிருந்து 73
▁படிய 73
▁பயனை 73
▁பயிற்சிப் 73
▁பரிவு 73
▁பிளவ 73
▁பெத் 73
▁பெறுவதற்கும் 73
▁பெற்றிருந்தது 73
▁பேசுவது 73
▁பேட் 73
▁மனோஜ் 73
▁மீன்பிட 73
▁முக்க 73
▁முக்கியக் 73
▁முதலமைச்சர்கள் 73
▁முற்போக்குக் 73
▁லத்தீன் 73
▁வருவார் 73
▁வர்மா 73
▁வளர்ச்சியையும் 73
▁வழிகாட்டியாக 73
▁வில்லியம் 73
▁விளக்கி 73
▁விளக்கிக் 73
▁வீடாக 73
▁வீதிகளில் 73
▁வீற்ற 73
▁வெளிவர 73
1986 72
உற 72
கர்கள் 72
கோடி 72
க்கல்ல 72
சந்த் 72
சாத 72
டீ 72
டூ 72
ணுவ 72
ண்டல் 72
ண்மையை 72
த்தல 72
நிலைப் 72
நெற 72
பாதுகாப்பு 72
பிக் 72
புரத்தில் 72
ப்பதற்காகவும் 72
மில்ல 72
ம்பை 72
யிலை 72
ரேஷன் 72
றுகள் 72
றையின் 72
ல்களிலும் 72
வெங்க 72
ஸ்ஸல் 72
ிகளாகவும் 72
ிட்டர் 72
ிப்பதும் 72
ிறதா 72
ையினை 72
ோப 72
▁அங்கிருந்த 72
▁அதன 72
▁அத்துமீ 72
▁அந்நா 72
▁அமெரிக்காவுக்கு 72
▁அரியானா 72
▁அள்ள 72
▁ஆகியவற்றுக்காக 72
▁ஆண்டுகளின் 72
▁ஆழ்ந்து 72
▁இங்க 72
▁இளைப்பாற 72
▁உடலை 72
▁உட்பட்டது 72
▁எல்லோ 72
▁எழுப்பினார் 72
▁கடத்தப்பட்ட 72
▁கடத்தி 72
▁கட்டப்பட 72
▁கட்டப்பட்டு 72
▁களி 72
▁கவனித்துக் 72
▁கவரும் 72
▁காசநோய 72
▁காணப்படவில்லை 72
▁கானா 72
▁கார்ப்பரேஷன் 72
▁கியூப 72
▁குத்தகை 72
▁குறைப்பதற்கான 72
▁கைத்தொழில் 72
▁சமா 72
▁சரித்திர 72
▁சரிபார் 72
▁சும் 72
▁செலுத்தப்பட்டது 72
▁சேலம் 72
▁தன்னம்பிக்கை 72
▁தமிழ்நாட்ட 72
▁தலைமறை 72
▁திரும்பிச் 72
▁திருவ 72
▁தீர்மானிக்க 72
▁துல்லிய 72
▁நடிப்பில் 72
▁நன்கொட 72
▁நவராத்திரி 72
▁நிகழ்வாக 72
▁நின 72
▁நிறுவனங்களால் 72
▁நிலவின் 72
▁படமான 72
▁பயிற்சிக் 72
▁பருத்த 72
▁பாண்டே 72
▁பாய 72
▁பாலமாக 72
▁பிரசா 72
▁பிரபலமாக 72
▁பிரபாகரன் 72
▁பொருந்திய 72
▁போதே 72
▁மட்டம் 72
▁முடிவடையும் 72
▁முரண 72
▁யாக 72
▁யாரோ 72
▁ராஜபக்ச 72
▁வட்டாரங்களில் 72
▁வரலாம் 72
▁வலயம் 72
▁வளர்ப்ப 72
▁விமர்சகர்கள் 72
▁விற்கும் 72
▁வீதமான 72
▁வெடித்தது 72
▁வெற்றிகள் 72
▁வெஸ்ட் 72
▁ஸ்டீபன் 72
▁ஹாட் 72
அன்று 71
அய 71
காண்ட 71
க்களைக் 71
சிங்கம் 71
ட்டுக்கள் 71
ணர் 71
ணும் 71
தங்கள் 71
த்துவிட்ட 71
நகர 71
னாவின் 71
பவராக 71
ப்படுத்தப்பட்டு 71
ப்பாடுகளை 71
மாதம் 71
யாவில் 71
ர்க்கின் 71
ர்சி 71
லியன் 71
ழுது 71
வர்களான 71
வர்களிடையே 71
விழாவில் 71
வுகளின் 71
வுகளும் 71
ாகு 71
ியாகி 71
ிலுமே 71
ுதலையும் 71
ெரிக்க 71
▁அட்டைகளை 71
▁அமலா 71
▁அருணாச்சல 71
▁அவல 71
▁அவு 71
▁அஸ்ஸாம் 71
▁ஆசிரியர்களின் 71
▁ஆய்வுக்க 71
▁இசைக் 71
▁இடிந்து 71
▁இடையிலும் 71
▁இணைக்கப்படும் 71
▁இல்லாவிட்டாலும் 71
▁உருவாக்கப் 71
▁உள்ளடக்கம் 71
▁உள்ளடக்கியது 71
▁என்றனர் 71
▁எபிர 71
▁எல்லைக் 71
▁எழுந்தது 71
▁ஏந்திய 71
▁ஏற்றம் 71
▁ஐஸ் 71
▁ஓடிவ 71
▁ஓட்டுந 71
▁கணக்குத் 71
▁கன்னியாகுமரி 71
▁கலிபோர்னியா 71
▁கவிழ 71
▁காலகட்டம் 71
▁காவிரி 71
▁குடியிருப்புகள் 71
▁குத்து 71
▁குரலை 71
▁குழி 71
▁குழுக்களில் 71
▁சந்தியா 71
▁சந்த் 71
▁சாட்சியாக 71
▁சிகர 71
▁சூழ் 71
▁செயல்பட்டது 71
▁சேவைக்கு 71
▁தஞ்ச 71
▁தமிழர்களுக்கு 71
▁திருகோணமலை 71
▁திருப்புமுன 71
▁தீவுகளின் 71
▁துறைகளும் 71
▁நடுவ 71
▁நாங்குநேரி 71
▁நாராயணன் 71
▁நூலக 71
▁நேராக 71
▁நேரிட்ட 71
▁பசிய 71
▁பனை 71
▁பாகங்கள் 71
▁பாடசால 71
▁பாடத் 71
▁பாடி 71
▁பாரம்பரியமான 71
▁புத்திசால 71
▁புரட்சிக்கு 71
▁பூமியை 71
▁பெருந்தொக 71
▁பொறி 71
▁போர்ட்ட 71
▁மதிவ 71
▁மனநிலை 71
▁மலைய 71
▁மாணவர்களுடன் 71
▁மாநா 71
▁முடித்துக் 71
▁முதிர்ந்த 71
▁முனைப்பு 71
▁முன்னறிவிப்பு 71
▁மூளை 71
▁யான 71
▁யூனியனின் 71
▁ராஜ்யம் 71
▁லாக 71
▁வசதியும் 71
▁வட்டங்களில் 71
▁வந்ததும் 71
▁வரையறு 71
▁வரையும் 71
▁வழிபாடு 71
▁விளைந்த 71
▁வேதன 71
182 70
1942 70
225 70
எம்ஏ 70
குமாரன் 70
க்கட்டு 70
க்குவாத 70
சாத் 70
சொல்ல 70
ச்சான் 70
டுவதால் 70
நூற்று 70
ந்திருந்த 70
ன்முற 70
பியூ 70
மட்டு 70
மையைத் 70
ம்சம் 70
ரீப் 70
ருகின்றன 70
ர்கான் 70
ளுடன் 70
வரிட 70
வைத்த 70
ாளராகவும் 70
ாளருமான 70
ிதழ்கள் 70
ியாவில் 70
ிவார 70
ீஷ் 70
ுவுக்கு 70
ெடுக்கப்பட்டது 70
்சன் 70
▁அடக்கி 70
▁அதிகாரத்தைக் 70
▁ஆலயத்தில் 70
▁ஆலயம் 70
▁இதுவாகும் 70
▁இருந்ததாகவும் 70
▁ஈடுபடுத்திக் 70
▁ஈட்டிய 70
▁உண்மைகளை 70
▁உள்ளடங்க 70
▁உள்ளதை 70
▁எல்லாமே 70
▁ஒப்படைத்த 70
▁ஒற்ற 70
▁கணி 70
▁காதுக 70
▁காஸ்ட்ரோ 70
▁கிடங்க 70
▁கியூபா 70
▁கீழ்த்த 70
▁குறிப்புக்கள் 70
▁குறியீட்ட 70
▁கொடியை 70
▁சத்யம் 70
▁சிகிச்சைக்கு 70
▁சுட்டுக் 70
▁சுவார 70
▁செந்த 70
▁செயலாற்றி 70
▁செயலை 70
▁சேர்க்கப்படும் 70
▁சேவைகளையும் 70
▁ஞாயிற்றுக் 70
▁ஞாயிற்றுக்கிழமை 70
▁டொமின 70
▁தங்கியிருக்கும் 70
▁திகழ்கின்றன 70
▁துப்பாக்க 70
▁துப்பு 70
▁தேவா 70
▁நகர்புற 70
▁நகல் 70
▁நம்பப்படுகிறது 70
▁நால 70
▁நிகழ்த்தினார் 70
▁நிலநடுக்கம் 70
▁நிலப்பரப்பில் 70
▁நிலைநிறு 70
▁நிலையிலேயே 70
▁நிலையைக் 70
▁நீர 70
▁நீர்மூழ்கிக் 70
▁பங்கும் 70
▁பயிர்களை 70
▁பவ 70
▁பவுல் 70
▁பின்னடைவு 70
▁பிராங்க் 70
▁பிரிவும் 70
▁பிறக்கும் 70
▁பீகாரில் 70
▁புதுதில் 70
▁பூங்காக்கள் 70
▁போடோ 70
▁மதிப்புடைய 70
▁மாணவர்களுக்கும் 70
▁மாநிலத்திலும் 70
▁மான் 70
▁மாவட்டத்திலும் 70
▁முகாமைத்துவ 70
▁முயற்சிக்கும் 70
▁மொழிக் 70
▁யாருடைய 70
▁யுவன் 70
▁வங்காளதேச 70
▁வடிவத்தை 70
▁வரவேற்பை 70
▁வாங்கிக் 70
▁விதத்திலும் 70
▁விளங்கினார் 70
▁விவசாயத்தை 70
▁விஸ்த 70
▁ஷே 70
▁ஸ்பானிய 70
▁ஹாங்காங் 70
உத்த 69
கூடிய 69
க்கூறு 69
ங்களுக்க 69
சிகள் 69
சோன் 69
ண்ம 69
த்தையோ 69
நாளும் 69
நேரத்தில் 69
ந்தே 69
னாலும் 69
ன்முறை 69
ப்பாடுகள் 69
ப்பொருள 69
மாற்று 69
மைகளையும் 69
ரையா 69
ற்கால 69
ல்லிய 69
ளித்தல் 69
வீர் 69
வேக 69
ாகம 69
ிக்கி 69
ிட்டால் 69
ிப்பதிலும் 69
ிலியன் 69
ுதியில் 69
ுதிர 69
ுமாக 69
ேசி 69
ைகளையே 69
்ல் 69
▁அமைப்புகள 69
▁அரசாண்ட 69
▁ஆடம்பர 69
▁ஆராயும் 69
▁இசையமைத்த 69
▁இரண்டிலும் 69
▁இருண்ட 69
▁உடைந்து 69
▁உள்ளான 69
▁ஊரான 69
▁எதிரிகளை 69
▁எதிரொ 69
▁என்பதற்க 69
▁எம்ம 69
▁கஞ்ச 69
▁கதையில் 69
▁கபூர் 69
▁கிரீன் 69
▁குடும்பங்களில் 69
▁குரூப் 69
▁குறித்துக் 69
▁குறிப்பிடவில்லை 69
▁குழுத் 69
▁குவை 69
▁கொண்டுவந்தது 69
▁கொம்ப 69
▁கோட்பாடுகளை 69
▁சகோதரரும் 69
▁செயல்முற 69
▁செய்தவர்கள் 69
▁டாடா 69
▁தாமதமாக 69
▁தினமாக 69
▁திரட்டும் 69
▁துருக்கியின் 69
▁தூங்க 69
▁நரே 69
▁நாட்களிலும் 69
▁படையெடுத்து 69
▁படைவீர 69
▁பரீட்ச 69
▁பறவைகள் 69
▁பலா 69
▁பள்ளிக்கு 69
▁பாஷ 69
▁பிரச் 69
▁புலம்பெய 69
▁பூர்வமாக 69
▁பெங்களூரில் 69
▁பெண்களுக்கான 69
▁பெற்றதாக 69
▁போட்டிகளை 69
▁மக்களுக்குப் 69
▁மறுக்கும் 69
▁மறுப 69
▁மலேசியாவில் 69
▁மார்ச்சில் 69
▁மாறான 69
▁மிய 69
▁மீட்டு 69
▁மூவர் 69
▁வரையான 69
▁வியாழன் 69
▁விற்பனையை 69
▁விளிம்பில் 69
▁வீரர்களும் 69
▁ஸ்டாலின் 69
▁ஸ்வீ 69
▁ஹால் 69
அதிக 68
ச்செய்து 68
துறை 68
த்தக 68
ந்திரன் 68
பாடுகளில் 68
ப்பீ 68
மயமாதல் 68
மைப்பின் 68
ர்டன் 68
ளங்கள் 68
வாய்ப்பு 68
வென்றால் 68
வெல் 68
வைத்து 68
ாமணி 68
ாவினால் 68
ினாமா 68
ிராய 68
ுகளாலும் 68
ுவதைப் 68
▁அடங்கியுள்ளது 68
▁அமைவாக 68
▁அலைகள் 68
▁அவருக்குக் 68
▁ஆபிரிக்காவில் 68
▁இங்கிலாந்தின் 68
▁இந்துஸ்தான் 68
▁இயக்கங்களின் 68
▁இருக்குமாறு 68
▁உதாரணமாகும் 68
▁உள்ளதா 68
▁எடுத்துக்காட்டு 68
▁என்பதின் 68
▁என்றது 68
▁என்றெல்லாம் 68
▁எலிய 68
▁ஒன்றிணைந்த 68
▁ஒப்பீட்டளவில் 68
▁ஒல 68
▁கடந்தகால 68
▁கடற்படைத் 68
▁கடைப்பிடி 68
▁கட்டப்படும் 68
▁கட்டுப்பாட்டுப் 68
▁கருவுற்ற 68
▁காம்ப 68
▁காலியாக 68
▁காஷ்மீரின் 68
▁கிராமிய 68
▁கொலம்பியா 68
▁கொல்கத்தாவில் 68
▁சதா 68
▁சந்தர்ப்பம் 68
▁சாசனம் 68
▁சிக்கி 68
▁சிறுபான்மையின 68
▁சுற்றுவட்ட 68
▁சுலப 68
▁சுவிஸ் 68
▁தகவல்களைத் 68
▁தயாராகும் 68
▁தாழ்த்தப்பட்ட 68
▁திணைக்க 68
▁துவங்கி 68
▁தெலுங்க 68
▁தொழிற்சாலைகளில் 68
▁நாயக் 68
▁நிகோ 68
▁நிச்சயமற்ற 68
▁நிதிகள் 68
▁நிரூபிக்கப்பட்ட 68
▁நிலங்கள் 68
▁படங்களும் 68
▁படைக்கும் 68
▁பத்தாம் 68
▁பயணங்கள் 68
▁பயனாக 68
▁பயன்படுத்தவும் 68
▁பரப்பளவில் 68
▁பரிசாக 68
▁பரிந்துரைக்க 68
▁பருவமழ 68
▁பல்வேறுபட்ட 68
▁பள்ளத்தாக்கில் 68
▁பாலங்கள் 68
▁பிகாரி 68
▁பின்பற்றிய 68
▁பிரம்ம 68
▁புனர 68
▁புளோரிட 68
▁பூர்வமான 68
▁பெறுகிறார்கள் 68
▁போனார் 68
▁போவது 68
▁மனை 68
▁மாதமும் 68
▁மோகன்லால் 68
▁யூகோ 68
▁வஸ்த 68
▁விதிப்ப 68
▁விருதுக்கு 68
▁விழும் 68
▁வெங்காயம் 68
▁வேவு 68
▁வைத்துப் 68
▁ஹோட்டலில் 68
1953 67
க்களைப் 67
க்கூறுகள் 67
சனின் 67
சீன 67
ச்சட்டம் 67
ச்சீட்ட 67
ட்சமாக 67
தேசம் 67
னியன் 67
னோம் 67
ப்பணம் 67
ய்யும் 67
ராகும் 67
ருக்கே 67
ர்கா 67
ளுக்கும் 67
வியுடன் 67
ஹாம் 67
ாடாகும் 67
ாமலே 67
ாயினும் 67
ிப்பார்கள் 67
ிறு 67
ைக்குள் 67
▁அகர்வால் 67
▁அங்கா 67
▁அண்ட் 67
▁அபாயத்தை 67
▁அமைச்சரவையின் 67
▁ஆணைக்குழு 67
▁இவரும் 67
▁உண்டாக 67
▁எண்ணங்களை 67
▁எதிர்பா 67
▁ஏதாவதொரு 67
▁ஓர 67
▁கரம் 67
▁காபூ 67
▁காற்றழுத்த 67
▁காலக்கட்ட 67
▁கிடக்க 67
▁குழாய்கள் 67
▁கேபிள் 67
▁கொள 67
▁சதவீதத்தினர் 67
▁சிறப்பாகச் 67
▁சுரங்கம் 67
▁சூழ்ந்த 67
▁சேர்ப்ப 67
▁ஜென் 67
▁தக்கவைத்துக் 67
▁தங்கு 67
▁தடைசெய்ய 67
▁தானம் 67
▁தாயார் 67
▁தாள 67
▁திசையை 67
▁தினந்தோறும் 67
▁திரி 67
▁தூதரகம் 67
▁தெற்கே 67
▁தொடங்கினர் 67
▁தொழிலக 67
▁நகரான 67
▁நகைச்சுவை 67
▁நம்பத்தகுந்த 67
▁நம்பிக்கைகள் 67
▁நல்லுறவு 67
▁நிறுவுதல் 67
▁நிலைமைகளில் 67
▁நெறிய 67
▁பகுதிகளும் 67
▁பயிரிட 67
▁பயிற்சியும் 67
▁பரா 67
▁பலரை 67
▁பாராட்டும் 67
▁பிரசித்த 67
▁பிரீ 67
▁பிளஸ் 67
▁புட்ட 67
▁பொம்ம 67
▁போட்டித்த 67
▁போதக 67
▁மனோகர் 67
▁மாதிரியாக 67
▁மாற்றமும் 67
▁மாற்றுதல் 67
▁முழுமையாகப் 67
▁ராஜினாமா 67
▁லீக் 67
▁வடக்குக் 67
▁வணிகக் 67
▁வணிகத்தை 67
▁வருடாந்த 67
▁வலுவிழ 67
▁வாசிக்க 67
▁விஞ்ஞானம் 67
▁விரைவாகவும் 67
▁விழாக்கள் 67
▁விவசாயக் 67
▁ஹாங்கா 67
1984 66
ஒய் 66
காம 66
குதி 66
க்கச் 66
க்காலம் 66
ச்சினை 66
ஜின 66
ட்டிகள் 66
ட்டுச் 66
ணிப் 66
த்துறைக்கு 66
நாயகி 66
பேசி 66
ப்படுவதும் 66
ப்பைச் 66
மட 66
ரத்த 66
ரீட் 66
ர்களது 66
ள்களில் 66
வடிக்க 66
ஸ்ட்டில் 66
ாணும் 66
ின்மை 66
ுக்கொண்டிருந்த 66
ெழுந்த 66
▁அதிபராக 66
▁அமிதாப் 66
▁ஆர்வல 66
▁இத்தாக்க 66
▁இந்நிறுவனம் 66
▁இல்லா 66
▁இளவரச 66
▁உதய் 66
▁உயிர்ப்ப 66
▁உறைவிட 66
▁எடுத்தல் 66
▁எண்ணத்தை 66
▁எதிரானது 66
▁ஏது 66
▁ஏரோ 66
▁ஏற்பட்டன 66
▁ஒன்றைத் 66
▁ஒருமுக 66
▁கடமையாகும் 66
▁கணக்குகளை 66
▁கரி 66
▁கவுர் 66
▁காலப் 66
▁கிடைக்காமல் 66
▁குக 66
▁கூட்டுச் 66
▁கொலம்பிய 66
▁சத்தி 66
▁சபா 66
▁சபாநாயகர் 66
▁சலா 66
▁சாதனைய 66
▁சிங்கப்பூரில் 66
▁சீட்ட 66
▁செயற்பாட்ட 66
▁செய்தபோது 66
▁சோதிக்க 66
▁தன்னைத் 66
▁தரப்பினர் 66
▁திகதிய 66
▁திய 66
▁திரும்பச் 66
▁தொழிற்துற 66
▁நினைவுகூர 66
▁நிலைகளிலும் 66
▁நிவ 66
▁நீர்மூழ்க 66
▁நெரிசல் 66
▁நெருப்பு 66
▁நேரி 66
▁நேர்மறை 66
▁பகி 66
▁பதிவிறக்கம் 66
▁பாலிவுட் 66
▁பிந்திய 66
▁பிரண 66
▁பிரத்தியேக 66
▁புறத்தில் 66
▁போட்டியின் 66
▁போதுமானதாக 66
▁மங்கள 66
▁மறுத்தது 66
▁மாட்சி 66
▁மாவட்டங்களிலும் 66
▁முதலே 66
▁முறையையும் 66
▁மெய் 66
▁யாழ்ப்பாணத்தில் 66
▁வகுத்து 66
▁வகைப்பட்ட 66
▁வண்டி 66
▁வாதிட்டார் 66
▁விடுவது 66
▁விளக்குகிறது 66
▁விளைச்சல் 66
▁விழித்த 66
▁வெளியிட்டனர் 66
▁வெளியேற்றப்பட்ட 66
▁வைத்துள்ளார் 66
▁ஸ்டே 66
▁ஹில் 66
1945 65
1961 65
1977 65
ங்ச 65
சீனா 65
டத் 65
டுத்தும் 65
டைன் 65
தியா 65
த்தன்ம 65
த்தார்கள் 65
னவு 65
னுக்காக 65
ன்பெ 65
ப்படவேண்டிய 65
மதா 65
முதலில் 65
மேய 65
மைகளில் 65
மொன்றில் 65
ம்மா 65
யத்தை 65
யில்லை 65
ய்ஸ் 65
ர்களிடமும் 65
லஸ் 65
ளிலும் 65
வழிப் 65
வாஹ 65
விட்டால் 65
விதி 65
ஸ்சி 65
ஹன் 65
ானும் 65
ிகித 65
ிடையில் 65
ிட்டான் 65
ியாகத் 65
ிருந்ததாக 65
ுவதற்குப் 65
ென்ட் 65
்கான் 65
்க்கான 65
▁அஜய் 65
▁அடங்கியுள்ளன 65
▁அதேநேரம் 65
▁அமர்வு 65
▁அரசர் 65
▁ஆட்சியாளர்கள் 65
▁இணைப்பது 65
▁இணையப் 65
▁இருப்பதும் 65
▁உயிரிழந்தனர் 65
▁எருசலேம் 65
▁ஐதராபாத் 65
▁ஒத்திசை 65
▁கஜினி 65
▁கட்டப்பட்டுள்ளன 65
▁கட்டிடத்தில் 65
▁கண்டார் 65
▁கனட 65
▁கருதப்பட்டு 65
▁கற்பிக்கும் 65
▁காணப்பட்டு 65
▁காப்பீட்ட 65
▁குப்பை 65
▁கேட 65
▁கொடுத்தால் 65
▁கொளுத்த 65
▁கொள்வதன் 65
▁கௌதம் 65
▁சய 65
▁சரவணன் 65
▁சிங்கின் 65
▁சிறப்பாகப் 65
▁சிற்ப 65
▁சிவா 65
▁சீரா 65
▁சீர்த 65
▁சுரே 65
▁சென்றால் 65
▁செயலாளராக 65
▁செலுத்தியது 65
▁ஜாக 65
▁ஜெனீவா 65
▁டெல்ல 65
▁தங்கத்தை 65
▁தத்துவார்த்த 65
▁தாக்கங்கள் 65
▁திறனுடன் 65
▁திறை 65
▁தேங்காய் 65
▁தொகுத்து 65
▁நடுக்க 65
▁நட் 65
▁நிறைந்தது 65
▁நெட்வொர்க் 65
▁பகலும் 65
▁பகுதிகளையும் 65
▁படுகின்றன 65
▁பணவீ 65
▁பணிந்து 65
▁பணியா 65
▁பத்திரிகைகளில் 65
▁பயன்படுகிறது 65
▁பாதுகாப்பின் 65
▁பிரிவான 65
▁பேரி 65
▁மஞ்ச 65
▁மந்திரம் 65
▁மனிதர்களை 65
▁மற்றொன்று 65
▁மார்ட்டின் 65
▁முட்டாள 65
▁மொழ 65
▁மோது 65
▁வங்காளம் 65
▁வயதிற்கு 65
▁வழங்குவதன் 65
▁வாய்ப்பைப் 65
▁விக்கிரவாண்டி 65
▁விடுகின்றன 65
▁ஷர்மா 65
▁ஹிட்லர் 65
1314 64
க்கரு 64
க்கிப் 64
ங்கான 64
சனம் 64
டாக்க 64
ட்டமைப்பு 64
தாகச் 64
த்தொழில 64
த்ன 64
னுமான 64
படுத்தப்பட்ட 64
பல் 64
ப்புகளின் 64
மானின் 64
மியில் 64
மென்றும் 64
யால் 64
யிற்சி 64
ற்துறை 64
ழ்வு 64
வாட் 64
வினைக் 64
ானியத் 64
ாலை 64
ாளின் 64
ினால 64
ிப்பி 64
ியுற்ற 64
ிரண்டு 64
ுட்பட்ட 64
ுதலாக 64
ுவும் 64
▁அடுத்தபடியாக 64
▁அதிகாரியின் 64
▁அத்தியாய 64
▁அமைப்பின 64
▁அரா 64
▁ஆக்கிரமித்த 64
▁ஆடிய 64
▁இணைச் 64
▁இனிய 64
▁இருந்ததுடன் 64
▁இருவரின் 64
▁இவற்றைப் 64
▁உள்ளடக்கி 64
▁எரிபொருளை 64
▁எல்லைக்கு 64
▁ஐரோப்பாவிலும் 64
▁கடக்கும் 64
▁கட்டமைப்புகள் 64
▁கப்பலை 64
▁கருத்திற்க 64
▁கலந்துகொண்டார் 64
▁காஞ்சிபுரம் 64
▁காட்டியுள்ளார் 64
▁காணப்பட்டன 64
▁காரணத்தினால் 64
▁குறிகாட்ட 64
▁கொண்டாட்டங்கள் 64
▁கொள்வனவு 64
▁சகோதரர்கள் 64
▁சார்ந்தவர்கள் 64
▁சாலைகளில் 64
▁சால் 64
▁சிகிச்சைக்காக 64
▁சீராக 64
▁சுற்றுச்சூழலை 64
▁செயின்ட் 64
▁செலுத்தினர் 64
▁ஜாம 64
▁தட்டி 64
▁தயாரிப்பதற்கான 64
▁தயாரிப்பதற்கு 64
▁தரக் 64
▁தரைமட்ட 64
▁தாங்கும் 64
▁தாமே 64
▁திகழ்ந்தார் 64
▁தியான 64
▁தீர்மானிக்கும் 64
▁தீவை 64
▁துறைமுகத்தின் 64
▁தெலுங்கானா 64
▁தேர்ந்த 64
▁தொகையாக 64
▁தொடங்கப்பட்டு 64
▁தோண்ட 64
▁தோமஸ் 64
▁தோற்றுவிக்க 64
▁நகரை 64
▁நடைபெறுவது 64
▁நபரின் 64
▁நாட்டிலிருந்து 64
▁நாட்டைக் 64
▁நிகழ்வின் 64
▁பகுதிகளைச் 64
▁படிகள் 64
▁பட்டினி 64
▁பணிக்காக 64
▁பற்றாக்க 64
▁பழமை 64
▁பிடியில் 64
▁பிரிந்த 64
▁புத்தகங்களை 64
▁புரட்சியில் 64
▁பெட் 64
▁பெரும்பாலானவை 64
▁பேறு 64
▁பொருட்களும் 64
▁போரின்போது 64
▁போலவும் 64
▁போலும் 64
▁மந்திரத்தை 64
▁மழைக்கால 64
▁மாநிலமாக 64
▁மார்க்சிஸ்ட் 64
▁மில் 64
▁முகநூல் 64
▁முகவர்கள் 64
▁மேலோ 64
▁வந்திற 64
▁வருந்த 64
▁விடுபட 64
▁விருப்பத்திற்கு 64
▁விளக்கத்தை 64
▁வெளிப்புற 64
▁வேட்ட 64
▁ஸ்லோ 64
111 63
121 63
1962 63
கல 63
க்கூட்ட 63
ங்காது 63
சத்தை 63
சஸ் 63
சீஸ் 63
ச்செய் 63
ச்செல் 63
ஞ்சு 63
டித்துக் 63
டுகளிலிருந்து 63
டைகள் 63
திகளும் 63
த்யா 63
நாடுகளில் 63
நாவ 63
ப்படுகையில் 63
ப்புகளில் 63
ப்புள்ள 63
ப்பொருள் 63
மகன் 63
மொ 63
ராஷ்டிரா 63
ர்கன் 63
ர்மீது 63
றிகள் 63
ழாய் 63
ழிவுகள் 63
வாழ்வு 63
ிகளினால் 63
ிதழ் 63
ிரும் 63
ிருஷ்ண 63
ிறதோ 63
ுடிய 63
ையையே 63
▁அதுவரை 63
▁அருள 63
▁அழிப்பு 63
▁ஆசாத் 63
▁ஆடைகள் 63
▁ஆயில் 63
▁ஆரம்பித்தது 63
▁ஆரா 63
▁ஆர்ய 63
▁ஆளான 63
▁இக்கட்சி 63
▁இக்கரு 63
▁இயக்கங்களை 63
▁இளநிலை 63
▁உணர்வும் 63
▁உயர்த்தப்பட்ட 63
▁உயிரின 63
▁எடுத்தார் 63
▁எடுத்துக்கொள் 63
▁என்னென்ன 63
▁எளிமையாக 63
▁ஒன் 63
▁ஒன்றே 63
▁ஓவர் 63
▁கணக்கீட்டு 63
▁கதர் 63
▁கலிஃபோர் 63
▁களஞ்சிய 63
▁கவிதை 63
▁குற்றம்ச 63
▁குழந்தைத் 63
▁குழப்பத்தை 63
▁கூடத்தில் 63
▁கூட்டை 63
▁கென்னடி 63
▁கோள 63
▁கோளாறு 63
▁சட்டங்களின் 63
▁சட்டசபை 63
▁சாகு 63
▁சாத் 63
▁சீர்கு 63
▁செயல்பாட்டின் 63
▁செய்திப் 63
▁செல்வக் 63
▁சேகரித்த 63
▁சொல்கிறார் 63
▁ஜாக்க 63
▁ஜோர் 63
▁தண்டனையை 63
▁தன்னிச்சையாக 63
▁தலைவன 63
▁தானியங்களை 63
▁தாவர 63
▁திருப்பூர் 63
▁துணையாக 63
▁துரை 63
▁தூரத்திற்கு 63
▁தெருவ 63
▁தேர்ந்தெடுத்து 63
▁தொகுதிகளில் 63
▁தொகையின் 63
▁நாசா 63
▁நாட்டைச் 63
▁நீரோ 63
▁நூல்கள் 63
▁நோக்கத்திற்காக 63
▁பக்தி 63
▁பசுபதி 63
▁படைவீரர்கள் 63
▁பதவிகள் 63
▁பயக்கும் 63
▁பயிற்சியின் 63
▁பலோ 63
▁பள்ளத்தாக்கு 63
▁பவுண்டுகள் 63
▁பாக்த 63
▁பிடித்தது 63
▁பிளே 63
▁புகு 63
▁புனரமைப்பு 63
▁புரட்ட 63
▁பெறுகின்ற 63
▁போக்குவரத்தில் 63
▁மண்டலங்கள் 63
▁மனைவ 63
▁மாட 63
▁மாட்ரிட் 63
▁மாதிரிய 63
▁முடியும 63
▁முடிவடைந்தது 63
▁முருக 63
▁மெக்க 63
▁மேடைய 63
▁மைதான 63
▁யோவான 63
▁ராஜஸ்தானில் 63
▁ராஜாக்கள் 63
▁வகைகளை 63
▁வங்கத்தில் 63
▁வசிக்க 63
▁வந்ததாக 63
▁வழங்குகிறார் 63
▁வார்ட 63
▁வாழ்வாத 63
▁விசால 63
▁விற்பனையாள 63
▁விஷேட 63
▁வீட்டுக் 63
▁வீழ்த்த 63
▁வெளிநாடுகளிலும் 63
▁வெள்ளையனே 63
▁ஹங்கே 63
+ 62
சாகர் 62
ஜ்ஜ 62
டிஸ் 62
னிங் 62
ன்களாக 62
ன்னி 62
ன்பது 62
பாடுகளின் 62
பாலா 62
பிரகாஷ் 62
ப்படுத 62
ப்படுத்தப்படும் 62
ப்பாற்ற 62
மட்டத்தில் 62
மண்டல 62
மயமான 62
மிடையில் 62
மிர் 62
முகமாக 62
ரானா 62
ரீதிய 62
ரீதியில் 62
ரெட் 62
ற்பட்டு 62
லண்ட் 62
லிக 62
ல்வே 62
வர்களாவர் 62
வியில் 62
ாக்கி 62
ாட்சிகள் 62
ாய்த் 62
ியோடு 62
ேசிய 62
ேஷ்வ 62
ையிடும் 62
ொள்கின்றன 62
▁அகாடமி 62
▁அதிகாலையில் 62
▁ஆண்டுக் 62
▁ஆத்ம 62
▁இருக்குமானால் 62
▁ஈட்டும் 62
▁உதவுகின்றன 62
▁உதிர 62
▁உலகப்போ 62
▁உள்நாட்டுக் 62
▁எண்ணெயை 62
▁எல்லைக்குள் 62
▁எழுப்பப்பட்ட 62
▁ஒடு 62
▁கட்டுப்படுத்தி 62
▁கருவியை 62
▁கலைய 62
▁காது 62
▁கிரீடம் 62
▁குழுவால் 62
▁கொண்டாடப்பட்டது 62
▁சிரமம் 62
▁சீக்கிய 62
▁சீனாவுக்கு 62
▁சீயோன் 62
▁சென்றன 62
▁செய்துகொள் 62
▁செல்லப்பட்ட 62
▁சோதனைக்கு 62
▁தகவல்களும் 62
▁தசரா 62
▁தட்ப 62
▁தண்ணீரில் 62
▁தயாரான 62
▁தவறி 62
▁தானியம் 62
▁தீங்க 62
▁தூண்டிய 62
▁தொலைநோக்க 62
▁நகை 62
▁நடத்துதல் 62
▁நடந்தன 62
▁நாள்தோறும் 62
▁நிகழ்ந்தது 62
▁நிலையாக 62
▁நுழையும் 62
▁பங்கே 62
▁படகுகள் 62
▁பதவிக் 62
▁பாலாஜி 62
▁பாவம் 62
▁பிரதேசத்தை 62
▁பிராக 62
▁புகுத்த 62
▁பெண்ணை 62
▁பெறாமல் 62
▁பெற்றுக்கொள் 62
▁பொட்டல 62
▁பொதுச்செய 62
▁பொருட்களில் 62
▁பொருளாகும் 62
▁மரணத்திற்கு 62
▁மாநிலத்தை 62
▁முறையாகப் 62
▁முஸ்லிம 62
▁மேற்கூறிய 62
▁மொராக்கோ 62
▁யாழ்ப்பாணம் 62
▁யுனி 62
▁ராஜேந்திர 62
▁லக 62
▁லட்சுமி 62
▁லிட்டர் 62
▁வகிக்கின்றன 62
▁வங்காளதேசம் 62
▁வயதை 62
▁வயிற்ற 62
▁வரைபட 62
▁வலைய 62
▁வழக்குத் 62
▁வாட்ட 62
▁விமானத்தை 62
▁வீட்டிலேயே 62
▁வெளியிடு 62
▁வொ 62
152 61
அரசு 61
குரு 61
க்கடை 61
க்கர 61
க்காலத்தில் 61
சமா 61
சாவின் 61
சிறு 61
சைப் 61
ட்சியில் 61
ட்டியில் 61
தாக் 61
த்திலிருந்தும் 61
த்துக்கே 61
ந்துரை 61
னத்தை 61
படம் 61
படுகிறது 61
பாஸ் 61
பின்ன 61
பிற 61
பொது 61
ப்பட்டதால் 61
ப்பற்று 61
ப்பவர் 61
மண 61
முன 61
முருகன் 61
மெங்கும் 61
ய்வுக் 61
ய்வுத் 61
ரெஸ் 61
வாக்கிய 61
ார்வ 61
ிகர 61
ித்தன் 61
ினே 61
ிப்பூர் 61
ிரவு 61
ுகின்றார் 61
ுற்ற 61
ென்பது 61
ேயு 61
ைகிறது 61
▁அதிலுள்ள 61
▁அல்ஜீ 61
▁அழுத்தத்திற்கு 61
▁அவசியமில்லை 61
▁ஆக்கிரமிப்ப 61
▁ஆந்திராவில் 61
▁இயக்கமும் 61
▁இயல 61
▁இலக்கியம் 61
▁ஈர்ப்பு 61
▁உயரம் 61
▁உரிமைகளும் 61
▁உருவானது 61
▁உருவாவ 61
▁எத்த 61
▁எனில் 61
▁என்பதற்கும் 61
▁ஏந்தி 61
▁ஒப்பிட்டு 61
▁கண்ணன் 61
▁கதாநாயகியாக 61
▁கதைகளை 61
▁கம்போடியா 61
▁கருத்தா 61
▁கருத்தின் 61
▁காத்துக் 61
▁கிறிஸ்துமஸ் 61
▁கிறிஸ்துவின் 61
▁கீர்த்த 61
▁குடும்பத்தை 61
▁குறிப்பான 61
▁குறிவைத்து 61
▁குறுகியகால 61
▁குறைபாடுகள 61
▁குறைவாகும் 61
▁குழந்தைகளைக் 61
▁குழந்தைகளையும் 61
▁குழந்தைப் 61
▁குவாண்ட 61
▁கோயிலில் 61
▁கௌ 61
▁சிக்கல்களை 61
▁சிதம்பரம் 61
▁சுப 61
▁சென்றுவிட்ட 61
▁செயற்திட்ட 61
▁செய்யப்படாத 61
▁செய்வதிலும் 61
▁செவிலியர் 61
▁சேவைப் 61
▁ஜெக 61
▁தடகள 61
▁தனித்துவம் 61
▁தன்னிறைவு 61
▁தரப்பட்டது 61
▁திபெத் 61
▁துறையால் 61
▁துறையைச் 61
▁தேவைப்பட்டால் 61
▁தொகுப்புகள் 61
▁தொடரின் 61
▁தொடர்புள்ள 61
▁நகர்த்த 61
▁நம்பிக்கைக்கு 61
▁நலிவ 61
▁நாக் 61
▁நாராயண் 61
▁நிறுவும் 61
▁நுட்பம் 61
▁நேர்மை 61
▁நோக்கிப் 61
▁நோயைக் 61
▁படிப்பை 61
▁படைகள 61
▁பணிபுரிந்து 61
▁பண் 61
▁பதவிகளில் 61
▁பயணித்து 61
▁பயன்படுத்துவதன் 61
▁பயன்பாட்டில் 61
▁பலனாக 61
▁பாடிய 61
▁பிட் 61
▁பிராங் 61
▁பிலிப் 61
▁பிள்ளைகளின் 61
▁பேச்சாளர்கள் 61
▁பொங்கல் 61
▁பொதுச்ச 61
▁போரிடும் 61
▁மனப்பா 61
▁மனைவியும் 61
▁மருந்தை 61
▁மாகாணங்களில் 61
▁மாறுதல்கள் 61
▁மிகச்சிறிய 61
▁முண்ட 61
▁முதி 61
▁முன்னு 61
▁மையமான 61
▁மொழியை 61
▁யாரையும் 61
▁யாழ்ப்பாணக் 61
▁ரெட் 61
▁வருகையை 61
▁வளர்ச்சியும் 61
▁வாய்க்க 61
▁வார்த்தையின் 61
▁வாழ்வதற்கு 61
▁விளையாட 61
▁விழுக்காடு 61
▁விவசாயத்தில் 61
▁வெடிக்கும் 61
▁ஷெல் 61
122 60
1857 60
க்கூட்டம் 60
ங்களுடனும் 60
ங்காட்ட 60
சூரிய 60
ச்சோ 60
தள 60
த்தீவுகள் 60
நிகழ்ச்ச 60
நிர் 60
னராக 60
னாள் 60
ப்படைத் 60
ப்பதற்குப் 60
மக்கள 60
மாக்ஸ் 60
மாதிரி 60
மால் 60
யத்தின் 60
ற்றினார் 60
லாந்த 60
ல்கார 60
வராவார் 60
வர்களுக்காக 60
வெளிய 60
ஸ்பியன் 60
ாகர் 60
ாக்களுக்கு 60
ாலுக்கு 60
ிகளுக்குக் 60
ின்று 60
ுக்கார 60
▁அடிமைத்த 60
▁அனுமதிக்கிறது 60
▁அப்து 60
▁அரிஸ்ட 60
▁அறிவாற்ற 60
▁அளவீ 60
▁அழைத்துக் 60
▁இந்நா 60
▁இருள் 60
▁இறுதிப் 60
▁இலையுதிர 60
▁உடைக்க 60
▁உட்ப 60
▁உமா 60
▁எரிச்ச 60
▁எஸ்த 60
▁ஓப்ப 60
▁கடைப்பிடித்து 60
▁கட்டுரையாளர் 60
▁கணின 60
▁கமல்ஹாசன் 60
▁கருத்துக்களைப் 60
▁கல்வ 60
▁கல்விக்கழக 60
▁கல்வியறிவு 60
▁கழகங்கள் 60
▁கிண 60
▁கிரை 60
▁குப்தா 60
▁குறிப்பிடும் 60
▁குறியீடுகள் 60
▁கூறுகள் 60
▁கைப்பற்றி 60
▁கையொப்ப 60
▁கோட் 60
▁க்கள் 60
▁சக் 60
▁சரிசெய்ய 60
▁சாதாரணமான 60
▁சாது 60
▁சிஎன் 60
▁சிறுவன் 60
▁செயற்படும் 60
▁செயலாகும் 60
▁செயலாளரும் 60
▁செயல்பாட்டிற்கு 60
▁சேனை 60
▁சேவைகளும் 60
▁ஜெய்ப்பூர் 60
▁டப் 60
▁டிக் 60
▁டில் 60
▁தடுப்புச் 60
▁தரவரிசையில் 60
▁தலைகீழாக 60
▁தலைவராகவும் 60
▁தாழ்வு 60
▁திமோர் 60
▁திராவிட 60
▁திரிபுர 60
▁திருட 60
▁திரையரங்கு 60
▁திறமைகள் 60
▁தில்லிய 60
▁துறைமுகத்தை 60
▁துள 60
▁தேயிலை 60
▁தேவைகளுக்காக 60
▁தேவையைப் 60
▁தொகு 60
▁தொடரு 60
▁தொந்தரவு 60
▁தோராயமாக 60
▁நகரத்திற்கு 60
▁நவா 60
▁நாசர் 60
▁நாடாகவும் 60
▁நாட்களும் 60
▁நிமித்தம் 60
▁நிலா 60
▁நிழல் 60
▁நேர்முக 60
▁நொறு 60
▁ந் 60
▁பங்காற்றி 60
▁படிவம் 60
▁பயன்படுத்தக் 60
▁பரப்பில் 60
▁பழங்குடியினரின் 60
▁பாங்க 60
▁புகழ்ந்து 60
▁புண்ணிய 60
▁பூச்சிக்கொல்ல 60
▁பெட்டிய 60
▁பெண்ட 60
▁பெருங்கட 60
▁போரினால் 60
▁மதிப்பிடப்பட்ட 60
▁மன்ச 60
▁மருந்துகளின் 60
▁மல்லிகா 60
▁மாணவர்களுக்கான 60
▁மாதா 60
▁மாற்றங்களைக் 60
▁மாற்றப்பட 60
▁மாற்றியமைத்த 60
▁முடிக்கும் 60
▁முருகன் 60
▁முழுதும் 60
▁மேற்குப் 60
▁மைக் 60
▁ராஜூ 60
▁வன்முறைக்கு 60
▁வளர்ச்சியைக் 60
▁வளைகுடாவில் 60
▁விமர்சனங்களை 60
▁விளையாட்டுகளை 60
▁விளைவை 60
▁விஷ்ணுவ 60
▁வீட்டிலும் 60
▁வெங்கடேஷ் 60
▁வெப்பம் 60
▁வேண்டிக் 60
▁வேரூ 60
▁வைத்தான் 60
▁ஹுசைன் 60
▁ஹைதராபா 60
123 59
ஆர்பி 59
எரி 59
கும் 59
ங்களில 59
சுர 59
ச்சூ 59
ஜிக் 59
டியோ 59
டிவி 59
ட்சர் 59
ட்ரி 59
திப்பது 59
த்தம்ப 59
ன்கோ 59
பத் 59
பாவின் 59
புல் 59
போய 59
ப்பல 59
ப்புழ 59
மாக்குதல் 59
முமே 59
ர்களைச் 59
றாக 59
லாகவும் 59
வாக்கும் 59
விலை 59
விள 59
ாகிறது 59
ாங் 59
ானார் 59
ான்ஸ் 59
ாவளிய 59
ாவைத் 59
ிகம் 59
ிகளாகும் 59
ிவரு 59
ூட் 59
ெல 59
ேயோ 59
ைகளுக்குக் 59
ையாகிய 59
ொன்றும் 59
ோக்கு 59
▁அடைக்கல 59
▁அதையே 59
▁அமைதியும் 59
▁அரசாக 59
▁அளவிட 59
▁ஆட்சியர் 59
▁ஆண்டவன் 59
▁ஆய்வுத் 59
▁இதனைக் 59
▁இத்தாலியில் 59
▁இன்றுவரை 59
▁இருப்பவர் 59
▁இழுத்து 59
▁இவர்களுடன் 59
▁இவ்வாண்டு 59
▁உணர்ச்சி 59
▁உண்ணாவிரத 59
▁உதாரணத்திற்கு 59
▁உதிரி 59
▁உருளைக்கிழங்கு 59
▁ஊச 59
▁எடுப்ப 59
▁ஓம் 59
▁கடம 59
▁கடமைகள் 59
▁கடல்ப 59
▁கண்காணிப்பில் 59
▁கண்டறியப்பட்ட 59
▁கண்டுபிடிக்கும் 59
▁கண்ட் 59
▁கனேடிய 59
▁கரா 59
▁கரீபியன் 59
▁கரையோர 59
▁கிராமங்களும் 59
▁குறியீட்டில் 59
▁கெள 59
▁கேம 59
▁கொள்ளாத 59
▁சமூகத்தினர் 59
▁சாகர் 59
▁சிட்னி 59
▁சித்தரிக்க 59
▁சூடான 59
▁சூழப்பட்ட 59
▁செல்வி 59
▁சேவா 59
▁சேவைகளுக்கான 59
▁சோதனைகளை 59
▁டைட்ட 59
▁தன்னைப் 59
▁தாமாகவே 59
▁திருவிழாக்கள் 59
▁தில்ல 59
▁தில்லியின் 59
▁தீவிரம் 59
▁துணைக்கண்ட 59
▁தெரிந்தது 59
▁தெளிவாகிறது 59
▁தொலைதொடர்பு 59
▁நடாத்திய 59
▁நடுநிலை 59
▁நபர்களின் 59
▁நிகழ்ச்சிகளின் 59
▁நினைவுகூ 59
▁நிறுவி 59
▁நேரடியாகப் 59
▁நோக்கங்களுக்காக 59
▁நோக்குடன் 59
▁பகுத்தறிவ 59
▁பட்டியலிட 59
▁பணிபுரிய 59
▁பயன்பாடுகள் 59
▁பர்வ 59
▁பலவற்ற 59
▁பாக்யராஜ் 59
▁பாதுகாத்துக் 59
▁பாதுகாப்பும் 59
▁பிரசன்ன 59
▁பிரச்ன 59
▁பிரிவிலும் 59
▁பிளா 59
▁புகைப்படங்களை 59
▁புகையில 59
▁புதுப்பித்தல் 59
▁பெரியது 59
▁பெருக்கும் 59
▁பெறத் 59
▁பேசுகிறார் 59
▁போட்டியாளர்கள் 59
▁போரிட்ட 59
▁போர்வீர 59
▁மகாராஜா 59
▁மண்டபம் 59
▁மாவட்டங்களை 59
▁மாஸ்கோவில் 59
▁முதலாக 59
▁முல்ல 59
▁மூலமாகவோ 59
▁மேலாண்மைக் 59
▁ராமன் 59
▁வளர்ந்துள்ளது 59
▁வழிவகுக்கிறது 59
▁வவு 59
▁வாயில் 59
▁வாரி 59
▁வால 59
▁விற்பனையாளர்கள் 59
▁விளைச்ச 59
▁வீதத்தில் 59
▁வீரவ 59
▁வேரூன்ற 59
1975 58
எம்டி 58
எஸ்ச 58
காந்த 58
கார்பன் 58
சேவை 58
டியிலிருந்து 58
டுகளைப் 58
ண்ணை 58
தனு 58
துகளின் 58
நலம் 58
நீரை 58
ன்மூலம் 58
பண 58
பிஏ 58
பிட் 58
பீல்ட் 58
ப்பகுதியை 58
ப்படைய 58
ப்பதிவு 58
ப்பத்திர 58
மரு 58
ரங்கள் 58
ருடனான 58
ர்கர் 58
ர்மன் 58
லிலிருந்து 58
வுகளுக்கு 58
ஷ்மி 58
ஸால் 58
ஸோ 58
ஸ்டை 58
ாத்த 58
ானாக 58
ிட்டல் 58
ினரால் 58
ியாங் 58
ுக்கிட 58
ுதும் 58
்காலத்தில் 58
▁அக்கட்சி 58
▁அண்மைக்கால 58
▁அதிகபட்சம் 58
▁அலக 58
▁அலகாபாத் 58
▁அல்ப 58
▁ஆக்சிஜன் 58
▁ஆண்டுகளுக்குள் 58
▁ஆர்வலர்கள் 58
▁ஆற்றி 58
▁இக்கு 58
▁இடம்பெற்றுள்ளது 58
▁இணக்கமான 58
▁இணைக்கப்பட்டு 58
▁இயல் 58
▁இருபத்து 58
▁இலங்கையிலும் 58
▁இளமை 58
▁இவர்களது 58
▁இவர்களே 58
▁உடைகள் 58
▁உண்ண 58
▁உயிரிழந்தார் 58
▁உல் 58
▁ஊடுருவல் 58
▁ஊர்வலத்தில் 58
▁எட்டியது 58
▁எட்வர்ட் 58
▁எதிராகத் 58
▁என்பதைவிட 58
▁ஏதுவான 58
▁ஏற்றுக்கொண்டார் 58
▁ஒன்றிணைக்க 58
▁ஒன்றைப் 58
▁ஓடு 58
▁ஓட்டுநர் 58
▁கடவு 58
▁கட்சியைச் 58
▁கட்டளைகளை 58
▁கட்டுவ 58
▁கரையில் 58
▁கற்கள் 58
▁கற்பிக்க 58
▁கலிலேய 58
▁காங்கிரச 58
▁கார்த்திக் 58
▁காற்றின் 58
▁கிழக்கே 58
▁கொடுக்கின்றன 58
▁கொரியாவின் 58
▁கோட்பாடுகள் 58
▁சாட்சிகள் 58
▁சின்னமாக 58
▁சில்வா 58
▁செயல்களுக்கு 58
▁செயல்பாடுகளின் 58
▁செய்தும் 58
▁செல்வதாக 58
▁செழிப்பு 58
▁சேகரிக்கும் 58
▁ஜெயலலிதா 58
▁தமிழர்களின் 58
▁தமிழ்ப் 58
▁தரப்பட்டுள்ளது 58
▁தள்ளு 58
▁துடை 58
▁தூண்டுதல் 58
▁தொழிற்சாலையில் 58
▁நடமா 58
▁நழுவ 58
▁நாண 58
▁நிகழ்ச்சியாக 58
▁நிறைவடைந்தது 58
▁நிலைக்க 58
▁நிலையற்ற 58
▁நேர்ம 58
▁நோய்வாய் 58
▁பகிர்வ 58
▁பஞ்சம் 58
▁பணிமன 58
▁பதிலீடு 58
▁பரிமாற்றத்தை 58
▁பள்ளிகளுக்கு 58
▁பள்ளிக்கூடம் 58
▁பாலிவு 58
▁பிள்ளைகளை 58
▁புறக்கணித்து 58
▁புறக்கணிப்பு 58
▁பெரியாரின் 58
▁பெருக்கம் 58
▁பெற்றால் 58
▁மகிழ்ச்சியாக 58
▁மத்தியக் 58
▁மரங்களை 58
▁மார்க்கெட் 58
▁மிசோ 58
▁முதலீட்டாளர் 58
▁முன்வைத்தார் 58
▁முரட்டு 58
▁முறையைப் 58
▁முழுமைக்கும் 58
▁ரத்னா 58
▁ரமண 58
▁வன்னி 58
▁வழங்கத் 58
▁வாடகைக்கு 58
▁விதிகளின்படி 58
▁வில்லை 58
▁வெளிப்படுகிறது 58
▁ஸ்டீல் 58
இந்தியாவின் 57
என்ஏ 57
காத 57
க்கால் 57
ங்களுமே 57
சியோ 57
ச்சந்தை 57
டுவதையும் 57
ண்டல 57
திக்கப்பட்ட 57
தொழில் 57
நாயுடு 57
ந்திரி 57
பாட் 57
பிரா 57
ப்பட்டிருந்தன 57
ப்ரா 57
மாக்கியது 57
மான்கள் 57
மீர் 57
ராகக் 57
ரோஸ் 57
ர்கிறது 57
லிங் 57
ழ்ந்து 57
வர்தன 57
வாழ்க்க 57
ாட்சியின் 57
ாவிலேயே 57
ிசை 57
ித்திறன் 57
ினியின் 57
ிப்புக் 57
ீவ் 57
ுகூ 57
ுக்களால் 57
ுன் 57
ுவருகின்றன 57
ைகார 57
்கி 57
▁ஃபி 57
▁அன்பளிப்ப 57
▁அமிதா 57
▁ஆகியவற்றைத் 57
▁ஆராய்ச்சிப் 57
▁ஆராய்ச்சியை 57
▁ஆஸ்த 57
▁இக்குழு 57
▁இந்தியச் 57
▁இந்நிலை 57
▁இருட்ட 57
▁இறுதிக் 57
▁இவ்விழாவில் 57
▁உச்சத்தை 57
▁உட்பிர 57
▁உணவுகள் 57
▁உலகப்போர் 57
▁எட்டி 57
▁என்பதிலிருந்து 57
▁எரிக்க 57
▁ஏஞ்ச 57
▁ஏற்படுத்தின 57
▁ஓடிய 57
▁கடுமையாகப் 57
▁கடைசிய 57
▁கண்காணித்தல் 57
▁கலகம் 57
▁கல்வித்த 57
▁காப்பா 57
▁கிரீ 57
▁கிலோமீட்டர்கள் 57
▁கிளைகள் 57
▁குடியரசில் 57
▁கெம்ப 57
▁கொண்டுசெல்ல 57
▁கோல்க 57
▁சித்திரம் 57
▁சூற 57
▁ஜெனர 57
▁ஜெயின் 57
▁தத்துவத்தை 57
▁தன்னைக் 57
▁தியாகிகள் 57
▁துறைமுகப் 57
▁தூக்கிய 57
▁தெய்வ 57
▁தெய்வீக 57
▁தேவைக்கேற்ப 57
▁தோறும் 57
▁நாகர் 57
▁நித 57
▁நிலைகளை 57
▁பங்குபெற 57
▁பணிக்க 57
▁பதவிக்காலம் 57
▁பரிந்து 57
▁பருவகால 57
▁பாத்தி 57
▁பிக 57
▁பிடிக்கப்பட்ட 57
▁பிடு 57
▁பிரகா 57
▁பிரம்மாண்ட 57
▁புதல் 57
▁புதிதாகத் 57
▁புறப்படும் 57
▁பூர்ணிமா 57
▁பெருக்கிக் 57
▁பேராசிரிய 57
▁பொருட்களைக் 57
▁மரணதண்டனை 57
▁மற்றவர்களை 57
▁மிகச்சிற 57
▁மிதமான 57
▁மின்க 57
▁மில்ல 57
▁முதலிட 57
▁முறையைக் 57
▁முழுமை 57
▁முஸ்லீம்கள் 57
▁மொழிப் 57
▁யுஎஸ் 57
▁யோகம் 57
▁ராமானு 57
▁ரைன் 57
▁வட்டாரம் 57
▁வளங்களையும் 57
▁வழக்கின் 57
▁வழங்குகின்றன 57
▁வழிம 57
▁வானம் 57
▁வாய்ந்ததாக 57
▁விடாமல் 57
▁விரதம் 57
▁விளையாட்டுகளில் 57
▁வெளிப்பாட்ட 57
▁வெளிவந்தது 57
▁ஹெச் 57
ä 56
இசி 56
ங்கிக் 56
சிட 56
ச்சால 56
டித்தல் 56
நடை 56
பாச 56
ப்பதைக் 56
மம் 56
மல்லாமல் 56
முடி 56
மைச்ச 56
மையைச் 56
ருதி 56
ர்களாலும் 56
லையின் 56
ளப் 56
ளே 56
ளைச் 56
வரில் 56
விரும்ப 56
ஷல் 56
ஷ்யா 56
ானவை 56
ாய்ப் 56
ாளர்களுக்கான 56
ாளும் 56
ிறனை 56
ிறுக்க 56
ுதலுடன் 56
ுதியாக 56
ூடம் 56
ென்ப 56
்டு 56
▁அனுமான 56
▁அன்றே 56
▁ஆடுகளை 56
▁ஆட்சிப் 56
▁ஆபத்த 56
▁ஆரம்பம் 56
▁ஆவணத்தில் 56
▁இந்தியர்களும் 56
▁இயற்பியல் 56
▁இரக்கம் 56
▁இலக்கம் 56
▁இளையராஜா 56
▁உடல்கள் 56
▁உத்திரப் 56
▁உயிர்கள் 56
▁உறுப்பினர்களைக் 56
▁உழைப்ப 56
▁எல்ப 56
▁ஒப்பிட்டுப் 56
▁ஒழு 56
▁கடற்கரையில் 56
▁கடுங்கோ 56
▁கட்டங்களில் 56
▁கயிறு 56
▁கருத்துரு 56
▁கரோ 56
▁கறு 56
▁கலவரம் 56
▁கல்விக்க 56
▁காங்கிரசில் 56
▁காணமுடியும் 56
▁காணிக்கை 56
▁காணுதல் 56
▁காத்திருக்கும் 56
▁காப்பக 56
▁காளை 56
▁கிடைக்கு 56
▁குடிபெயர்ந்த 56
▁குறிப்பிடுவது 56
▁குறைத்தது 56
▁குறைவ 56
▁குழந்தைக்கு 56
▁குழந்தையின் 56
▁கூகுள் 56
▁கேரளாவின் 56
▁கொலையாள 56
▁கோவ 56
▁க்யூ 56
▁சண்டிகர் 56
▁சல்மான் 56
▁சிய 56
▁சிறி 56
▁சுருங்க 56
▁செல்லுபடிய 56
▁ஜாம் 56
▁தஞ்சாவூர் 56
▁தரவுகளை 56
▁தளர்வ 56
▁தாழ்ந்த 56
▁தாவரங்கள் 56
▁தெரிவிக்கிறார் 56
▁நாயர் 56
▁நிகோபார் 56
▁நிரப்பி 56
▁நிரம்ப 56
▁நிற்பது 56
▁நிலைக்குத் 56
▁நீதிமன்றத் 56
▁பகுதியையும் 56
▁பங்களித்த 56
▁பதிவுகள் 56
▁பத்திரம் 56
▁பரவலாக்க 56
▁பராமரிக்கும் 56
▁பர்ம 56
▁பல்துறை 56
▁பழக்கத்தை 56
▁பாட்டாளி 56
▁பாதுகாக்கப்பட்ட 56
▁பாதுகாவ 56
▁பாய்ந்து 56
▁பியர் 56
▁பிரிக்கும் 56
▁பிரேம் 56
▁பொன்ம 56
▁போர்க்க 56
▁மலி 56
▁மலையே 56
▁முகமாக 56
▁முயல் 56
▁முறைக 56
▁மேலாண்மையில் 56
▁மைக 56
▁ரூஸ் 56
▁லக்ஷ் 56
▁லார 56
▁வடிகால் 56
▁வடிவமைத்து 56
▁வளர்த்தல் 56
▁வாராந்திர 56
▁வாழ்கின்ற 56
▁விதியை 56
▁வியக்க 56
▁விருந்தினர் 56
▁விளம்பரங்கள் 56
▁வேடங்களில் 56
▁வேட்டை 56
▁வைத்துள்ளனர் 56
▁ஷீ 56
127 55
ஃபோ 55
உற்பத்தி 55
சுக்க 55
டாத 55
டிங் 55
ட்களின் 55
ணவு 55
தற்குத் 55
[...]
