▁the 574648
▁, 377436
▁. 339531
▁of 312358
▁and 252364
▁to 210015
▁in 181449
▁ 136167
▁a 129799
ap 112715
os 110224
; 107180
▁& 107163
▁for 87667
▁that 82897
▁is 79341
s 72524
▁on 61703
2 60105
▁with 48585
▁by 47201
▁as 46378
0 45460
▁has 44434
▁be 42292
▁he 41799
▁this 41585
▁it 39608
▁was 38382
ing 38103
▁have 38052
▁will 35523
▁are 35197
▁from 32604
▁at 31650
ed 29759
i 28579
▁india 27825
▁an 27397
▁minister 27373
▁not 27292
▁i 26806
▁his 25392
▁said 25050
▁all 24238
al 24099
▁government 22746
▁been 22588
▁you 22474
▁their 22135
▁also 21893
▁we 21853
h 21235
ar 21109
a 20233
▁they 20225
▁which 20178
an 19129
▁prime 18969
▁sh 18611
▁us 18227
▁people 17742
▁its 17446
es 17088
▁were 17086
1 16988
▁but 16937
ri 16731
▁our 16576
▁n 16545
at 16080
▁s 15671
▁k 15490
▁had 15477
▁up 14959
▁there 14660
▁who 14094
▁new 14053
ers 14010
▁one 13955
▁out 13636
▁country 13532
p 13490
▁t 13484
▁p 13432
ly 13325
ation 13287
j 13192
u 12987
▁over 12706
▁or 12681
▁r 12608
▁more 12527
▁under 12404
▁would 12211
y 12198
▁un 12197
▁them 12101
am 12007
t 11934
ad 11891
▁shall 11782
▁m 11730
▁b 11728
00 11585
▁these 11575
ate 11510
▁l 11478
▁g 11449
▁j 11248
▁world 11237
in 10908
▁state 10709
▁about 10518
▁my 10455
▁war 10396
▁other 10218
▁against 10196
5 10153
▁no 10117
▁d 10079
id 10077
ist 9910
▁your 9844
o 9793
th 9789
▁after 9778
▁him 9741
▁ministry 9731
er 9668
as 9607
it 9527
▁can 9509
▁president 9490
▁than 9385
k 9357
▁when 9327
re 9257
3 9201
▁only 9193
e 9168
▁development 9139
▁national 9129
▁so 9071
▁today 8983
ment 8949
▁two 8888
▁years 8869
▁into 8750
ations 8634
▁such 8611
▁being 8508
▁now 8496
▁indian 8475
ur 8396
▁between 8376
ions 8365
m 8348
ra 8298
▁through 8284
▁time 8280
ay 8248
▁union 8237
▁any 8201
▁made 8162
ism 8157
▁year 8076
b 8059
ity 8025
able 7982
c 7972
▁c 7918
d 7895
▁if 7844
▁film 7803
ai 7659
▁v 7637
▁party 7624
and 7542
▁lord 7541
▁me 7496
▁social 7488
▁political 7473
il 7464
▁last 7451
um 7433
▁day 7407
▁during 7348
▁am 7346
▁mod 7342
f 7331
ak 7323
4 7223
ic 7220
▁first 7084
ated 7030
▁work 6986
ir 6966
19 6957
r 6930
har 6906
▁she 6904
▁should 6881
▁w 6881
▁international 6855
▁her 6833
▁even 6828
▁f 6707
▁y 6699
▁health 6696
w 6687
▁like 6614
▁cro 6585
▁working 6581
is 6555
ath 6465
st 6452
▁many 6439
▁man 6424
n 6402
g 6345
▁military 6291
en 6239
▁economic 6198
▁workers 6179
▁may 6176
hi 6075
▁do 6049
▁states 6034
amil 6015
aren 5989
▁public 5939
ance 5904
▁well 5869
ating 5846
or 5836
ive 5814
▁iraq 5813
▁h 5804
▁those 5797
▁per 5795
▁every 5762
▁some 5747
▁make 5689
▁then 5689
▁st 5685
ah 5633
? 5619
▁pr 5610
av 5609
▁countries 5608
on 5604
ion 5557
▁support 5528
dra 5467
▁re 5458
▁while 5415
6 5405
im 5357
ab 5356
▁what 5337
▁both 5317
▁including 5278
▁ind 5231
ash 5211
ish 5204
▁ch 5163
▁percent 5090
v 5070
▁en 5057
▁before 5049
el 5023
7 4966
ors 4966
up 4960
ings 4913
ies 4910
▁take 4896
▁come 4884
akh 4877
ant 4869
▁e 4837
ia 4831
▁just 4830
18 4824
ag 4814
,000 4787
▁part 4779
▁where 4762
l 4755
▁class 4738
ya 4712
han 4688
▁se 4659
un 4648
▁further 4643
▁most 4628
ent 4594
us 4591
ness 4575
▁power 4543
8 4540
▁security 4534
▁very 4502
▁sector 4458
▁given 4452
▁could 4418
▁since 4417
et 4414
ha 4406
▁pm 4394
▁raj 4390
ks 4372
▁three 4355
▁because 4351
ge 4323
ut 4319
▁water 4293
ch 4287
▁god 4253
ise 4249
▁global 4240
▁cov 4231
▁cooperation 4222
▁israel 4209
▁house 4204
▁taken 4172
▁high 4165
▁technology 4135
▁policy 4131
▁place 4120
▁right 4117
▁system 4098
▁go 4087
▁bush 4086
ud 4080
, 4078
▁con 4055
▁police 4054
15 4037
▁hand 4036
’ 4030
▁way 4029
▁dis 4019
▁central 4018
▁number 4013
▁down 4010
se 3989
ens 3987
▁children 3965
▁must 3954
▁meeting 3931
▁days 3901
te 3885
▁various 3883
▁role 3879
ul 3878
▁post 3875
▁cabinet 3865
he 3852
▁life 3848
▁financial 3847
▁great 3830
▁how 3823
end 3822
▁del 3807
ana 3801
▁sri 3801
▁same 3800
▁end 3799
▁among 3798
▁office 3798
▁address 3786
ised 3781
▁dr 3778
▁land 3770
▁administration 3764
ary 3762
9 3730
▁back 3727
▁capital 3722
▁energy 3696
▁ra 3683
ine 3675
▁major 3675
als 3670
▁present 3665
ts 3663
▁o 3659
▁scheme 3659
▁far 3653
▁did 3641
▁came 3639
▁women 3639
ates 3634
▁nation 3633
▁own 3628
▁de 3616
▁sp 3611
▁areas 3594
man 3575
▁education 3560
▁need 3529
▁set 3524
▁th 3518
z 3516
▁terror 3497
ach 3492
▁american 3476
▁help 3472
ure 3452
▁trade 3449
17 3447
age 3445
▁farmers 3441
▁according 3425
▁put 3414
▁act 3402
ments 3401
▁good 3393
adesh 3384
▁al 3383
▁foreign 3374
▁important 3370
▁provide 3367
▁business 3362
▁bl 3356
▁long 3351
▁democratic 3349
▁lank 3336
▁che 3331
le 3322
▁sc 3309
▁however 3307
▁human 3307
▁forces 3306
▁towards 3291
▁held 3290
om 3276
▁election 3263
▁called 3257
▁pro 3248
iv 3244
▁special 3232
▁bank 3208
▁united 3202
▁left 3199
▁chief 3198
ind 3189
ac 3185
▁peace 3184
▁see 3172
▁students 3171
ot 3158
▁campaign 3155
ans 3153
ists 3148
▁services 3142
res 3133
▁region 3126
▁general 3125
▁another 3120
▁within 3108
▁ab 3100
▁app 3093
▁order 3080
▁efforts 3067
▁media 3060
ou 3057
▁across 3054
day 3052
▁son 3041
▁fact 3021
▁socialist 3015
▁department 3014
ged 3013
▁defence 3003
ve 2977
▁economy 2966
▁off 2958
▁leaders 2944
▁city 2943
ial 2939
▁secretary 2935
▁get 2934
▁million 2931
est 2924
ip 2921
▁members 2913
ol 2911
▁pay 2907
▁youth 2906
▁several 2900
ast 2899
▁projects 2899
▁ar 2894
▁project 2891
▁crisis 2890
▁used 2885
▁become 2879
▁without 2879
▁industry 2877
▁took 2877
▁sw 2873
▁ass 2866
▁visit 2866
▁here 2865
ous 2864
▁food 2859
ara 2845
▁sing 2844
▁use 2843
▁already 2842
▁affairs 2838
ely 2837
▁conf 2831
▁based 2828
▁east 2805
ized 2801
▁home 2799
em 2791
▁times 2782
▁told 2782
▁family 2781
▁opposition 2781
▁next 2771
▁rights 2769
ari 2756
▁due 2756
▁lt 2745
▁movement 2743
▁around 2737
▁added 2733
▁four 2730
ib 2722
▁ma 2710
▁air 2704
ities 2702
▁director 2694
ma 2687
▁give 2686
▁information 2679
▁ex 2674
▁law 2673
▁friends 2669
▁service 2662
▁tax 2652
▁society 2621
▁real 2618
▁research 2615
ry 2610
ore 2605
▁know 2603
▁making 2601
▁king 2596
ase 2595
▁say 2584
ater 2583
▁together 2578
ence 2571
ias 2568
od 2567
▁best 2564
▁growth 2561
▁action 2559
▁parties 2557
▁bh 2555
▁european 2555
▁civil 2553
▁infrastructure 2553
▁period 2549
▁programme 2549
sh 2548
▁poor 2545
▁men 2543
▁young 2538
▁ad 2535
▁north 2532
▁following 2528
▁future 2526
▁films 2522
ov 2517
▁officials 2513
▁sub 2513
▁level 2510
▁total 2501
ian 2497
▁mass 2495
ig 2485
ting 2484
▁ins 2484
old 2482
ally 2479
▁finance 2477
▁mission 2474
▁month 2469
▁much 2469
ines 2468
the 2465
▁south 2459
▁five 2454
▁each 2453
ik 2451
▁done 2450
all 2445
its 2443
ful 2439
led 2438
▁sl 2436
▁gu 2434
▁ut 2432
! 2429
▁let 2429
▁change 2428
14 2424
▁vice 2422
▁press 2421
▁report 2419
▁past 2417
ang 2416
ite 2415
▁governments 2410
ro 2407
▁measures 2405
ake 2404
ious 2402
▁occasion 2401
▁im 2389
ative 2388
▁agreement 2385
aw 2382
16 2371
ie 2369
▁sent 2365
▁protest 2356
ide 2355
oc 2352
▁council 2352
▁force 2352
ired 2346
▁pl 2346
og 2345
▁went 2343
ted 2341
▁ur 2334
▁washington 2334
▁ensure 2333
op 2331
▁increase 2328
▁san 2326
▁again 2323
▁le 2322
▁z 2319
▁oil 2316
▁former 2308
▁free 2308
▁welfare 2305
▁months 2303
11 2295
▁case 2295
▁control 2292
▁innov 2289
▁streng 2289
▁process 2287
▁field 2285
▁small 2284
ok 2282
▁building 2279
▁father 2277
▁centre 2267
▁lives 2266
▁production 2265
▁cost 2264
gr 2255
▁situation 2254
▁population 2253
▁def 2249
▁medical 2246
▁few 2245
▁ne 2243
▁deep 2239
▁bring 2224
▁inaug 2224
ush 2220
▁china 2220
▁investment 2212
▁name 2210
▁second 2205
▁open 2196
▁sa 2194
▁court 2193
▁brought 2185
▁french 2182
▁ram 2181
▁ant 2180
▁saying 2178
▁entire 2175
▁market 2173
▁pra 2172
▁committee 2170
ard 2169
▁big 2166
▁management 2164
▁area 2162
ain 2158
▁inc 2158
▁pakistan 2158
▁different 2156
▁billion 2155
ama 2154
▁france 2152
▁strong 2149
▁large 2141
▁science 2139
▁sm 2125
▁group 2122
▁therefore 2118
ms 2116
▁along 2112
▁inter 2109
▁march 2109
▁progress 2104
▁announced 2096
▁district 2092
▁int 2088
▁program 2088
▁rural 2088
▁trans 2088
▁conference 2085
▁dev 2085
▁week 2082
na 2080
ization 2073
▁ag 2070
ants 2068
▁april 2067
▁army 2067
▁interests 2065
▁tal 2063
nn 2062
▁ent 2056
ass 2054
iz 2053
▁cut 2052
ver 2049
▁issues 2047
▁local 2047
ter 2046
▁heart 2042
ala 2036
▁labour 2035
▁el 2028
▁prov 2028
ith 2025
ev 2023
atives 2019
▁agriculture 2019
▁clean 2017
▁going 2016
ark 2013
ail 2007
▁pre 2007
▁start 2006
▁call 2004
▁why 2002
ives 2001
▁away 1999
▁things 1999
▁launched 1997
▁rest 1994
ling 1989
com 1972
ability 1970
ically 1967
▁cities 1966
▁cl 1962
ost 1961
▁interest 1958
▁par 1958
▁nations 1952
are 1951
▁taking 1948
▁bill 1944
▁decision 1942
▁parliament 1941
▁joint 1935
men 1934
▁found 1933
▁provided 1933
▁exp 1932
▁received 1932
uring 1931
▁commission 1928
▁face 1924
▁road 1923
▁form 1919
▁possible 1916
▁nad 1914
▁br 1913
▁living 1909
▁private 1908
▁co 1907
ical 1904
▁better 1900
ality 1898
▁does 1898
▁direct 1888
▁gas 1888
▁training 1886
▁conditions 1885
▁official 1881
▁too 1881
▁declared 1880
▁bo 1874
▁forward 1873
ging 1871
▁ob 1871
les 1870
▁demand 1866
▁released 1866
▁citizens 1864
aries 1863
▁community 1860
uk 1859
▁struggle 1856
itation 1853
▁hero 1853
▁opportunity 1852
▁care 1851
ill 1849
▁institutions 1849
▁rep 1848
▁companies 1845
▁vi 1844
▁budget 1843
▁event 1840
▁clear 1839
▁middle 1839
▁head 1836
▁itself 1835
▁full 1833
ages 1832
▁old 1832
▁able 1831
▁benefit 1831
▁means 1829
▁less 1827
ats 1823
uc 1821
▁issue 1821
▁ruling 1821
▁don 1820
▁fight 1820
▁trib 1820
▁“ 1820
▁still 1818
▁europe 1815
▁comp 1814
▁secret 1812
▁congress 1811
der 1807
ust 1805
ute 1805
▁iran 1803
▁policies 1802
▁officers 1801
▁mr 1798
▁others 1795
▁regime 1795
tar 1794
▁want 1792
▁deal 1791
ivity 1790
▁afghanistan 1790
▁september 1790
ians 1789
13 1787
umb 1786
▁imp 1785
▁foundation 1784
▁mad 1784
▁equ 1783
▁har 1781
▁port 1781
▁cha 1778
▁seen 1778
our 1775
ess 1768
▁common 1763
▁led 1762
ub 1758
▁account 1758
ators 1756
▁attack 1756
▁activities 1747
▁increased 1746
▁function 1740
▁german 1740
▁top 1740
▁jud 1738
▁basis 1736
ee 1734
▁troops 1730
ified 1728
▁expressed 1727
isation 1725
▁invest 1725
▁partnership 1722
▁elections 1721
▁relations 1721
▁u 1716
▁having 1713
▁resources 1712
▁june 1711
urs 1710
▁once 1710
ile 1703
▁university 1703
▁sab 1700
▁gl 1695
▁ever 1691
▁yet 1691
▁school 1682
▁gave 1681
▁story 1680
ize 1678
ps 1676
▁recent 1676
▁continue 1675
▁thus 1674
▁october 1673
less 1670
▁leader 1669
▁gre 1667
▁asked 1666
▁earlier 1666
▁growing 1663
▁nor 1662
air 1660
iah 1659
▁met 1659
▁started 1656
▁plan 1655
▁employment 1653
ets 1651
▁money 1648
▁rem 1645
ances 1643
▁digital 1643
▁aware 1638
ites 1633
▁mah 1632
▁bar 1629
▁current 1627
▁‘ 1627
ram 1626
▁leadership 1623
▁july 1622
▁mo 1619
▁self 1619
▁works 1618
000 1617
ory 1614
▁prior 1614
▁spoke 1613
▁initi 1612
▁environment 1611
ention 1610
art 1609
▁available 1608
ification 1607
▁person 1602
▁january 1598
if 1596
▁aim 1594
▁result 1593
▁company 1590
▁ministers 1590
▁rel 1589
▁tr 1588
iness 1587
fic 1586
hem 1586
▁wel 1586
▁show 1584
▁compl 1582
▁threat 1582
bo 1579
ured 1577
▁0 1576
▁history 1576
▁six 1575
▁transform 1573
▁transport 1573
▁providing 1572
▁ago 1561
▁death 1561
ees 1559
ration 1555
▁agreed 1554
▁upon 1554
▁cases 1553
▁mant 1553
▁facilities 1548
” 1547
▁approved 1546
▁commit 1546
▁doing 1545
▁cent 1543
ned 1542
▁thousands 1542
▁implementation 1537
▁attacks 1536
▁member 1536
▁income 1535
▁needs 1534
▁question 1534
of 1532
▁brothers 1532
▁though 1531
▁themselves 1529
ce 1526
ins 1526
▁capacity 1526
▁wh 1526
▁got 1525
▁sin 1524
▁key 1522
▁access 1519
▁whole 1518
▁cont 1514
▁mother 1514
▁non 1514
ja 1513
war 1513
▁nuclear 1513
ower 1512
▁institute 1511
▁pass 1511
▁assistance 1510
ati 1509
▁lay 1507
down 1505
▁review 1505
▁ay 1502
▁might 1502
▁hard 1501
▁share 1501
▁banks 1500
▁sur 1500
▁november 1499
▁bil 1497
▁res 1497
ced 1496
▁leading 1493
▁west 1493
ice 1492
▁impact 1492
▁related 1491
▁point 1490
ger 1489
▁des 1488
ons 1487
▁germany 1485
▁decided 1484
▁families 1480
▁discuss 1477
▁fund 1477
ug 1476
▁bi 1476
▁respect 1476
ow 1475
▁asia 1474
▁lo 1474
▁strike 1473
ving 1472
▁summit 1472
ci 1471
▁statement 1470
ani 1464
▁cannot 1464
▁rec 1463
▁signed 1461
▁rate 1458
▁ref 1457
▁vote 1455
▁close 1452
▁senior 1451
▁challeng 1450
▁line 1450
▁till 1449
▁short 1448
ending 1447
ran 1445
ues 1444
▁certain 1444
come 1443
ren 1442
▁coming 1441
▁freedom 1441
▁issued 1441
ination 1440
▁export 1440
▁hospital 1440
▁qu 1440
▁railways 1438
▁least 1437
az 1436
▁bal 1436
▁spread 1435
▁powers 1433
▁culture 1432
▁ro 1432
▁keep 1428
▁look 1427
ank 1426
ning 1425
▁importance 1424
▁mon 1423
▁board 1422
▁regional 1421
▁response 1421
iy 1417
▁space 1417
cy 1416
▁opportunities 1414
ka 1413
to 1412
▁tel 1412
row 1410
▁plans 1410
▁emp 1408
over 1405
▁beh 1405
▁focus 1402
▁british 1401
▁imperial 1400
▁build 1399
▁speaking 1396
▁throughout 1395
wing 1394
▁je 1394
ising 1393
pe 1393
▁directed 1393
▁live 1393
▁success 1393
ne 1391
▁groups 1391
med 1390
▁third 1390
pl 1388
▁meet 1388
▁never 1388
▁earth 1386
ures 1385
▁jobs 1385
▁especially 1384
▁fl 1384
▁host 1384
▁strategic 1384
▁main 1382
▁create 1381
▁problems 1381
▁turn 1375
▁august 1372
▁news 1372
▁cast 1371
▁govern 1371
▁whether 1371
▁col 1369
▁recently 1369
▁red 1369
▁using 1369
▁etc 1368
▁fire 1367
▁position 1367
utes 1366
▁inv 1366
ini 1365
oga 1365
ji 1364
▁na 1364
ung 1363
▁front 1363
▁establishment 1362
ics 1360
▁child 1360
▁connect 1360
▁near 1359
▁fe 1358
▁cr 1355
els 1354
▁release 1353
▁potential 1350
▁armed 1349
▁dem 1346
▁half 1346
▁ir 1345
▁kar 1343
ade 1342
mir 1342
▁always 1342
▁supply 1342
ied 1341
▁course 1340
▁himself 1340
▁industrial 1338
ined 1335
cl 1333
ressed 1332
▁enh 1332
ening 1331
▁largest 1331
▁vision 1331
▁bre 1330
▁mal 1330
▁thousand 1330
ves 1329
▁created 1329
▁happ 1328
▁target 1328
▁celebr 1326
▁says 1326
▁significant 1325
▁strength 1325
ose 1324
▁bene 1324
▁tra 1324
▁spirit 1323
▁higher 1322
▁prevent 1322
▁construction 1321
▁necessary 1321
▁quality 1321
▁ens 1320
▁thing 1320
att 1319
▁understanding 1319
rit 1317
▁december 1316
▁soldiers 1314
▁operations 1313
▁fear 1312
kar 1311
▁expected 1310
▁sal 1310
▁talk 1310
▁tourism 1309
▁gr 1307
▁soc 1307
▁alliance 1306
▁command 1306
▁steps 1306
▁offer 1305
▁villages 1304
red 1303
▁natural 1301
▁popular 1301
▁early 1300
▁broad 1299
▁independent 1299
▁modern 1296
▁whose 1294
emic 1293
▁democracy 1289
▁despite 1289
▁initiative 1289
▁dec 1288
▁em 1288
▁ph 1288
ois 1286
▁districts 1284
▁carried 1283
▁known 1282
▁palest 1278
ire 1275
▁step 1274
▁benefits 1273
▁lead 1273
ron 1268
▁comm 1261
▁return 1261
▁stand 1261
▁nothing 1258
ensions 1255
ester 1254
▁later 1254
ify 1250
ward 1249
▁mult 1249
▁kind 1248
▁reported 1248
rif 1247
▁gener 1247
▁prom 1246
▁eastern 1245
▁hon 1245
▁plant 1242
▁speech 1242
ulated 1241
▁david 1241
▁jan 1241
▁developed 1240
▁killed 1240
▁sustain 1240
▁products 1237
ury 1236
▁personnel 1234
▁republic 1234
▁laid 1230
▁urban 1230
▁view 1228
▁words 1228
▁bour 1227
▁team 1227
▁think 1227
ancing 1226
ble 1226
▁mos 1226
▁mind 1225
▁particularly 1225
▁noted 1224
▁staff 1224
ty 1222
ences 1220
▁appro 1220
▁neither 1219
▁independence 1215
ited 1214
▁knowledge 1213
ars 1212
▁adv 1212
▁det 1212
▁reforms 1212
▁ce 1211
▁behind 1210
▁constitution 1210
mer 1209
▁cor 1209
▁railway 1206
▁serious 1204
▁above 1202
▁majority 1201
▁february 1200
▁product 1199
▁reform 1198
▁sol 1198
▁saw 1197
▁soon 1196
▁conducted 1195
▁eu 1195
io 1193
▁russia 1193
ition 1190
▁sea 1188
▁shar 1188
▁continued 1187
▁chand 1186
▁include 1186
out 1185
▁elite 1184
▁facilit 1184
▁mand 1184
▁chairman 1183
▁promote 1183
▁sect 1182
▁persons 1181
▁justice 1180
▁greater 1179
▁side 1176
aya 1174
ication 1174
▁weapons 1174
ber 1173
▁nearly 1173
ace 1171
▁sections 1171
izing 1170
▁approval 1170
▁involved 1170
▁shooting 1170
▁america 1169
▁express 1169
▁limited 1168
▁stone 1168
▁politics 1167
ator 1166
▁sports 1166
▁develop 1163
▁interact 1163
▁hands 1161
bs 1160
▁play 1159
▁rev 1159
▁award 1158
▁believe 1158
▁job 1158
rep 1157
▁essential 1156
▁find 1156
▁village 1156
▁serv 1154
▁imm 1152
▁di 1151
▁light 1151
▁sar 1151
x 1150
▁lock 1149
▁music 1149
▁web 1148
▁lot 1147
▁speak 1147
▁prepared 1146
▁renew 1146
ension 1145
▁effort 1145
▁launch 1145
vi 1143
▁run 1143
anth 1142
ier 1142
▁car 1142
ams 1141
▁everyone 1141
then 1139
▁additional 1136
▁corporate 1136
▁milit 1136
▁prof 1135
▁until 1135
▁japan 1134
▁sons 1134
ph 1132
▁er 1130
ob 1128
ises 1127
▁intelligence 1127
▁responsibility 1127
▁previous 1126
qu 1124
▁enter 1124
anda 1123
▁coalition 1123
ped 1119
acy 1116
▁anniversary 1116
▁committed 1116
ign 1115
be 1113
▁tro 1113
▁existing 1112
▁gold 1111
▁hours 1111
▁move 1111
ric 1108
▁gather 1108
▁hope 1108
act 1106
▁stal 1106
▁pat 1105
▁protect 1104
▁safety 1104
▁age 1103
ys 1102
▁blood 1102
▁book 1101
▁won 1101
▁gen 1100
▁mentioned 1100
▁airport 1096
▁demonstr 1096
▁pressure 1096
▁whom 1096
▁encoura 1092
▁legal 1092
▁path 1092
ight 1091
▁hold 1090
▁manner 1088
▁stated 1088
ents 1087
ell 1086
her 1086
ue 1086
▁ap 1085
▁terms 1085
▁happy 1084
ship 1083
itude 1082
▁ev 1082
▁border 1081
▁required 1081
▁section 1080
▁pan 1079
▁round 1079
lo 1078
▁eng 1077
▁series 1077
▁conduct 1076
▁sisters 1076
▁houses 1075
ying 1074
▁israeli 1074
atic 1073
▁century 1073
▁commun 1073
▁rather 1073
▁seven 1073
▁improve 1072
▁matter 1072
31 1071
ened 1071
▁den 1071
▁produced 1071
▁standards 1071
▁programmes 1069
▁prop 1069
▁ic 1068
ots 1067
▁amount 1067
▁housing 1067
▁po 1067
▁places 1066
▁manufacturing 1065
▁huge 1064
▁undert 1063
ched 1062
▁details 1062
▁exchange 1062
▁ground 1060
amm 1058
▁generation 1058
▁example 1057
▁experience 1057
▁break 1055
▁list 1055
▁sac 1055
▁weeks 1055
ami 1054
▁low 1052
▁dead 1051
atory 1050
mar 1049
▁data 1049
▁mill 1049
▁authority 1048
▁lost 1048
▁sun 1048
ored 1047
▁resol 1045
▁ten 1045
hu 1044
per 1043
▁addition 1043
▁reason 1043
▁decades 1041
▁written 1040
▁contribution 1039
▁forth 1039
▁price 1039
▁similar 1039
▁dist 1038
▁la 1038
employ 1037
▁ha 1036
▁bet 1035
▁emb 1035
▁vis 1033
ways 1032
▁accept 1032
▁sup 1032
zy 1030
▁increasing 1029
▁su 1029
▁violence 1029
▁participation 1028
▁proposed 1028
▁art 1027
▁att 1027
▁video 1027
ively 1026
▁established 1026
▁mob 1026
▁worth 1026
▁regarding 1025
aken 1024
▁single 1024
ution 1023
▁final 1023
▁white 1023
▁conflict 1022
▁skill 1022
▁solar 1022
▁domestic 1020
▁rise 1020
▁began 1019
ered 1018
we 1018
▁mar 1018
ord 1017
▁built 1017
▁parts 1017
▁presidential 1017
▁festival 1016
ction 1015
▁trust 1015
ational 1014
ong 1013
▁deleg 1013
▁pun 1013
au 1012
▁river 1011
way 1010
▁value 1010
▁witness 1010
ham 1009
ony 1009
▁revolution 1009
und 1007
▁association 1007
▁min 1007
co 1006
ven 1006
▁date 1006
▁ms 1006
▁remain 1005
▁climate 1004
▁amb 1003
▁cause 1002
▁ran 1002
ec 1001
▁africa 1001
▁gang 1001
ali 997
▁occupation 997
▁online 997
▁effective 996
ense 995
▁highlight 995
pur 994
▁ba 994
▁emphas 994
▁shared 992
▁became 991
▁conv 990
▁rule 988
▁op 987
▁consider 986
ep 985
ident 985
▁cultural 985
▁bag 984
▁beng 984
▁sign 984
▁credit 983
▁emer 983
▁inf 983
▁paid 982
▁– 982
▁disc 981
▁events 981
amb 980
arn 980
▁heard 980
▁prosper 980
▁test 978
▁sides 977
aff 976
ky 976
one 976
▁reach 976
▁mark 975
hed 974
▁platform 974
▁sure 973
▁treatment 973
▁authorities 971
▁personal 971
gh 970
▁centres 970
idence 969
wa 969
▁tim 969
hold 968
ss 968
▁green 968
ished 967
▁informed 967
ible 965
▁birth 965
esh 964
nes 964
▁tw 964
ility 963
▁ge 963
▁implement 963
▁af 962
▁concerned 962
▁coal 960
▁little 960
▁reports 959
▁schools 959
ata 958
▁love 958
▁fast 957
ours 956
▁acting 956
▁daily 956
▁decl 956
alled 955
▁stri 955
ada 954
asi 954
▁giving 954
▁systems 954
amp 953
hood 953
ict 952
so 952
▁demands 952
▁operation 952
▁protection 952
▁acc 951
▁candidate 951
▁getting 951
▁instead 951
▁character 950
▁comes 950
▁mer 950
▁funds 949
▁hundred 949
▁tom 949
▁var 949
ering 948
▁fulf 948
▁night 948
ta 947
▁basic 947
dp 946
▁federal 945
pr 944
che 943
▁completed 943
▁fr 943
▁priest 943
▁almost 942
▁organized 942
▁electricity 941
▁nit 941
â 940
▁base 939
▁message 939
▁und 939
▁positive 938
▁bab 937
▁sam 936
istic 935
▁directly 934
▁worked 934
▁achie 933
▁nam 933
▁employees 932
▁problem 932
▁memor 930
ained 929
rd 929
tra 929
▁actions 929
▁aimed 929
▁prev 929
▁article 928
▁britain 928
▁organisation 928
▁responsible 928
▁arab 926
▁contract 926
▁aid 925
▁complete 925
▁kh 925
▁bur 924
▁reg 924
▁poll 923
equ 922
▁developing 922
▁poverty 922
ale 921
▁morning 921
▁hind 920
▁language 920
▁seek 920
ann 919
▁contrib 918
▁turned 918
▁framework 916
▁perspective 915
ote 913
▁hundreds 913
▁ah 912
▁industries 912
▁played 912
▁teachers 912
▁achieve 911
▁egypt 911
▁expl 911
▁objective 911
▁site 911
75 910
▁challenge 908
▁republican 908
▁markets 907
▁div 905
▁word 905
▁direction 904
ards 902
ium 901
▁representatives 900
isc 899
line 899
▁massive 898
▁successful 897
int 896
▁econom 896
▁unit 896
▁body 895
▁regard 895
ches 894
▁college 894
▁monitor 894
▁sought 893
▁affected 892
▁allow 891
▁immediately 891
▁island 891
▁offering 891
▁pres 891
▁voice 891
▁disaster 890
▁jay 890
▁organis 890
▁setting 889
▁vik 889
▁cons 888
▁nature 888
▁fore 887
▁guid 887
▁patients 886
▁technical 886
ones 885
é 885
▁jerusalem 885
▁presence 885
▁relief 885
uted 884
▁establish 884
▁feel 884
▁record 884
▁suggest 884
▁russian 883
▁fall 882
▁changes 880
▁likely 880
▁communist 879
▁something 878
uv 877
ulate 876
▁indians 876
adi 875
▁attempt 875
▁ven 875
iter 873
min 873
▁fighting 873
ining 872
▁gri 872
aka 870
oth 870
▁employ 870
▁outside 870
▁jesus 869
▁visited 869
▁agricultural 868
▁approach 868
▁reduce 865
ds 862
year 862
▁annual 860
▁prices 860
▁goods 859
▁speed 859
▁brother 858
▁gar 857
ains 856
ishes 856
pir 856
▁creating 856
▁remember 856
▁rich 856
ika 855
▁beginning 855
▁evidence 855
▁none 853
▁officer 853
▁scale 853
▁bra 852
ably 850
▁holy 850
▁labor 850
▁lack 850
▁net 850
▁temple 850
▁cap 848
▁emergency 848
▁latest 848
▁laws 847
ich 845
me 845
▁cover 845
▁implemented 844
cess 843
elled 843
▁network 843
▁particular 843
▁concern 841
▁link 841
▁nat 841
▁dedicated 840
35 839
▁followed 839
ack 838
▁session 838
▁strategy 837
▁mobile 836
▁te 836
ices 835
va 835
hes 834
▁commerce 833
▁fundamental 833
▁ties 831
▁val 831
▁interv 830
ner 828
▁hit 828
ately 826
▁sil 826
▁subject 826
care 825
rad 825
▁insurance 825
▁camp 824
▁candidates 824
▁charge 824
▁hear 824
▁organ 824
▁associated 823
icit 822
▁alone 822
▁eat 822
▁fourth 822
▁institution 822
▁collaboration 821
▁discussion 821
▁provides 820
▁smart 820
▁testing 820
ping 819
▁gur 819
▁resolution 819
▁claims 818
▁cur 818
▁mutual 818
ows 817
▁ke 817
ond 816
▁ash 816
▁parliamentary 815
iation 814
▁ready 814
anded 813
▁agencies 813
▁kam 813
▁facility 811
▁produce 810
▁effect 809
▁gra 809
▁participated 809
▁presented 809
▁extended 808
ously 807
▁pol 807
ery 806
pa 806
aman 805
▁results 805
▁term 805
ress 804
▁awards 804
▁true 804
▁calls 803
▁kr 803
▁thought 803
▁util 803
▁super 802
▁loss 801
▁read 800
eral 799
▁deliver 799
▁task 798
▁safe 797
▁chinese 796
▁understand 796
well 795
▁hy 795
▁york 795
eds 794
▁ahead 794
▁cooper 794
▁mond 794
▁station 794
▁supported 794
▁vast 794
rib 792
▁seeking 792
▁wife 792
▁str 791
▁com 790
▁makes 790
aining 789
▁passed 789
pt 788
▁estimated 788
sc 787
▁serve 787
ame 786
▁ple 786
▁sch 786
▁scientists 786
▁dam 785
▁pray 785
ert 784
▁carry 784
▁included 783
▁od 782
▁stop 782
▁train 781
▁wall 781
▁consult 780
▁explained 780
ented 779
▁accounts 779
▁excell 779
▁ps 779
▁block 778
▁claim 778
iting 777
ased 776
▁purpose 776
ij 775
▁compared 775
▁source 775
elling 774
▁bure 774
▁forced 774
▁fort 774
▁discussed 773
▁opposed 772
based 771
▁char 771
▁either 771
▁inst 771
▁request 771
hen 770
ke 770
▁join 770
▁technologies 769
cing 768
▁levels 768
▁ste 768
ays 767
ided 767
ression 767
yan 767
▁import 767
▁leave 767
▁unity 767
amed 766
ries 765
▁flag 765
ked 764
ology 764
▁alternative 763
▁immediate 763
nd 762
▁highest 762
▁withdra 762
▁average 761
ort 760
▁street 760
ere 759
▁died 759
ological 758
▁creation 758
▁offered 758
ared 756
▁coast 756
pect 755
▁lif 755
▁thir 755
▁units 755
ga 754
jan 754
▁active 754
▁attention 754
enda 753
▁advance 753
▁democrats 753
▁relationship 753
▁announce 752
▁fert 752
▁rules 751
ming 750
▁aggress 750
▁ec 750
▁published 750
▁waste 750
wal 749
▁assembly 749
▁joined 749
ement 748
rises 748
▁afford 748
▁avail 747
▁object 747
▁reaction 747
▁sum 747
▁counter 746
▁currently 746
▁mor 746
▁study 746
aring 745
inian 745
ural 745
▁ep 745
den 744
▁context 744
▁ded 744
▁model 744
▁purs 744
ges 743
▁learn 743
ti 742
▁newspaper 742
ene 741
ual 741
ull 741
▁claimed 741
▁western 741
▁wor 741
▁expect 740
▁lab 740
▁bangl 739
▁destruction 739
▁nag 738
▁values 738
▁nar 737
▁scientific 737
bi 736
ued 736
▁drive 736
▁keeping 736
udi 735
▁explo 735
▁moment 735
▁travel 735
ct 734
▁decisions 734
▁toward 734
▁vir 734
▁organised 733
▁organization 732
▁paris 732
▁advis 731
▁korea 731
▁traditional 731
▁mus 730
▁vac 730
▁agency 729
▁competition 729
▁ii 729
▁supporters 729
▁survey 729
pro 728
▁answ 728
▁pur 728
▁disp 727
▁bus 726
▁corporation 726
▁critical 726
▁increasingly 726
▁journal 726
▁supreme 725
asing 724
▁editor 724
▁eight 724
▁producer 724
▁commercial 723
▁stage 722
iment 721
▁rail 721
▁mis 720
cont 719
kes 719
ulation 719
▁demon 719
▁mid 719
▁petro 718
▁stay 718
▁difficult 717
▁student 717
▁gone 716
▁pet 716
▁victory 716
aged 715
ces 715
▁pos 715
▁asian 714
ocation 712
oy 712
sp 712
▁exam 712
▁participate 711
▁ways 711
▁appe 710
▁division 710
▁propos 710
▁status 709
▁described 708
▁navy 708
▁organizations 708
ax 707
▁allowed 707
▁profit 707
▁woman 707
aled 706
▁bad 706
▁raised 706
het 704
▁extra 704
▁northern 704
▁solutions 704
▁wrote 704
▁processing 703
ray 702
▁letter 702
sw 701
▁anti 701
▁av 701
▁infl 701
▁opened 701
▁sat 701
▁solution 701
▁rain 700
▁distribution 699
▁bomb 698
▁achieved 697
▁provision 697
add 696
ency 696
▁black 696
▁corruption 696
▁planning 696
▁reached 696
▁refuge 696
▁km 695
▁lower 695
▁beyond 694
▁eyes 694
▁phase 694
ls 693
▁fin 693
▁wealth 693
▁heavy 692
▁ban 691
itals 690
▁fully 690
▁hosp 690
ock 689
▁bringing 689
▁heritage 689
▁ret 689
▁revolutionary 689
▁subsid 689
▁hom 688
▁kill 688
▁save 688
rage 687
▁evil 687
▁invasion 687
▁med 687
cr 686
idents 686
uth 686
▁deputy 686
▁promoting 686
▁sens 686
▁ben 685
▁q 683
▁soviet 683
isions 682
▁rising 682
▁spok 682
aut 680
▁assess 680
▁planned 680
▁prepar 680
iding 679
▁investigation 679
▁ill 678
▁cy 677
▁resource 677
hip 676
ina 676
▁proposal 676
▁risk 675
▁cond 674
ended 673
uation 672
▁clearly 671
▁sus 671
af 670
ends 670
▁apart 670
▁attended 670
▁ris 670
▁stock 670
▁forum 669
▁religious 669
▁shot 669
ently 668
▁delivered 668
▁fields 668
▁faith 667
▁fisher 667
▁dep 666
ton 665
▁chemical 665
▁considered 665
iva 664
▁grand 664
▁lines 664
agon 663
app 663
uss 663
▁impro 663
▁late 663
▁domin 662
▁hindu 662
▁maintain 662
▁refused 662
▁send 662
▁tre 662
fl 661
▁australia 661
ave 660
da 660
▁criminal 660
▁mount 660
▁needed 660
45 659
▁interview 659
▁although 658
back 657
gar 657
ona 657
con 656
de 656
igation 656
▁promotion 656
▁advanced 655
▁concerns 655
▁similarly 655
▁appl 654
ims 653
▁appeal 653
king 652
▁forms 652
▁identified 651
iture 650
rics 650
▁below 650
▁defend 650
empt 649
hered 649
▁guarant 649
▁lad 649
▁negotiations 649
ugu 648
▁daughter 648
▁trying 648
▁journey 647
▁receive 647
mal 646
▁individual 646
▁proceed 646
▁ve 646
ection 645
hab 645
▁historical 645
▁impl 645
▁skills 645
▁bond 643
▁condem 643
▁consequ 643
▁convention 643
▁influence 643
▁parents 643
▁satisf 643
▁screen 643
ved 642
▁equipment 642
▁faced 642
▁london 642
▁peoples 642
▁count 641
▁enough 641
▁meetings 641
▁programs 641
ane 640
ira 640
▁kept 640
ick 639
▁sense 639
illed 638
ã 638
▁laun 638
▁az 637
▁hop 637
▁loan 637
q 636
▁caused 636
▁partner 636
▁rates 636
▁fell 635
▁goal 635
▁follow 634
▁integrated 634
▁takes 634
▁tell 634
ides 633
ient 633
▁facing 633
▁homes 633
▁includes 633
▁muslim 633
ound 632
▁numbers 632
▁pa 632
▁questions 632
▁sunday 632
aj 631
▁repeated 631
▁foot 630
▁trains 630
coming 629
di 629
ories 629
pal 629
▁changed 629
▁check 629
▁contact 629
▁hol 629
▁wick 629
▁introduced 628
▁vehicles 628
▁win 628
ching 627
▁longer 627
▁registered 627
▁song 627
▁priv 626
▁cou 624
▁pointed 623
▁stood 623
▁accord 622
▁performance 622
▁practices 621
▁signing 621
▁amendment 619
▁fuel 619
▁roads 619
▁accused 617
▁ideas 617
▁shown 617
hel 616
▁flood 616
▁inside 616
▁star 616
▁ter 616
▁abroad 615
▁comprehensive 615
▁failed 615
▁naval 615
▁ongoing 615
▁opening 615
▁points 614
ements 613
▁arrested 613
▁forest 613
abilities 612
eli 612
▁bit 612
▁id 612
▁incident 611
isted 610
▁defense 610
▁storage 610
▁techn 610
▁voters 610
▁ear 609
▁southern 609
▁unique 609
▁expansion 608
▁lies 608
▁firm 607
▁pen 607
▁expand 606
ald 605
▁doct 605
▁liv 605
▁regions 605
▁served 605
▁bel 604
▁calling 604
▁crimes 604
▁note 603
▁dest 602
▁kal 602
jo 601
▁contin 601
▁husband 601
▁scheduled 601
itions 600
▁hour 600
▁reserv 600
▁recommend 599
▁reflect 599
199 598
la 598
▁aud 598
▁executive 597
▁operational 597
ink 596
▁friday 596
▁remains 596
eth 595
sm 595
uing 595
▁ones 595
▁spending 595
▁wish 595
hand 594
▁engaged 594
▁fra 594
▁secure 594
▁collapse 593
▁running 593
▁debt 592
▁producers 592
▁rapid 591
iled 590
posed 590
▁bodies 590
▁hall 590
▁john 590
▁proper 590
▁dream 589
▁ext 589
▁helped 589
▁disease 588
acle 587
port 587
clus 586
kh 586
▁kingdom 586
▁burn 585
▁minority 585
▁sav 585
une 584
▁belong 584
▁contain 584
▁ide 584
▁pul 584
▁twenty 584
fire 583
▁wants 582
▁becoming 581
▁besides 581
▁biggest 581
▁cross 581
▁integr 581
▁investig 581
▁transfer 581
▁ver 579
▁learning 578
▁background 577
▁deliber 576
▁divers 576
▁exper 576
▁ship 576
eur 575
osh 575
▁behalf 575
▁doub 575
▁town 575
land 574
▁dialogue 574
▁leban 574
▁measure 574
▁mil 574
▁package 574
dr 573
▁goes 573
▁log 573
▁looking 573
▁metro 573
▁reality 573
▁walk 573
unt 572
▁sad 572
vin 571
▁cash 571
▁requirements 571
▁australian 570
▁coverage 570
▁historic 570
▁illegal 570
rid 569
▁governor 569
▁hus 569
▁nut 569
▁regular 569
och 568
ck 567
mo 567
▁assault 567
▁educational 567
▁wanted 567
que 566
tered 566
▁commissioner 566
▁heaven 566
▁standard 566
ns 565
▁english 565
▁gives 565
▁plants 565
ff 564
▁rat 564
▁seats 564
▁votes 564
ius 563
▁consumer 563
▁insp 563
▁murder 563
▁reduced 563
▁communication 562
▁diss 562
▁steel 562
▁charges 561
▁ed 561
▁truth 561
ift 560
▁figures 560
▁pred 560
▁sel 560
aly 559
pet 559
▁completely 559
▁constit 558
▁continues 558
pre 556
▁comment 556
▁stability 556
▁supporting 556
▁bas 555
▁interaction 555
▁rice 555
▁rum 555
ifying 554
▁accepted 554
yn 553
▁confer 553
▁opp 553
▁critic 552
hal 551
ibility 551
▁author 551
▁medium 551
▁ren 551
anes 550
▁actor 550
▁minimum 550
▁connected 549
▁crime 549
▁everything 549
▁material 549
▁returned 549
ear 548
▁evening 548
▁principles 548
▁customs 547
▁ign 547
▁moving 547
▁shah 547
▁specific 547
aded 546
ler 546
vey 546
▁opinion 546
▁arran 544
rising 543
▁ceremony 543
▁guard 543
▁indeed 543
▁wed 543
▁aviation 542
▁cred 542
▁deb 542
▁matters 542
▁corpor 541
eline 540
ope 540
wn 540
▁cd 540
▁islamic 540
▁stations 540
▁capt 539
▁cinema 539
▁liberation 539
▁powerful 539
action 538
ually 538
▁trial 538
ern 537
ications 537
▁particip 537
▁principal 537
cher 536
▁cre 536
▁diseases 536
off 535
ever 534
ional 534
▁card 534
▁elect 534
▁methods 534
ayan 533
ras 533
▁prec 533
▁uk 533
ables 532
▁answer 532
▁avoid 532
▁complex 532
▁unf 532
term 531
▁gat 531
iance 530
▁ball 530
▁exercise 530
▁physical 530
▁trav 530
ek 529
▁dict 529
▁formed 529
▁grant 529
▁ac 528
▁duty 528
▁honour 528
▁warning 528
▁carrying 527
▁connection 527
▁nic 527
▁sk 527
▁euro 526
▁overall 526
▁placed 526
▁viol 526
ily 525
▁die 525
▁heads 525
▁polit 525
▁recalled 525
▁separate 525
▁successfully 525
ura 524
▁try 524
▁universities 524
▁widespread 524
uting 523
▁document 523
▁extent 523
▁strugg 523
▁tried 523
ids 522
ten 522
▁flight 522
▁harm 522
▁sy 522
▁warm 522
mit 521
ime 520
▁deaths 520
▁discip 520
▁often 520
1718 519
▁moved 519
▁ocean 519
▁sources 519
cs 518
ried 518
▁center 518
▁ton 518
rop 517
▁amongst 517
▁bul 517
▁citizen 517
▁lie 517
▁trip 516
▁cat 515
resh 514
▁coordin 514
▁figure 514
▁filed 514
▁pad 514
▁resistance 514
▁thr 514
▁abd 513
▁ann 513
▁mas 513
▁prep 513
▁requested 513
▁solid 513
chang 512
use 512
▁battle 512
▁extremely 512
▁medic 512
▁pip 512
uct 511
▁collabor 511
▁defeat 511
▁islands 511
▁text 511
▁vill 511
oll 510
rant 510
▁advoc 510
▁attract 510
▁fail 510
▁games 510
▁liberal 510
▁theme 510
▁trump 510
▁add 509
▁african 509
▁cp 509
▁es 509
▁extend 509
▁factory 509
▁killing 509
▁sharing 509
itarian 508
▁cruc 508
▁entered 508
▁inqu 508
▁raise 508
▁ham 507
▁politicians 507
▁television 507
pose 506
rem 506
set 506
uck 506
▁esc 506
▁felt 506
agement 505
get 505
istan 505
una 505
▁ka 505
▁passengers 505
▁headquarters 504
▁li 504
▁spent 504
ruct 503
ump 503
▁bid 503
▁dra 503
▁mort 503
uch 502
▁alleged 502
▁application 502
▁closely 502
▁directors 502
▁decade 501
▁revenue 501
▁significance 501
▁supposed 501
▁tv 501
▁conservation 500
▁costs 500
▁decline 500
eless 499
▁aspects 499
▁offices 499
▁ja 498
▁respective 498
▁simply 498
▁soul 498
▁tab 498
▁tele 498
oured 497
▁collective 497
▁doubt 497
▁prem 497
▁quite 497
▁destroyed 496
▁emerged 496
▁languages 496
▁revealed 496
▁supplies 496
▁arrest 495
▁combat 495
▁nav 495
▁taxes 495
65 494
eted 494
▁cal 494
▁double 494
▁dre 494
▁elected 494
▁sec 494
iry 493
▁bear 493
▁constant 493
▁reduction 493
oss 492
▁fair 492
▁formal 492
▁track 492
pos 491
ult 491
▁bound 491
▁extrem 491
elves 490
▁brief 490
▁consum 490
▁pp 490
▁rapidly 490
▁views 490
aging 489
imate 489
let 489
lying 489
▁partners 489
▁separ 489
oke 488
▁anything 488
▁bow 488
▁determined 488
▁pent 488
▁phone 488
▁prison 488
▁reb 488
▁recogn 488
era 487
imin 487
▁communities 486
▁drugs 486
▁hearing 486
▁integration 486
▁hum 485
▁maritime 485
1819 484
ua 484
▁analysis 484
▁camps 484
▁finally 484
▁experiences 483
▁pers 483
▁scenes 483
▁sim 483
▁activity 482
▁anyone 482
▁initiated 482
ames 481
athan 481
ijing 481
▁celebrated 481
▁friendly 481
▁medicine 481
▁paper 481
▁statements 481
inary 480
▁adopted 480
▁electoral 480
▁elements 480
▁largely 480
▁mechanism 480
by 479
▁judge 479
▁kn 479
▁singapore 479
cc 478
orm 478
▁efficiency 478
▁girl 478
▁really 478
▁remained 478
▁shows 478
▁treas 478
▁victims 478
▁depos 477
▁failure 477
▁ga 477
▁standing 477
fully 476
▁arm 476
▁except 476
▁saturday 476
▁berlin 475
▁eth 475
▁offensive 475
▁pot 475
▁previously 475
aint 474
aking 474
▁completion 474
▁kur 474
▁relevant 474
iant 473
▁acts 473
▁highly 473
▁households 473
▁internet 473
▁born 472
▁linked 472
▁property 472
▁prosec 472
▁title 472
essed 471
pm 471
▁invited 471
▁manip 471
▁rejected 471
▁tar 471
icate 470
▁remark 470
erv 469
rap 469
▁believed 469
▁cra 469
▁gh 469
▁mel 469
▁reject 469
▁showed 469
▁territory 469
racy 468
rich 468
▁external 468
▁helping 468
▁hence 468
▁recovery 468
▁applications 467
▁assets 467
▁conscious 467
▁effectively 467
ese 466
▁door 466
▁search 466
▁tradition 466
▁vig 466
▁wonder 466
erted 465
inc 465
▁pill 464
▁sr 464
rim 463
▁adopt 463
▁covered 463
▁dollars 463
▁enthus 463
▁equal 463
▁kan 463
▁band 462
▁christ 462
▁debate 462
▁funding 462
▁idea 462
▁maximum 462
▁participants 462
▁soil 462
ience 461
ision 461
▁assist 461
▁daughters 461
▁delivery 461
▁primary 461
▁stat 461
ex 460
ju 460
uction 460
▁aar 460
▁ask 460
▁iranian 460
▁mur 460
▁negoti 460
▁ordinary 460
▁profession 460
itive 459
▁continuing 459
▁fit 459
▁micro 459
▁sell 459
▁render 458
▁wars 458
bu 457
gements 457
iring 457
oh 457
go 456
oted 456
ylon 456
▁allies 456
▁appointed 456
▁appropriate 456
▁confirmed 456
▁fat 456
▁individuals 456
▁neighbour 456
▁permanent 456
▁rad 456
▁traffic 456
▁syria 455
oe 454
▁bridge 454
▁fellow 454
▁stands 454
▁talent 454
ple 453
yl 453
▁exc 453
▁memorial 453
▁mouth 453
▁shipping 453
▁wrong 453
▁colleges 452
▁incom 452
▁suggested 452
▁ze 452
▁cad 451
▁condition 451
▁engineering 451
▁regulations 451
▁ancient 450
▁balance 450
▁diplomatic 450
▁inspiration 450
▁aircraft 449
▁imag 449
▁master 449
▁range 449
▁reasons 449
ih 448
▁bankrupt 448
▁connections 448
▁contest 448
▁encouraged 448
▁gets 448
▁happened 448
▁studies 448
▁tort 448
▁constitutional 447
▁friend 447
atically 446
ctions 446
▁begin 446
▁george 446
▁ker 446
▁processes 446
▁regist 446
itable 445
vements 445
▁concluded 445
▁deploy 445
▁targets 445
▁vol 445
ect 444
eng 444
oked 444
vent 444
▁designed 444
▁items 444
▁rob 444
▁sid 444
▁academic 443
▁grow 443
▁holding 443
▁northeast 443
▁seems 443
▁surve 443
▁tour 443
198 442
▁administrative 442
▁radio 442
▁sharp 442
▁threatened 442
hr 441
iles 441
▁expert 441
▁civilian 440
▁clinton 440
▁pal 440
dom 439
nam 439
▁drug 439
▁radical 439
▁actors 438
▁react 438
▁table 438
eva 437
isms 437
ley 437
▁bol 437
▁collect 437
▁internal 437
▁pil 437
aling 436
for 436
▁attend 436
▁brand 436
▁commanded 435
▁exhibition 435
34 434
rol 434
▁hur 434
▁sir 434
▁tri 434
ima 433
▁improved 433
▁respond 433
▁vehicle 433
ular 432
▁chain 432
▁spoken 432
▁tru 432
▁unable 432
▁van 432
 431
▁appeared 431
▁classes 431
▁mat 431
▁province 431
ude 430
usion 430
▁gulf 430
▁jo 430
▁lev 430
time 429
▁buy 429
▁departments 429
▁fighters 429
▁practice 429
▁willing 429
▁aff 428
▁borders 428
▁extension 428
▁feet 428
▁hal 428
▁injured 428
iqu 427
uses 427
▁kilomet 427
▁prisoners 427
▁prominent 427
▁shut 427
▁thereby 427
inent 426
▁establishing 426
▁expression 426
▁hub 426
▁japanese 426
▁operating 426
▁reducing 426
▁selected 426
inations 425
▁assistant 425
▁estim 425
▁farming 425
▁regul 425
▁vital 425
iling 424
▁career 424
▁destroy 424
▁limit 424
▁loc 424
▁constructed 423
▁delay 423
▁involving 423
▁jacob 423
▁offers 423
▁sale 423
▁waters 423
aza 422
cept 422
cis 422
ils 422
▁accel 422
▁auto 422
▁distrib 422
▁gate 422
▁joy 422
▁scene 422
▁streets 422
ading 421
ibilities 421
▁goals 421
▁names 421
▁ports 421
▁significantly 421
▁sn 421
▁universal 421
ament 420
▁accompl 420
▁arrived 420
▁playing 420
▁tig 420
ft 419
ounced 419
ract 419
▁actress 419
▁design 419
▁desire 419
icts 418
▁arms 418
▁defin 418
▁driven 418
▁fill 418
▁instit 418
▁pe 418
▁privile 418
▁shift 418
abil 417
gy 417
▁closed 417
▁comb 417
▁zone 417
▁explos 416
▁motiv 416
▁satellite 416
rel 415
▁danger 415
▁mention 415
▁mit 415
▁nine 415
▁touch 415
fall 414
ica 414
ived 414
iveness 414
▁colonial 414
▁consid 414
▁quarter 414
▁sword 414
▁clos 413
▁continu 413
▁doll 413
▁household 413
▁losses 413
▁remaining 413
▁sem 413
▁silver 413
55 412
ront 412
yr 412
▁colle 412
▁efficient 412
ring 411
▁acted 411
▁indicated 411
▁museum 411
▁headed 410
▁initial 410
▁professional 410
▁thro 410
▁voted 410
ected 409
eda 409
iers 409
▁ability 409
▁dro 409
▁entry 409
▁via 409
gs 408
ocr 408
▁migr 408
▁suff 408
▁ang 407
▁cell 407
▁dark 407
▁meant 407
cles 406
ze 406
▁agre 406
▁denied 406
encies 405
uel 405
▁titled 405
33 404
body 404
▁businesses 404
▁improvement 404
▁roles 404
▁worship 404
force 403
sl 403
stem 403
where 403
▁friendship 403
inn 402
▁legislation 402
▁paul 402
▁resulted 402
▁statue 402
▁dar 401
▁faces 401
▁fought 401
▁inspect 401
ask 400
sa 400
▁construct 400
▁estate 400
▁jordan 400
▁length 400
▁located 400
▁mut 400
▁season 400
▁substantial 400
▁sym 400
▁ts 400
ugh 399
▁confl 399
▁legit 399
▁clar 398
▁concept 398
▁ethnic 398
▁eye 398
▁scen 398
▁spec 398
▁unc 398
iction 397
orn 397
▁core 397
▁federation 397
▁tem 397
▁follows 396
▁wake 396
ales 395
▁chancellor 395
▁festivals 395
▁progressive 395
▁requirement 395
▁tend 395
ades 394
encing 394
illing 394
own 394
▁agree 394
▁emphasis 394
▁examination 394
▁internationally 394
▁knew 394
▁sound 394
▁named 393
▁passing 393
▁royal 393
▁vul 393
aches 392
aving 392
bed 392
▁acknowled 392
▁declaration 392
▁fans 392
▁quickly 392
▁sciences 392
▁seeing 392
▁room 391
▁wave 391
ailed 390
esty 390
oot 390
▁certific 390
▁occup 390
▁vietnam 390
ior 389
▁dur 389
▁observed 389
▁ol 389
ett 388
ood 388
▁chosen 388
▁conservative 388
▁hel 388
▁inform 388
▁joseph 388
▁recognition 388
▁songs 388
▁bang 387
▁compet 387
▁contributions 387
▁convers 387
▁cycl 387
▁detailed 387
▁fil 387
▁fir 387
▁jer 387
▁ordered 387
▁visiting 387
ception 386
oring 386
▁advantage 386
▁changing 386
▁distributed 386
▁khan 386
▁sit 386
mission 385
ott 385
▁cancer 385
▁pain 385
▁widely 385
▁choice 384
▁producing 384
▁represents 384
▁spain 384
arm 383
oun 383
▁fac 383
▁marx 383
▁merely 383
▁stories 383
any 382
▁aw 382
▁combined 382
▁fran 382
▁transportation 382
anti 381
olk 381
▁congreg 381
▁ended 381
▁gun 381
▁possibility 381
▁propag 381
▁severe 381
▁stress 381
anc 380
▁approximately 380
▁bes 380
▁demonstrated 380
▁positions 380
▁seed 380
akers 379
ders 379
ially 379
▁attempts 379
▁books 379
▁christian 379
▁pros 379
▁represent 379
arent 378
▁farm 378
▁phil 378
▁watch 378
ases 377
ught 377
▁comple 377
▁traditions 377
omon 376
▁amend 376
▁features 376
▁ident 376
▁indic 376
▁plastic 376
▁sudden 376
▁teach 376
▁thanks 376
▁wid 376
ae 375
fer 375
ome 375
par 375
▁auton 375
▁environmental 375
▁rescue 375
▁respons 375
▁accident 374
▁cir 374
▁mart 374
▁suffered 374
▁thinking 374
▁wide 374
igned 373
▁concerning 373
▁determin 373
▁drinking 373
▁isol 373
▁receiving 373
▁vas 373
▁version 373
▁wil 373
▁pleas 372
▁seem 372
▁someone 372
▁wind 372
oon 371
▁ara 371
▁cold 371
▁dig 371
▁mag 371
▁normal 371
▁ord 371
▁structure 371
gment 370
itors 370
ni 370
▁broken 370
▁drawn 370
▁identity 370
▁sand 370
rog 369
▁else 369
▁responded 369
▁documents 368
▁draw 368
▁initially 368
▁islam 368
▁towns 368
itar 367
press 367
▁arg 367
▁bombing 367
▁code 367
▁contributed 367
▁differences 367
▁earn 367
▁era 367
▁fruit 367
▁involvement 367
▁pas 367
ario 366
vel 366
▁criticism 366
▁mean 366
▁representative 366
▁requires 366
▁starting 366
▁sud 366
uits 365
▁electric 365
▁senate 365
▁shel 365
▁sight 365
▁sugar 365
wise 364
▁budd 364
▁flow 364
▁focused 364
▁orient 364
▁rein 364
▁chance 363
▁cit 363
▁meaning 363
▁possess 363
▁website 363
▁winning 363
elf 362
ho 362
ires 362
▁iv 362
▁principle 362
▁regulation 362
▁reserve 362
iam 361
iary 361
ila 361
ree 361
rupt 361
▁collection 361
▁cop 361
▁rally 361
▁sold 361
ancy 360
▁ak 360
▁charged 360
▁dub 360
▁easy 360
▁image 360
▁settlement 360
▁turkey 360
▁x 360
ida 359
kan 359
pg 359
▁gram 359
▁teams 359
ips 358
▁affect 358
▁becomes 358
▁cher 358
▁draft 358
▁feed 358
▁mys 358
ili 357
right 357
▁greatest 357
▁mud 357
oor 356
uff 356
▁assass 356
▁chair 356
▁maintenance 356
▁praised 356
▁stars 356
▁tree 356
▁vib 356
gence 355
oned 355
uration 355
▁bat 355
▁content 355
▁courts 355
▁heroes 355
▁tren 355
ral 354
ster 354
▁afghan 354
▁circumstances 354
▁filled 354
▁index 354
▁turning 354
▁backing 353
▁minor 353
▁suffering 353
▁drink 352
▁est 352
▁milk 352
▁recovered 352
▁size 352
1999 351
arian 351
ita 351
▁ambassador 351
▁install 351
▁park 351
asa 350
▁achievement 350
▁coastal 350
▁comprom 350
▁rank 350
aria 349
ba 349
hy 349
mi 349
ocks 349
▁appear 349
37 348
conom 348
ume 348
▁closer 348
▁compens 348
▁covering 348
▁cub 348
▁plays 348
▁shock 348
1617 347
36 347
bur 347
clusion 347
osp 347
▁attacked 347
▁degree 347
▁mess 347
je 346
▁autom 346
▁boy 346
▁hun 346
▁links 346
▁manifest 346
▁pack 346
▁reve 346
▁wis 346
aq 345
▁channel 345
iot 344
ki 344
li 344
olved 344
▁currency 344
▁damage 344
▁jun 344
▁kings 344
most 343
urt 343
ö 343
▁bann 343
▁margin 343
▁pop 343
▁push 343
▁raising 343
▁rival 343
▁theatre 343
vis 342
▁canada 342
▁deter 342
▁employed 342
▁enemies 342
▁immigration 342
▁marriage 342
▁publicly 342
▁subsequently 342
197 341
abled 341
do 341
¬ 341
▁beg 341
▁immigrants 341
▁larger 341
▁oppos 341
itor 340
▁maintaining 340
▁membership 340
▁orders 340
▁pharm 340
▁swe 340
fa 339
▁pit 339
▁register 339
chi 338
hop 338
igible 338
ii 338
mon 338
wards 338
▁attempted 338
▁bu 338
▁letters 338
▁listen 338
▁marketing 338
▁nan 338
▁obvious 338
▁planet 338
▁restrictions 338
ops 337
ores 337
self 337
▁acqu 337
▁mir 337
▁revised 337
48 336
aked 336
iti 336
iving 336
▁distance 336
▁removed 336
▁resign 336
▁sovereign 336
▁telephone 336
▁va 336
agan 335
aus 335
ena 335
fe 335
 335
▁fresh 335
▁italy 335
▁looked 335
▁mode 335
▁mun 335
▁sanct 335
▁virtually 335
▁audience 334
▁conc 334
▁forg 334
▁intent 334
▁prot 334
iny 333
til 333
wan 333
▁cle 333
▁dance 333
▁developments 333
▁gross 333
▁howard 333
▁indonesia 333
▁minutes 333
▁referred 333
▁speaker 333
▁wing 333
ashed 332
▁actually 332
▁commander 332
▁depend 332
▁difficulties 332
▁organic 332
▁peter 332
▁sister 332
bl 331
gan 331
here 331
ishing 331
sk 331
▁angel 331
▁campus 331
▁extreme 331
▁materials 331
▁rose 331
▁stopped 331
▁write 331
book 330
▁awarded 330
▁commemor 330
▁lov 330
▁spe 330
▁spiritual 330
asts 329
▁alleg 329
▁analy 329
▁gates 329
▁treaty 329
▁uncle 329
38 328
hing 328
owned 328
▁movements 328
▁summer 328
ictions 327
kel 327
▁americans 327
▁insur 327
▁miss 327
▁reaching 327
oration 326
son 326
▁atmosphere 326
▁bom 326
▁manag 326
▁tribes 326
85 325
aching 325
▁category 325
▁competitive 325
▁glob 325
▁marks 325
▁strongly 325
▁trees 325
▁voting 325
▁weight 325
ount 324
rec 324
▁courses 324
▁electronic 324
▁exec 324
▁heat 324
▁liquid 324
▁lit 324
▁marked 324
▁religion 324
▁type 324
po 323
▁false 323
▁introduction 323
▁preparation 323
▁territories 323
▁capable 322
▁entirely 322
fts 321
▁animal 321
▁famous 321
▁maintained 321
▁serving 321
▁worst 321
etary 320
rest 320
▁strateg 320
▁deployed 319
▁referring 319
▁residents 319
istics 318
power 318
standing 318
▁formation 318
▁inher 318
▁ug 318
▁dil 317
▁edition 317
▁hot 317
▁isa 317
▁require 317
emen 316
▁conclusion 316
▁trad 316
erve 315
▁allied 315
▁comfort 315
▁extensive 315
▁holds 315
▁hosts 315
▁impossible 315
▁opponents 315
▁virtual 315
ols 314
▁aug 314
▁overseas 314
▁sales 314
▁trading 314
▁weak 314
rolled 313
▁gain 313
▁girls 313
▁notice 313
ific 312
▁breaking 312
▁pri 312
▁rav 312
▁remote 312
▁ships 312
▁statistics 312
aced 311
ashi 311
ney 311
oura 311
ses 311
urb 311
▁ib 311
▁intention 311
▁tests 311
▁violent 311
berg 310
bit 310
ey 310
▁correct 310
▁entering 310
▁introd 310
▁moscow 310
▁multiple 310
▁optim 310
▁qual 310
▁useful 310
▁vent 310
ague 309
ession 309
ird 309
itary 309
rary 309
▁diplom 309
▁drop 309
▁magazine 309
▁meanwhile 309
▁param 309
▁stones 309
▁sust 309
44 308
chn 308
gen 308
▁considerable 308
▁jews 308
▁moon 308
▁remove 308
▁represented 308
bar 307
sters 307
▁adding 307
▁broadcasting 307
▁heights 307
▁mp 307
▁overs 307
▁route 307
▁spot 307
▁weather 307
cent 306
eration 306
point 306
▁coron 306
▁dependent 306
▁difference 306
▁gap 306
▁select 306
▁sick 306
▁tap 306
icted 305
pected 305
rat 305
▁easily 305
▁height 305
▁identify 305
▁tot 305
▁trained 305
▁wa 305
▁whe 305
utions 304
▁admitted 304
▁associ 304
▁begun 304
▁elimin 304
▁fled 304
▁nevertheless 304
ris 303
▁atomic 303
▁cm 303
▁cook 303
▁newly 303
▁bay 302
▁numerous 302
▁respectively 302
▁usa 302
iber 301
ital 301
using 301
▁korean 301
▁polic 301
196 300
lets 300
▁blue 300
▁cards 300
▁centers 300
▁claiming 300
▁favour 300
▁hill 300
▁mines 300
▁wounded 300
asc 299
rain 299
▁commented 299
▁exceed 299
▁greatly 299
▁pregn 299
ont 298
ws 298
▁georgia 298
▁inspired 298
▁iron 298
▁symbol 298
▁wat 298
cast 297
fi 297
▁bah 297
▁elder 297
▁highway 297
▁ig 297
astic 296
clud 296
uce 296
▁divisions 296
▁enemy 296
▁honor 296
▁necess 296
▁proved 296
▁ruled 296
olution 295
ret 295
▁fasc 295
▁stret 295
▁submitted 295
▁superv 295
aps 294
dy 294
ez 294
ikh 294
▁consumption 294
▁prove 294
▁writing 294
uit 293
▁arbit 293
▁aut 293
▁broke 293
▁categories 293
▁fifth 293
▁guest 293
▁input 293
▁leaving 293
▁motor 293
▁stran 293
igh 292
car 291
gu 291
xt 291
▁duties 291
▁easier 291
▁granted 291
▁shif 291
ints 290
iss 290
omin 290
zen 290
▁buildings 290
▁passenger 290
▁recruit 290
▁stra 290
gal 289
ivals 289
ket 289
ulating 289
▁fre 289
▁globe 289
▁married 289
▁rock 289
▁valid 289
ishment 288
uri 288
▁frank 288
▁heavily 288
▁ltd 288
▁proced 288
ference 287
za 287
▁appears 287
▁da 287
▁exped 287
▁generally 287
▁haz 287
▁intended 287
▁pacific 287
▁strict 287
▁valley 287
▁wait 287
lin 286
ll 286
path 286
▁administ 286
▁consolid 286
▁faster 286
▁generated 286
▁mental 286
▁perhaps 286
▁returns 286
▁weekend 286
ca 285
work 285
▁computer 285
▁indigenous 285
▁pursue 285
▁saved 285
▁sometimes 285
▁aus 284
▁ber 284
▁ceo 284
▁cited 284
▁diagn 284
▁driving 284
▁harvest 284
▁mot 284
▁professor 284
▁simple 284
▁sufficient 284
47 283
imes 283
▁conver 283
▁expanded 283
▁fav 283
▁kab 283
▁obtained 283
▁subsequent 283
▁wider 283
▁channels 282
▁corner 282
▁factor 282
▁fifty 282
▁fish 282
▁fle 282
▁kid 282
▁obs 282
▁outstanding 282
▁signs 282
43 281
ares 281
ough 281
▁abb 281
▁hydro 281
▁lived 281
▁locations 281
▁presidency 281
▁reference 281
▁sang 281
antly 280
aud 280
ror 280
▁abs 280
▁bed 280
▁grown 280
▁hor 280
▁iss 280
▁meat 280
▁missile 280
▁multip 280
ania 279
▁der 279
▁dispute 279
▁showing 279
▁worldwide 279
ike 278
ique 278
ool 278
play 278
▁accommod 278
▁celebration 278
▁display 278
▁enjoy 278
▁fee 278
▁joining 278
▁mac 278
▁pract 278
▁sund 278
fort 277
held 277
wide 277
▁artificial 277
▁golden 277
▁judges 277
▁mc 277
▁permission 277
▁pow 277
▁researchers 277
▁sets 277
▁simpl 277
▁temporary 277
▁beat 276
▁cul 276
▁dim 276
▁electronics 276
▁increases 276
▁schedule 276
▁tact 276
aker 275
never 275
oking 275
with 275
▁evac 275
▁mainly 275
▁regarded 275
▁spanish 275
his 274
mine 274
rom 274
▁belief 274
▁il 274
▁patri 274
▁pc 274
▁peas 274
arily 273
may 273
str 273
▁accompanied 273
▁bin 273
▁cutting 273
▁existence 273
▁massacre 273
▁probably 273
▁purposes 273
▁rub 273
▁stamp 273
41 272
grad 272
▁abuse 272
▁dangerous 272
▁fan 272
▁gal 272
▁lik 272
▁ment 272
▁teacher 272
▁teaching 272
▁upd 272
uts 271
▁corn 271
▁fel 271
▁fine 271
▁maj 271
▁outbreak 271
▁perform 271
▁pure 271
emb 270
▁dial 270
▁innoc 270
▁jean 270
▁lose 270
▁richard 270
▁treated 270
▁veget 270
airs 269
alk 269
arch 269
gent 269
nan 269
rate 269
▁arrangement 269
▁entitled 269
▁feeling 269
▁thirty 269
▁tribe 269
atus 268
iji 268
lim 268
pled 268
▁agents 268
▁bor 268
▁component 268
▁mechan 268
▁ranks 268
▁ultimately 268
iff 267
long 267
▁bases 267
▁communications 267
▁const 267
▁continuous 267
▁crit 267
▁dal 267
▁malaysia 267
▁box 266
▁chamber 266
▁drivers 266
▁favor 266
▁feature 266
▁installed 266
▁interior 266
▁isolated 266
▁narrow 266
▁tex 266
enant 265
enses 265
▁bright 265
▁cens 265
▁observ 265
▁recorded 265
feld 264
level 264
ulations 264
▁apply 264
▁oblig 264
▁occupied 264
▁repl 264
▁rivers 264
▁tourist 264
por 263
rod 263
▁enterprise 263
▁gods 263
▁map 263
▁medal 263
▁preced 263
▁resulting 263
▁vessels 263
1998 262
56 262
ubl 262
van 262
▁doctor 262
▁inhabitants 262
▁muslims 262
▁reflected 262
▁sack 262
51 261
▁couple 261
▁habit 261
▁mach 261
▁mining 261
▁scholarship 261
▁suitable 261
aves 260
tt 260
▁du 260
▁ending 260
▁hat 260
▁nurs 260
▁sites 260
atures 259
oles 259
▁allowing 259
▁collected 259
▁provincial 259
apping 258
tal 258
ters 258
▁assemb 258
▁destination 258
▁disappe 258
▁enforcement 258
▁eval 258
▁excellent 258
▁fate 258
▁shortly 258
▁sle 258
▁tas 258
▁twelve 258
95 257
iced 257
keep 257
ocated 257
▁attempting 257
▁constituency 257
▁maur 257
▁toll 257
▁upgr 257
ails 256
ature 256
char 256
imb 256
mc 256
▁actual 256
▁committe 256
▁leg 256
▁purchase 256
▁quar 256
▁sen 256
▁hotel 255
▁understood 255
aints 254
bal 254
cho 254
hor 254
ifies 254
overn 254
▁borrow 254
▁departed 254
▁eve 254
▁greece 254
▁legislative 254
▁promoted 254
▁rational 254
▁rid 254
▁tear 254
▁waiting 254
pan 253
▁assum 253
▁ca 253
▁diverse 253
▁dyn 253
▁prin 253
▁samples 253
▁suicide 253
▁terminal 253
ause 252
mr 252
▁captain 252
▁devices 252
ifications 251
irect 251
▁bureau 251
▁falling 251
▁georg 251
▁league 251
▁magn 251
▁notes 251
▁raw 251
▁suppl 251
otic 250
▁bare 250
▁blind 250
▁church 250
▁coup 250
▁crew 250
▁eag 250
▁game 250
▁method 250
▁race 250
▁wom 250
fin 249
▁fallen 249
▁flights 249
▁latter 249
▁option 249
▁original 249
▁sor 249
▁tur 249
▁academy 248
▁california 248
▁didn 248
▁explain 248
▁grounds 248
▁rele 248
▁turkish 248
hn 247
inted 247
rous 247
▁abraham 247
▁buddhist 247
▁bund 247
▁municipal 247
▁platforms 247
▁rac 247
commun 246
form 246
oms 246
ota 246
▁corresponding 246
▁intellectual 246
▁lawyer 246
▁liber 246
▁selection 246
gency 245
▁bro 245
▁cargo 245
▁cattle 245
▁centuries 245
▁functions 245
▁iii 245
▁instruct 245
▁novel 245
▁origin 245
▁procedure 245
▁quick 245
▁tested 245
▁toler 245
cil 244
onse 244
▁cricket 244
▁rab 244
▁reservoir 244
▁resort 244
▁roll 244
▁scre 244
ivers 243
▁amounts 243
▁effects 243
▁ho 243
193 242
head 242
izes 242
oric 242
▁artist 242
▁camer 242
▁cup 242
▁liter 242
▁nomin 242
▁seat 242
▁susp 242
▁treat 242
anced 241
ography 241
▁applied 241
▁surrounding 241
0, 240
bon 240
national 240
night 240
▁judicial 240
▁kir 240
▁otherwise 240
br 239
▁artists 239
▁caught 239
▁desp 239
▁ko 239
▁players 239
▁protocol 239
▁stable 239
▁upper 239
91 238
election 238
ym 238
▁aspect 238
▁benjamin 238
▁distinguished 238
▁examples 238
▁exer 238
▁instrument 238
▁recognized 238
▁relation 238
▁sort 238
▁transferred 238
▁uns 238
39 237
46 237
uments 237
uz 237
was 237
▁aust 237
▁benef 237
▁dominated 237
▁finding 237
▁mountain 237
▁referend 237
1991 236
73 236
agues 236
pat 236
sy 236
▁connecting 236
▁cum 236
▁gem 236
▁kelly 236
▁pool 236
▁prince 236
▁recon 236
▁thailand 236
ding 235
ille 235
▁aer 235
▁neg 235
▁proof 235
▁regularly 235
aland 234
▁bbc 234
▁guilty 234
▁script 234
▁shoot 234
▁spend 234
▁wood 234
onic 233
vers 233
▁aside 233
▁brown 233
▁formally 233
▁hack 233
▁kil 233
▁manager 233
▁mist 233
▁newspapers 233
▁relatively 233
▁trouble 233
54 232
ava 232
icated 232
law 232
omy 232
rated 232
▁believes 232
▁debut 232
▁fashion 232
▁nearby 232
▁societies 232
63 231
ded 231
eter 231
pic 231
▁appoint 231
▁components 231
▁florida 231
▁owners 231
▁slow 231
▁ty 231
claimed 230
place 230
urn 230
▁cultiv 230
▁jam 230
▁lion 230
▁mayor 230
▁ser 230
▁smaller 230
izer 229
riers 229
▁ach 229
▁calcul 229
▁confir 229
▁elabor 229
▁moral 229
olit 228
person 228
very 228
▁cho 228
▁ele 228
▁fixed 228
▁prohib 228
▁rout 228
▁winners 228
var 227
▁contrast 227
▁counsel 227
▁doors 227
▁earthquake 227
▁enc 227
▁gent 227
▁images 227
▁ip 227
▁kit 227
▁mm 227
▁records 227
▁surface 227
▁younger 227
erved 226
▁audio 226
▁endors 226
▁forty 226
▁leads 226
▁pap 226
▁substant 226
uals 225
▁alt 225
▁announ 225
▁corrupt 225
▁prompt 225
▁reportedly 225
▁roots 225
▁sitting 225
ela 224
iest 224
omous 224
ule 224
uro 224
▁advice 224
▁divided 224
▁kos 224
▁michael 224
▁monthly 224
▁split 224
ault 223
eries 223
hl 223
ordin 223
rose 223
su 223
▁arr 223
▁circ 223
▁drew 223
▁experienced 223
▁percentage 223
▁perfect 223
▁secondary 223
▁vel 223
enth 222
ole 222
rah 222
sen 222
uster 222
▁alle 222
▁cas 222
▁coll 222
▁familiar 222
▁gained 222
▁jos 222
▁mountains 222
▁rever 222
▁tribute 222
▁unless 222
▁wine 222
74 221
mark 221
tha 221
▁fishing 221
▁helicopter 221
▁italian 221
▁sheep 221
▁twice 221
64 220
cel 220
inger 220
ng 220
prise 220
¦ 220
▁alive 220
▁arts 220
▁cry 220
▁eg 220
▁exposed 220
▁falls 220
▁preserve 220
▁recover 220
▁salv 220
▁whereas 220
67 219
68 219
eg 219
icip 219
now 219
will 219
▁equivalent 219
▁minim 219
▁usual 219
erated 218
mad 218
oul 218
urity 218
▁counterpart 218
▁reign 218
uls 217
▁brazil 217
▁casualties 217
▁controlled 217
▁negative 217
▁permitted 217
▁rede 217
▁reporting 217
▁sleep 217
achment 216
light 216
othes 216
rations 216
ucted 216
▁faculty 216
▁mater 216
▁pick 216
▁plus 216
▁quant 216
▁retired 216
▁ric 216
▁starring 216
▁tibet 216
board 215
ele 215
ogy 215
ople 215
▁activ 215
▁cow 215
▁ess 215
▁kong 215
▁lib 215
▁nomination 215
▁obtain 215
▁options 215
▁piece 215
▁recommended 215
▁retail 215
▁subjects 215
▁ww 215
195 214
49 214
akes 214
ounded 214
uma 214
· 214
▁choose 214
▁decre 214
▁pull 214
▁senator 214
▁stem 214
▁wheat 214
house 213
ken 213
turn 213
▁arist 213
▁beautiful 213
▁exit 213
▁poland 213
▁sant 213
▁shape 213
▁tiger 213
ather 212
upt 212
▁element 212
▁engineers 212
▁fig 212
▁neigh 212
▁ng 212
▁philosophy 212
▁software 212
▁struck 212
▁succeed 212
▁taught 212
▁wedding 212
born 211
guard 211
ien 211
ino 211
issions 211
oph 211
▁bought 211
▁cinem 211
▁club 211
▁detail 211
▁elsewhere 211
▁ger 211
▁lic 211
▁prize 211
▁replace 211
field 210
▁bore 210
▁diver 210
▁ken 210
▁ukraine 210
antine 209
case 209
inder 209
ither 209
▁birthday 209
▁execution 209
▁greek 209
▁managed 209
▁moves 209
▁portugal 209
▁storm 209
▁usually 209
erate 208
erson 208
▁ali 208
▁hang 208
▁primarily 208
▁repe 208
▁representing 208
▁smooth 208
▁sport 208
▁square 208
▁tag 208
▁theat 208
gi 207
gments 207
jun 207
▁beauty 207
▁fame 207
▁fu 207
▁guide 207
▁princip 207
▁ranking 207
▁reorgan 207
▁retirement 207
▁venture 207
66 206
▁leaf 206
▁shares 206
▁stim 206
▁vessel 206
58 205
aine 205
enced 205
▁abandoned 205
▁argument 205
▁constitu 205
▁escape 205
▁legacy 205
▁premier 205
▁ta 205
53 204
class 204
ingly 204
lem 204
pc 204
under 204
▁helps 204
▁hong 204
▁manufact 204
▁motion 204
▁networks 204
▁dropped 203
▁educ 203
▁exist 203
▁gro 203
▁portion 203
▁wearing 203
aim 202
ange 202
aph 202
iel 202
▁academ 202
▁airlines 202
▁branches 202
▁burning 202
▁concrete 202
▁cycle 202
▁fly 202
▁los 202
▁male 202
▁pieces 202
▁reading 202
ader 201
aming 201
ao 201
ieth 201
▁accessible 201
▁argued 201
▁carbon 201
▁confeder 201
▁consist 201
▁dated 201
▁female 201
▁hab 201
▁handling 201
▁pav 201
▁visible 201
cd 200
ctor 200
▁alongside 200
▁ark 200
▁banned 200
▁camera 200
▁curt 200
▁democrat 200
▁interested 200
▁invol 200
▁journalist 200
▁ox 200
▁thor 200
rip 199
ula 199
ushed 199
▁causes 199
▁donald 199
▁intense 199
▁match 199
▁scar 199
▁sever 199
▁subst 199
▁tong 199
▁tools 199
▁wr 199
active 198
ef 198
mits 198
▁anna 198
▁custom 198
▁differ 198
▁gift 198
▁mig 198
▁missions 198
▁occasions 198
▁onto 198
▁sexual 198
▁syn 198
▁£ 198
anna 197
ential 197
eria 197
olas 197
outs 197
ply 197
▁declined 197
▁eventually 197
▁grid 197
▁guests 197
▁protected 197
▁purch 197
▁score 197
57 196
iments 196
reg 196
▁correspond 196
▁driver 196
▁factors 196
▁file 196
▁phys 196
▁robert 196
1989 195
eters 195
gement 195
ix 195
▁abund 195
▁branch 195
▁coc 195
▁depression 195
▁marine 195
▁mu 195
estone 194
nar 194
ody 194
ovo 194
▁flex 194
▁kg 194
▁machine 194
▁users 194
aur 193
friend 193
stit 193
zz 193
▁appearance 193
▁approached 193
▁avo 193
▁bull 193
▁embassy 193
▁inj 193
▁os 193
▁performed 193
▁returning 193
▁shield 193
1995 192
een 192
ject 192
▁column 192
▁dismissed 192
▁losing 192
▁runs 192
▁scand 192
▁selling 192
▁supplied 192
uous 191
▁congressional 191
▁conspir 191
▁crown 191
▁depth 191
▁exposure 191
▁herself 191
▁limits 191
▁photo 191
▁reconstruction 191
▁suit 191
▁transit 191
atra 190
cks 190
enders 190
hum 190
▁amaz 190
▁crowd 190
▁entertainment 190
▁exhib 190
▁featuring 190
▁kay 190
▁panel 190
▁pictures 190
▁prob 190
▁ruth 190
▁weapon 190
83 189
gn 189
▁grass 189
▁instruments 189
▁lect 189
▁manage 189
▁personality 189
▁publication 189
▁tanks 189
▁transition 189
▁transmission 189
lywood 188
owed 188
▁appointment 188
▁frame 188
▁operate 188
▁polar 188
▁ratio 188
▁subsc 188
▁twent 188
▁writes 188
1516 187
ker 187
§ 187
▁comedy 187
▁dry 187
▁et 187
▁py 187
▁rece 187
▁replaced 187
▁sha 187
▁yield 187
fc 186
ios 186
▁assumed 186
▁coinc 186
▁commonwealth 186
▁han 186
▁occurred 186
▁sees 186
▁spectrum 186
▁stayed 186
▁sweet 186
archy 185
oo 185
rup 185
▁arrival 185
▁blow 185
▁combination 185
▁ends 185
▁founding 185
▁latin 185
▁mcc 185
▁naz 185
▁patrol 185
▁revol 185
▁usage 185
inter 184
tle 184
ü 184
▁cc 184
▁kap 184
▁machines 184
▁pla 184
▁poss 184
▁restoration 184
▁wealthy 184
city 183
going 183
hol 183
olog 183
▁blocks 183
▁defined 183
▁fabric 183
▁fighter 183
▁reli 183
amic 182
bc 182
ogan 182
orient 182
part 182
resp 182
ums 182
▁absol 182
▁containing 182
▁dang 182
▁grace 182
▁grave 182
▁guardian 182
▁hav 182
▁performing 182
▁routes 182
▁types 182
atively 181
front 181
ibly 181
icians 181
▁collaps 181
▁jewish 181
▁prest 181
▁stating 181
▁tool 181
▁writer 181
ensive 180
gl 180
ption 180
▁om 180
▁opposite 180
▁pond 180
▁saint 180
▁satell 180
▁spect 180
▁vide 180
anted 179
aste 179
ipp 179
iser 179
my 179
pective 179
rent 179
▁capac 179
▁coun 179
▁explan 179
▁grad 179
▁marg 179
▁opportun 179
▁ru 179
▁squad 179
▁style 179
ache 178
chen 178
cribed 178
ros 178
▁excess 178
▁gender 178
▁legisl 178
▁patient 178
▁secular 178
▁strip 178
71 177
ender 177
free 177
this 177
▁aband 177
▁behaviour 177
▁depart 177
▁fired 177
▁gaz 177
▁guer 177
▁lowest 177
▁pon 177
▁resist 177
▁saf 177
▁sevent 177
▁tony 177
cle 176
govern 176
porter 176
raph 176
used 176
▁animals 176
▁articles 176
▁bell 176
▁bos 176
▁capit 176
▁captured 176
▁customers 176
▁fed 176
▁jacques 176
▁kat 176
▁location 176
1997 175
77 175
bor 175
cer 175
chel 175
enged 175
oa 175
ugg 175
▁alien 175
▁foc 175
▁prevented 175
▁pup 175
▁pushed 175
▁scientist 175
▁som 175
agh 174
ano 174
erse 174
iar 174
ignment 174
ilding 174
mun 174
sec 174
▁accum 174
▁bottom 174
▁designated 174
▁displ 174
▁hosted 174
▁hu 174
▁ku 174
▁literature 174
▁mem 174
▁possession 174
▁rebu 174
▁techniques 174
▁uses 174
▁warriors 174
93 173
rav 173
▁adop 173
▁batt 173
▁clim 173
▁dischar 173
▁dust 173
▁earned 173
▁honey 173
▁hyp 173
▁spring 173
▁throne 173
how 172
ode 172
▁campaigns 172
▁fo 172
▁founded 172
▁gir 172
▁supports 172
▁wal 172
amine 171
cript 171
elect 171
met 171
organ 171
ples 171
ril 171
▁composed 171
▁corps 171
▁ly 171
▁math 171
▁mineral 171
▁ticket 171
61 170
agger 170
ander 170
omet 170
▁bath 170
▁boat 170
▁broadcast 170
▁dan 170
▁drag 170
▁equipped 170
▁grew 170
▁instance 170
▁mine 170
▁seventh 170
▁soft 170
▁soldier 170
▁subs 170
▁tied 170
▁victim 170
▁volunteers 170
59 169
eding 169
gress 169
lines 169
teen 169
 169
▁absence 169
▁cars 169
▁cart 169
▁damaged 169
▁doesn 169
▁flour 169
▁gif 169
▁laboratory 169
▁lim 169
▁memory 169
▁pilot 169
▁removal 169
▁store 169
▁variety 169
ivan 168
rupted 168
▁orbit 168
▁parad 168
▁straight 168
▁trigger 168
▁uncertain 168
ads 167
burg 167
eb 167
rance 167
urban 167
▁daniel 167
▁dismiss 167
▁imper 167
▁layer 167
▁permit 167
▁recognised 167
▁wolf 167
ato 166
icks 166
rian 166
uda 166
urally 166
▁angeles 166
▁closing 166
▁freight 166
▁hide 166
▁models 166
▁mostly 166
▁officially 166
▁pret 166
▁provinces 166
▁sou 166
▁tank 166
▁vow 166
aughter 165
entially 165
had 165
▁chamb 165
▁funded 165
▁kiss 165
▁parade 165
▁reviews 165
▁saints 165
▁settled 165
▁supplement 165
▁tea 165
▁viewed 165
194 164
agn 164
ief 164
ild 164
▁attorney 164
▁composer 164
▁contained 164
▁empty 164
▁exists 164
▁leaves 164
▁missing 164
▁rud 164
▁rul 164
▁sessions 164
▁string 164
▁tenure 164
abet 163
arked 163
race 163
rying 163
▁attending 163
▁describing 163
▁floor 163
▁lav 163
▁manufacturers 163
▁peninsula 163
▁promot 163
▁ranging 163
▁wild 163
98 162
ached 162
eper 162
isf 162
ola 162
read 162
thy 162
▁fest 162
▁indicate 162
▁liberty 162
▁refer 162
▁simultaneously 162
▁valuable 162
81 161
emed 161
iders 161
lect 161
▁cells 161
▁dates 161
▁determine 161
▁flows 161
▁heav 161
▁indicates 161
▁navigation 161
▁operated 161
▁specifically 161
ucing 160
val 160
▁bind 160
▁converted 160
▁copy 160
▁kath 160
▁landing 160
▁picture 160
▁residence 160
▁stages 160
▁voc 160
ider 159
ister 159
lock 159
oral 159
▁boss 159
▁bullet 159
▁chall 159
▁dress 159
▁hair 159
▁intellect 159
▁james 159
▁lyrics 159
▁obl 159
▁poet 159
▁psych 159
▁shops 159
▁situations 159
▁specified 159
▁thereafter 159
anim 158
gam 158
lay 158
nt 158
▁buried 158
▁drawing 158
▁giant 158
▁impris 158
▁lin 158
▁mainstream 158
▁netherlands 158
▁rig 158
gra 157
ills 157
itz 157
▁acquisition 157
▁adj 157
▁ancest 157
▁arranged 157
▁chose 157
▁covers 157
▁cru 157
▁departure 157
▁displayed 157
▁earliest 157
▁explicit 157
▁finan 157
▁flying 157
▁photos 157
▁serves 157
▁ther 157
▁window 157
1996 156
aga 156
illa 156
ilt 156
onment 156
tic 156
uan 156
water 156
▁buddh 156
▁desert 156
▁devoted 156
▁evolution 156
▁lady 156
▁sex 156
▁suspended 156
▁sweden 156
▁tam 156
▁tick 156
▁ul 156
▁ult 156
ady 155
ledge 155
worth 155
▁compos 155
▁defeated 155
▁essentially 155
▁executed 155
▁opt 155
▁root 155
▁sixth 155
▁stream 155
89 154
cluding 154
eed 154
igen 154
iven 154
ld 154
rief 154
vest 154
▁ast 154
▁bon 154
▁fa 154
▁kaz 154
▁lou 154
▁movie 154
▁persian 154
▁plane 154
▁rot 154
▁weekly 154
alia 153
cott 153
herent 153
load 153
oud 153
uary 153
▁ari 153
▁bott 153
▁boys 153
▁episode 153
▁forests 153
▁inner 153
▁palace 153
▁ring 153
▁themes 153
▁tob 153
▁trap 153
175 152
astern 152
gest 152
nal 152
sts 152
▁bir 152
▁contemporary 152
▁economics 152
▁edge 152
▁johnson 152
▁listed 152
▁niger 152
▁print 152
▁residential 152
▁studying 152
agu 151
enn 151
eto 151
fo 151
fs 151
ko 151
osis 151
uated 151
velop 151
ère 151
▁acres 151
▁annex 151
▁gest 151
▁lar 151
▁philippines 151
▁presents 151
▁scat 151
▁somewhat 151
▁whilst 151
▁yugoslav 151
69 150
appo 150
ipe 150
miss 150
phal 150
tering 150
▁advert 150
▁crow 150
▁equip 150
▁escaped 150
▁illust 150
▁involves 150
▁pir 150
▁resc 150
▁revival 150
▁southeast 150
▁structures 150
▁termin 150
▁viet 150
estyle 149
iet 149
igious 149
pin 149
pop 149
▁compete 149
▁czech 149
▁finished 149
▁nazi 149
▁papers 149
▁polish 149
▁shadow 149
▁unex 149
▁visitors 149
78 148
usal 148
▁abst 148
▁affili 148
▁annually 148
▁attached 148
▁attacking 148
▁immigr 148
▁lee 148
▁prefer 148
▁pu 148
▁quantum 148
▁signal 148
▁ss 148
claim 147
pi 147
room 147
▁cant 147
▁contains 147
▁enjoyed 147
▁logic 147
▁ownership 147
▁passage 147
▁prayer 147
▁rating 147
▁recip 147
▁spr 147
▁uniform 147
76 146
84 146
ech 146
eland 146
orts 146
position 146
ston 146
▁acknow 146
▁bc 146
▁bog 146
▁bridges 146
▁ideal 146
▁lights 146
▁mall 146
▁mans 146
▁originally 146
▁taiwan 146
bing 145
cha 145
ku 145
▁creative 145
▁destro 145
▁diesel 145
▁gradu 145
▁jew 145
▁jum 145
▁predomin 145
▁sail 145
▁samuel 145
▁sky 145
▁structural 145
▁thin 145
1994 144
ients 144
inal 144
range 144
related 144
▁begins 144
▁consists 144
▁crossed 144
▁helicop 144
▁noise 144
aks 143
band 143
unk 143
▁causing 143
▁exactly 143
▁furn 143
▁hitler 143
▁library 143
▁manufactured 143
▁owned 143
▁practical 143
▁readers 143
▁stadium 143
▁walls 143
aped 142
conn 142
gers 142
ru 142
zer 142
▁ble 142
▁circuit 142
▁doctrine 142
▁meets 142
▁quiet 142
▁rif 142
▁um 142
▁uss 142
▁vic 142
▁vot 142
chan 141
hest 141
hs 141
iang 141
lection 141
rence 141
▁automatic 141
▁burned 141
▁canadian 141
▁gall 141
▁plain 141
▁reporter 141
▁shop 141
▁sponsored 141
▁surrender 141
▁wear 141
99 140
▁bod 140
▁colomb 140
▁convinced 140
▁cyl 140
▁deemed 140
▁ireland 140
▁output 140
▁ped 140
▁spir 140
▁suggests 140
▁wheel 140
aces 139
haw 139
hour 139
jud 139
onia 139
ties 139
▁cam 139
▁exception 139
▁hans 139
▁instr 139
▁intern 139
▁minute 139
▁passion 139
▁scholars 139
▁theory 139
87 138
iod 138
rac 138
rew 138
ria 138
tr 138
▁anc 138
▁biological 138
▁capture 138
▁champion 138
▁domain 138
▁miles 138
▁pak 138
▁releases 138
▁remov 138
▁tight 138
ceived 137
ographic 137
orship 137
▁apparently 137
▁basket 137
▁entrance 137
▁fro 137
▁horn 137
▁ice 137
▁jack 137
▁opponent 137
▁parks 137
▁politician 137
▁succeeded 137
▁wings 137
ora 136
oti 136
oz 136
▁bombard 136
▁engine 136
▁hollywood 136
▁lam 136
▁license 136
▁merc 136
▁pair 136
▁pel 136
▁rooms 136
▁secured 136
ield 135
oda 135
run 135
utor 135
▁admiral 135
▁cab 135
▁coach 135
▁conserv 135
▁dish 135
▁dram 135
▁emot 135
▁garden 135
▁gor 135
▁pron 135
▁shan 135
1947 134
86 134
atch 134
▁archae 134
▁consistent 134
▁county 134
▁discovered 134
▁exclusively 134
▁finds 134
▁foster 134
▁functional 134
▁palm 134
▁restrict 134
▁serbia 134
▁surrounded 134
▁veter 134
1415 133
amps 133
hard 133
rell 133
▁buses 133
▁cert 133
▁discovery 133
▁dog 133
▁dominant 133
▁founder 133
▁harbour 133
▁interviews 133
▁laure 133
▁noble 133
▁pattern 133
▁triple 133
▁turns 133
▁viewers 133
▁vlad 133
1993 132
american 132
aro 132
ison 132
ques 132
roph 132
state 132
▁concent 132
▁queen 132
▁rare 132
▁stre 132
▁trail 132
115 131
arters 131
imir 131
wer 131
▁circle 131
▁comparison 131
▁engineer 131
▁oxygen 131
▁portray 131
▁properties 131
▁simon 131
▁traditionally 131
▁truck 131
▁virt 131
ette 130
greg 130
ights 130
ince 130
ipl 130
ulsion 130
▁allows 130
▁chapter 130
▁clinical 130
▁fault 130
▁mamm 130
▁musical 130
▁northe 130
▁oper 130
▁pock 130
▁restricted 130
▁separation 130
88 129
gel 129
iat 129
icient 129
rator 129
▁ath 129
▁boom 129
▁critics 129
▁discover 129
▁football 129
▁gradually 129
▁moderate 129
▁mrs 129
▁occur 129
▁organiz 129
▁player 129
▁profess 129
▁proportion 129
▁retain 129
▁suc 129
▁transl 129
▁waves 129
96 128
agre 128
cul 128
ember 128
net 128
step 128
▁asc 128
▁attracted 128
▁census 128
▁emotional 128
▁fer 128
▁historically 128
▁ille 128
▁meg 128
▁older 128
▁olympics 128
▁publ 128
▁sentence 128
▁sequence 128
▁venue 128
▁zero 128
aster 127
awa 127
ounds 127
style 127
▁cler 127
▁colour 127
▁convert 127
▁guards 127
▁gw 127
▁gy 127
▁jury 127
▁lat 127
▁lob 127
▁lod 127
▁ri 127
▁thomas 127
avel 126
estic 126
orous 126
redited 126
ulus 126
▁architecture 126
▁calendar 126
▁chile 126
▁illness 126
▁jonathan 126
▁kick 126
▁obt 126
▁sporting 126
▁tokyo 126
▁unknown 126
eu 125
ican 125
mm 125
oded 125
overs 125
pp 125
▁alb 125
▁arena 125
▁frequent 125
▁kim 125
▁luc 125
▁nov 125
▁row 125
▁seemed 125
▁survive 125
▁tit 125
▁tor 125
▁tu 125
fit 124
itch 124
president 124
urg 124
▁charter 124
▁dutch 124
▁egyptian 124
▁flat 124
▁flo 124
▁gill 124
▁hills 124
▁martin 124
▁nasa 124
▁owner 124
▁page 124
▁salt 124
▁shore 124
▁skin 124
amin 123
arus 123
lik 123
▁affair 123
▁commissioned 123
▁controls 123
▁cool 123
▁definition 123
▁dock 123
▁fut 123
▁mam 123
▁mary 123
▁mix 123
▁possibly 123
▁tip 123
▁ward 123
1948 122
ape 122
iver 122
olic 122
vant 122
▁cust 122
▁device 122
▁difficulty 122
▁dom 122
▁fix 122
▁fun 122
▁hut 122
▁kne 122
▁lesser 122
▁mak 122
▁microsoft 122
▁photographs 122
▁pric 122
▁repair 122
▁rit 122
▁tons 122
▁unlike 122
iki 121
uf 121
▁apparent 121
▁cancelled 121
▁candid 121
▁cuba 121
▁hart 121
▁haven 121
▁landmark 121
▁marshal 121
▁meas 121
▁preserv 121
▁produces 121
▁rang 121
▁recru 121
▁representation 121
▁settlements 121
▁starts 121
▁warfare 121
▁windows 121
ctic 120
heart 120
ilities 120
kin 120
pling 120
▁ages 120
▁athlet 120
▁competing 120
▁extract 120
▁gam 120
▁ghost 120
▁kids 120
▁learned 120
▁madrid 120
▁penalty 120
▁roof 120
▁speakers 120
▁tunnel 120
1971 119
1983 119
amese 119
atern 119
ife 119
lar 119
there 119
è 119
▁compar 119
▁copies 119
▁deput 119
▁dup 119
▁hung 119
▁impress 119
▁lieutenant 119
▁mete 119
▁outer 119
▁peak 119
▁resident 119
▁walking 119
ems 118
mann 118
ork 118
stan 118
▁argentina 118
▁camb 118
▁composition 118
▁donated 118
▁england 118
▁gib 118
▁metres 118
▁operators 118
▁populations 118
▁receives 118
▁serial 118
▁surviv 118
▁tall 118
▁vo 118
bus 117
cially 117
green 117
pri 117
side 117
▁behavior 117
▁charity 117
▁circular 117
▁cotton 117
▁handle 117
▁monarch 117
▁rebellion 117
▁reverse 117
▁ruler 117
▁sher 117
▁species 117
▁spons 117
▁stick 117
0000 116
ais 116
bre 116
ested 116
forced 116
yard 116
zes 116
▁calc 116
▁degrees 116
▁existed 116
▁incorpor 116
▁inn 116
▁lawrence 116
▁nas 116
▁ninet 116
▁nominated 116
▁resid 116
▁serb 116
▁studied 116
▁swiss 116
last 115
ported 115
▁approaches 115
▁aver 115
▁belgium 115
▁cloud 115
▁conventional 115
▁cord 115
▁cos 115
▁eff 115
▁eliminated 115
▁graduate 115
▁harmon 115
▁injuries 115
▁neighbor 115
bb 114
ersed 114
iac 114
lers 114
oman 114
sch 114
▁assigned 114
▁depends 114
▁dna 114
▁excav 114
▁flor 114
▁mounted 114
▁notably 114
▁rap 114
▁relative 114
▁vin 114
bank 113
pers 113
ulum 113
win 113
▁artillery 113
▁bun 113
▁canc 113
▁charles 113
▁consisting 113
▁forb 113
▁jes 113
▁jump 113
▁lake 113
▁load 113
▁mills 113
▁movies 113
▁murdered 113
▁nap 113
▁placing 113
▁por 113
▁ray 113
▁superior 113
dle 112
real 112
rier 112
▁boats 112
▁brain 112
▁chicago 112
▁lands 112
▁raf 112
▁scottish 112
▁southwest 112
▁territorial 112
94 111
anni 111
bel 111
iety 111
itt 111
making 111
teenth 111
▁cass 111
▁categ 111
▁denmark 111
▁diamond 111
▁jet 111
▁mom 111
▁scores 111
▁sequ 111
▁thunder 111
▁topics 111
▁tum 111
▁volume 111
111 110
epend 110
ograph 110
ographical 110
olition 110
phant 110
uate 110
ulf 110
vir 110
▁absolute 110
▁acquired 110
▁adjust 110
▁arch 110
▁battles 110
▁cand 110
▁diet 110
▁exclusive 110
▁expos 110
▁featured 110
▁herald 110
▁libert 110
▁multi 110
▁passes 110
▁raid 110
▁reputation 110
▁tan 110
▁updated 110
cious 109
clos 109
cro 109
ographer 109
put 109
▁aged 109
▁caribbean 109
▁christmas 109
▁classified 109
▁ere 109
▁gil 109
▁humans 109
▁intellig 109
▁nik 109
▁philip 109
▁popularity 109
▁prol 109
▁sacred 109
aire 108
estab 108
ethe 108
igr 108
ipped 108
iro 108
kir 108
ocracy 108
si 108
tern 108
zh 108
▁drama 108
▁enforce 108
▁frequently 108
▁fur 108
▁horses 108
▁indones 108
▁junior 108
▁ky 108
▁leon 108
▁motors 108
▁picked 108
▁quest 108
▁regardless 108
▁republ 108
▁sole 108
▁temporarily 108
arr 107
cluded 107
inte 107
oes 107
wart 107
▁concentration 107
▁designs 107
▁lag 107
▁landed 107
▁mexico 107
▁mh 107
▁michel 107
▁norway 107
▁situated 107
▁squ 107
▁ware 107
apt 106
eller 106
erg 106
ether 106
rection 106
ucks 106
ulous 106
while 106
▁assisted 106
▁bou 106
▁civ 106
▁compound 106
▁hidden 106
▁len 106
▁relig 106
▁retreat 106
▁studio 106
aba 105
bert 105
bul 105
engers 105
igan 105
inity 105
no 105
occ 105
rench 105
▁archaeological 105
▁catch 105
▁champ 105
▁fifteen 105
▁freed 105
▁mars 105
▁mirror 105
▁optical 105
▁ranked 105
▁resp 105
▁scotland 105
▁studios 105
▁sydney 105
▁trials 105
▁winter 105
1968 104
79 104
fr 104
mas 104
mb 104
ologists 104
rael 104
▁absor 104
▁architect 104
▁collections 104
▁convicted 104
▁describe 104
▁fib 104
▁invent 104
▁jurisdiction 104
▁native 104
▁ohio 104
▁underground 104
▁user 104
aa 103
ager 103
away 103
etic 103
ords 103
page 103
stone 103
▁corp 103
▁gear 103
▁legislature 103
▁persu 103
▁pilots 103
▁precip 103
▁qualified 103
▁statistical 103
aign 102
bers 102
fast 102
km 102
oning 102
rill 102
rist 102
▁conquest 102
▁convent 102
▁hockey 102
▁jose 102
▁ost 102
▁rounds 102
▁tower 102
97 101
ason 101
▁arriving 101
▁colonel 101
▁detect 101
▁dramatic 101
▁fleet 101
▁incorporated 101
▁kennedy 101
▁landscape 101
▁merger 101
▁pac 101
▁resigned 101
▁switzerland 101
▁texas 101
911 100
prod 100
rates 100
vard 100
ysis 100
▁associate 100
▁boundaries 100
▁carn 100
▁controversy 100
▁criticized 100
▁dir 100
▁firing 100
▁independently 100
▁michigan 100
▁nerv 100
▁requiring 100
▁rom 100
▁settle 100
▁snow 100
▁typical 100
▁venez 100
▁wre 100
1979 99
ateg 99
chers 99
iful 99
olly 99
ox 99
▁dawn 99
▁educated 99
▁electrical 99
▁haw 99
▁interpretation 99
▁penn 99
▁prim 99
▁rh 99
▁separated 99
▁sib 99
▁stor 99
▁ultimate 99
▁vers 99
1956 98
closed 98
oma 98
ouses 98
scale 98
wind 98
▁bars 98
▁birds 98
▁carries 98
▁detroit 98
▁elementary 98
▁encoun 98
▁hay 98
▁lux 98
▁marath 98
▁measured 98
▁oce 98
▁phenomenon 98
▁pin 98
▁restored 98
▁tracks 98
1988 97
aki 97
aper 97
ensity 97
ouse 97
rise 97
serv 97
week 97
▁anal 97
▁catholic 97
▁database 97
▁empire 97
▁ethiop 97
▁improvements 97
▁ju 97
▁manual 97
▁patt 97
▁relationships 97
▁rip 97
▁segment 97
▁shell 97
ado 96
fted 96
general 96
iger 96
ortion 96
oven 96
view 96
▁accompan 96
▁adam 96
▁appearing 96
▁bears 96
▁brig 96
▁classical 96
▁distinct 96
▁eleven 96
▁flew 96
▁gig 96
▁grade 96
▁hunt 96
▁miller 96
▁pole 96
▁promin 96
▁publications 96
▁reaches 96
▁stanley 96
▁symptoms 96
cription 95
enge 95
isp 95
las 95
oper 95
roll 95
▁agent 95
▁ax 95
▁capita 95
▁forming 95
▁guinea 95
▁neck 95
▁oldest 95
▁patent 95
▁recomm 95
▁tells 95
hetic 94
ogue 94
rors 94
ules 94
▁adventure 94
▁armies 94
▁axis 94
▁casual 94
▁clock 94
▁consequently 94
▁fm 94
▁gren 94
▁hits 94
▁lifetime 94
▁predecessor 94
▁requ 94
▁retained 94
▁retire 94
▁slight 94
acher 93
asion 93
japan 93
ogle 93
pher 93
rig 93
uin 93
ün 93
▁accurate 93
▁bapt 93
▁distinction 93
▁finish 93
▁neutral 93
▁normally 93
▁oscar 93
▁performances 93
▁rect 93
▁rocket 93
▁submarine 93
din 92
eta 92
inch 92
rick 92
sat 92
tor 92
▁crash 92
▁cultures 92
▁exact 92
▁formula 92
▁maintains 92
▁parallel 92
▁plat 92
▁purchased 92
▁que 92
▁sed 92
▁sod 92
▁substit 92
▁voices 92
135 91
anian 91
col 91
core 91
hammad 91
ilit 91
iller 91
isa 91
ml 91
ocol 91
rey 91
star 91
ucky 91
uy 91
ür 91
▁attendance 91
▁champions 91
▁clin 91
▁clothing 91
▁competitions 91
▁credited 91
▁guy 91
▁instrumental 91
▁lac 91
▁merch 91
▁mk 91
▁sung 91
▁tun 91
▁vit 91
acts 90
esc 90
gle 90
mp 90
olds 90
tes 90
uced 90
umin 90
▁admir 90
▁altern 90
▁cauc 90
▁characters 90
▁childhood 90
▁colony 90
▁croat 90
▁documentary 90
▁goddess 90
▁interstate 90
▁loyal 90
▁malays 90
▁modified 90
▁myth 90
▁ow 90
▁preferred 90
▁preservation 90
▁rod 90
▁wildlife 90
alth 89
elected 89
hot 89
jour 89
pass 89
ternal 89
vas 89
▁adapt 89
▁ced 89
▁concentrated 89
▁flu 89
▁fortune 89
▁frontier 89
▁interpre 89
▁lamb 89
▁lasted 89
▁maxim 89
▁periods 89
▁rol 89
1981 88
itudes 88
mat 88
oly 88
ori 88
rus 88
stein 88
uces 88
ument 88
works 88
▁chart 88
▁conversion 88
▁eighth 88
▁evolved 88
▁feder 88
▁fewer 88
▁folk 88
▁municipality 88
▁myster 88
▁pages 88
▁pod 88
▁printing 88
▁siege 88
▁singer 88
▁sultan 88
▁surround 88
▁swing 88
1967 87
bour 87
cut 87
dem 87
ission 87
just 87
known 87
order 87
other 87
sel 87
▁alternate 87
▁ambass 87
▁andrew 87
▁baby 87
▁craft 87
▁dc 87
▁eas 87
▁hell 87
▁lig 87
▁ni 87
▁nun 87
▁stephen 87
aught 86
compass 86
enger 86
gue 86
inner 86
ival 86
ux 86
vision 86
▁exile 86
▁experien 86
▁fab 86
▁files 86
▁gay 86
▁grav 86
▁hen 86
▁holiday 86
▁mile 86
▁opin 86
▁phot 86
appro 85
eenth 85
eing 85
elle 85
human 85
mod 85
orter 85
▁dogs 85
▁extensively 85
▁illinois 85
▁kirk 85
▁mixed 85
▁norwegian 85
▁prod 85
▁replacement 85
▁wins 85
ners 84
strong 84
▁appropri 84
▁estates 84
▁harvard 84
▁kl 84
▁lith 84
▁ny 84
▁observation 84
▁perceived 84
▁poison 84
▁temperatures 84
▁veterans 84
▁writers 84
1964 83
ellation 83
eman 83
iciency 83
irt 83
rative 83
utt 83
▁furthermore 83
▁hier 83
▁holland 83
▁legend 83
▁lun 83
▁mic 83
▁northwest 83
▁partial 83
▁plot 83
▁singing 83
▁stro 83
▁survival 83
▁tone 83
▁winds 83
▁zealand 83
cra 82
ighter 82
lete 82
ny 82
▁array 82
▁crossing 82
▁devil 82
▁edwards 82
▁notable 82
▁racial 82
▁robot 82
▁sett 82
▁spl 82
▁temperature 82
▁voiced 82
1314 81
1987 81
ella 81
ologies 81
roe 81
through 81
▁circum 81
▁color 81
▁democr 81
▁ft 81
▁inject 81
▁kon 81
▁roughly 81
▁slowly 81
▁surf 81
▁titles 81
▁wire 81
311 80
cap 80
eff 80
lish 80
mel 80
nic 80
tery 80
umes 80
ville 80
▁bern 80
▁bloom 80
▁contem 80
▁expensive 80
▁explains 80
▁neighborhood 80
▁ok 80
▁poly 80
▁soph 80
▁stein 80
▁switch 80
▁tail 80
▁victor 80
ban 79
count 79
df 79
fect 79
obile 79
oons 79
that 79
uled 79
umed 79
zo 79
¤ 79
▁beach 79
▁curren 79
▁dav 79
▁divine 79
▁dum 79
▁hired 79
▁horse 79
▁interface 79
▁mail 79
▁marvel 79
▁origins 79
▁profile 79
▁resemb 79
▁romania 79
▁successor 79
▁varieties 79
▁videos 79
▁wag 79
1949 78
1978 78
andy 78
cial 78
dal 78
ports 78
stand 78
▁alcohol 78
▁astron 78
▁chase 78
▁commentary 78
▁depending 78
▁dual 78
▁ell 78
▁hardware 78
▁lyn 78
▁portrayed 78
▁rough 78
▁sentenced 78
▁shopping 78
▁slightly 78
▁theoretical 78
▁unif 78
bey 77
but 77
iences 77
iew 77
illy 77
otes 77
oty 77
▁briefly 77
▁buff 77
▁cable 77
▁ceremon 77
▁describes 77
▁dut 77
▁experiment 77
▁henry 77
▁influ 77
▁mes 77
▁si 77
▁stores 77
▁surgery 77
▁thick 77
▁ukrainian 77
▁wit 77
aha 76
alan 76
augh 76
bro 76
first 76
intend 76
omb 76
omer 76
road 76
sky 76
uis 76
¡ 76
▁arc 76
▁clay 76
▁followers 76
▁format 76
▁gospel 76
▁influenced 76
▁manufacturer 76
▁mol 76
▁mong 76
▁neighboring 76
▁rome 76
▁suspension 76
eder 75
fun 75
made 75
nas 75
rehens 75
rine 75
sur 75
▁bands 75
▁bec 75
▁bot 75
▁carter 75
▁chronic 75
▁cloth 75
▁ford 75
▁foss 75
▁graph 75
▁lincoln 75
▁lists 75
▁metal 75
▁printed 75
▁psychological 75
▁roy 75
▁serge 75
▁visual 75
▁volumes 75
ige 74
mers 74
more 74
pes 74
they 74
tur 74
uable 74
▁adaptation 74
▁aqu 74
▁bypass 74
▁continental 74
▁flowers 74
▁genetic 74
▁giants 74
▁hug 74
▁jones 74
▁martial 74
▁masters 74
▁nobel 74
▁painting 74
▁patron 74
1953 73
anning 73
enburg 73
gate 73
hur 73
inct 73
isl 73
ologist 73
rh 73
ribed 73
▁additionally 73
▁airline 73
▁belgian 73
▁cave 73
▁characterized 73
▁client 73
▁formerly 73
▁ing 73
▁jul 73
▁lind 73
▁nom 73
▁renov 73
▁roman 73
▁withdrew 73
1986 72
adem 72
ands 72
erts 72
link 72
owski 72
oys 72
rock 72
▁adult 72
▁angels 72
▁attrib 72
▁authors 72
▁depict 72
▁feat 72
▁fif 72
▁funeral 72
▁gn 72
▁guns 72
▁kin 72
▁matt 72
▁pione 72
▁recording 72
▁tang 72
▁turk 72
▁wheels 72
▁william 72
amo 71
arest 71
flow 71
june 71
ould 71
rapped 71
rie 71
round 71
stream 71
urer 71
west 71
xic 71
▁animation 71
▁attraction 71
▁brook 71
▁bud 71
▁consort 71
▁din 71
▁divor 71
▁elizabeth 71
▁fold 71
▁fox 71
▁joe 71
▁lan 71
▁marry 71
▁meters 71
▁mini 71
▁ninth 71
▁publishing 71
▁references 71
▁specialized 71
▁torn 71
▁twin 71
▁wales 71
asy 70
cker 70
five 70
ford 70
gb 70
lan 70
raft 70
western 70
▁advant 70
▁bulgar 70
▁chron 70
▁coin 70
▁elev 70
▁exhaust 70
▁gordon 70
▁mi 70
▁olympic 70
▁survived 70
▁vocal 70
1977 69
gram 69
onymous 69
sim 69
yer 69
▁advertising 69
▁coff 69
▁dean 69
▁gran 69
▁hors 69
▁houston 69
▁injury 69
▁mixture 69
▁partially 69
▁suburb 69
▁ultim 69
1945 68
agen 68
angu 68
cal 68
chief 68
grade 68
ground 68
icles 68
iii 68
ipher 68
ixon 68
list 68
listed 68
nia 68
outh 68
reat 68
uela 68
▁arrow 68
▁bernard 68
▁brid 68
▁brigade 68
▁conqu 68
▁jim 68
▁magic 68
▁mediterranean 68
▁ore 68
▁ratings 68
▁ride 68
▁rings 68
▁rush 68
▁sax 68
aret 67
bone 67
def 67
edy 67
idal 67
mah 67
▁abolished 67
▁apost 67
▁autumn 67
▁canal 67
▁certified 67
▁comed 67
▁controversial 67
▁crus 67
▁defe 67
▁define 67
▁harris 67
▁hem 67
▁influential 67
▁merchant 67
▁metropolitan 67
▁portuguese 67
▁rolling 67
▁spell 67
▁temper 67
▁translation 67
▁winner 67
113 66
1984 66
bound 66
ilation 66
mid 66
▁accur 66
▁adults 66
▁archives 66
▁armen 66
▁athens 66
▁descent 66
▁elevated 66
▁ferry 66
▁glass 66
▁makeup 66
▁musicians 66
▁reprod 66
▁sample 66
▁sev 66
▁signature 66
▁symbols 66
▁telev 66
▁walter 66
agram 65
four 65
heim 65
oid 65
ove 65
rin 65
weight 65
▁administered 65
▁afterwards 65
▁bonus 65
▁colonies 65
▁commem 65
▁description 65
▁dun 65
▁norm 65
▁rus 65
▁scholar 65
▁vary 65
▁volunteer 65
▁washing 65
▁wells 65
1961 64
ael 64
apes 64
don 64
fore 64
iph 64
market 64
mary 64
tim 64
ube 64
▁adapted 64
▁alexander 64
▁arsen 64
▁artistic 64
▁basin 64
▁carrier 64
▁clubs 64
▁fortress 64
▁heath 64
▁hil 64
▁lane 64
▁legs 64
▁rear 64
▁teen 64
▁traveling 64
▁vincent 64
alf 63
geon 63
hus 63
maker 63
minute 63
mund 63
rison 63
uble 63
wood 63
world 63
xim 63
▁album 63
▁ans 63
▁bent 63
▁boundary 63
▁burns 63
▁catal 63
▁computers 63
▁consecutive 63
▁cour 63
▁desc 63
▁dick 63
▁dipl 63
▁fem 63
▁gust 63
▁infant 63
▁jackson 63
▁longest 63
▁partly 63
▁productions 63
▁regiment 63
▁sour 63
▁stol 63
▁sut 63
▁timber 63
1975 62
ante 62
atin 62
borne 62
key 62
othe 62
▁bird 62
▁esp 62
▁essay 62
▁hungary 62
▁morgan 62
▁operates 62
▁orleans 62
▁residing 62
▁surg 62
▁unusual 62
▁webs 62
cur 61
des 61
ergy 61
rect 61
rum 61
zing 61
▁alter 61
▁belie 61
▁belt 61
▁bronze 61
▁derived 61
▁experiments 61
▁fairly 61
▁gallery 61
▁lang 61
▁las 61
▁mich 61
▁mike 61
▁necessarily 61
▁preserved 61
▁shuttle 61
▁signals 61
▁tie 61
▁translated 61
▁tries 61
▁univers 61
▁voy 61
1857 60
ago 60
alty 60
amous 60
bat 60
erous 60
iga 60
kins 60
month 60
ogen 60
stop 60
▁abilities 60
▁ceased 60
▁chi 60
▁danish 60
▁ern 60
▁exclus 60
▁fern 60
▁infrastruct 60
▁jour 60
▁mild 60
▁oct 60
▁perman 60
▁recipient 60
▁subsidiary 60
143 59
1917 59
ball 59
like 59
pent 59
prof 59
what 59
▁activist 59
▁attributed 59
▁bact 59
▁basil 59
▁beaut 59
▁cartoon 59
▁dies 59
▁engines 59
▁francisco 59
▁gardens 59
▁inhab 59
▁locally 59
▁sympt 59
▁yard 59
1985 58
etime 58
ifer 58
inning 58
oba 58
profit 58
sal 58
thur 58
vo 58
▁abc 58
▁battery 58
▁cape 58
▁comput 58
▁finland 58
▁infer 58
▁locomotive 58
▁millenn 58
▁monument 58
▁peters 58
▁submar 58
▁vict 58
145 57
bad 57
can 57
cos 57
far 57
icien 57
iev 57
istical 57
itic 57
non 57
▁argent 57
▁atm 57
▁beliefs 57
▁classification 57
▁cogn 57
▁confused 57
▁dak 57
▁davis 57
▁irish 57
▁jon 57
▁objects 57
▁operator 57
▁orche 57
▁pict 57
▁replacing 57
▁riding 57
▁roosevelt 57
▁spaces 57
▁technique 57
▁williams 57
▁writings 57
1976 56
acon 56
ellor 56
even 56
hou 56
igo 56
lings 56
oni 56
tan 56
▁chemistry 56
▁concepts 56
▁declar 56
▁epic 56
▁feud 56
▁flash 56
▁hp 56
▁kw 56
▁les 56
▁loy 56
▁manif 56
▁photograph 56
▁recur 56
▁seal 56
▁somet 56
▁synthe 56
▁therapy 56
▁wes 56
186 55
aven 55
fran 55
gir 55
mes 55
nel 55
okes 55
onda 55
rans 55
see 55
speaking 55
▁alumn 55
▁amph 55
▁austria 55
▁bav 55
▁businessman 55
▁caf 55
▁chang 55
▁defensive 55
▁deriv 55
▁dire 55
▁error 55
▁gauge 55
▁liqu 55
▁logo 55
▁maced 55
▁mechanical 55
▁nose 55
▁oh 55
▁slave 55
▁strat 55
▁theater 55
▁vii 55
116 54
1973 54
alt 54
bas 54
ership 54
gro 54
itis 54
kee 54
kn 54
lav 54
nor 54
phan 54
track 54
writ 54
▁characteristics 54
▁erected 54
▁explor 54
▁graphics 54
▁lodge 54
▁parking 54
▁philosopher 54
▁radar 54
▁refers 54
▁struct 54
▁ue 54
▁vs 54
▁yam 54
▁yellow 54
chron 53
enc 53
ero 53
foot 53
iana 53
ito 53
ivid 53
mos 53
omen 53
onduct 53
oto 53
regular 53
tv 53
uka 53
union 53
▁cbs 53
▁cock 53
▁compilation 53
▁cult 53
▁dancing 53
▁dialect 53
▁hyper 53
▁louis 53
▁nord 53
▁pam 53
▁parl 53
▁pearl 53
▁proport 53
▁pseud 53
▁resear 53
▁soci 53
▁swedish 53
▁traveled 53
▁virginia 53
▁warri 53
165 52
1969 52
antic 52
ichi 52
lic 52
mates 52
py 52
she 52
techn 52
vert 52
when 52
yle 52
् 52
▁andre 52
▁anton 52
▁atlantic 52
▁bob 52
▁christopher 52
▁coins 52
▁commons 52
▁connects 52
▁consisted 52
▁electro 52
▁favorite 52
▁flower 52
▁frequency 52
▁gene 52
▁johann 52
▁lis 52
▁males 52
▁nob 52
▁powered 52
▁protein 52
▁rebell 52
▁thorn 52
▁towers 52
▁toy 52
▁virgin 52
117 51
141 51
abor 51
cons 51
iden 51
joy 51
lane 51
lant 51
org 51
raction 51
roid 51
▁00 51
▁anthony 51
▁argues 51
▁battal 51
▁butter 51
▁cannon 51
▁cod 51
▁dy 51
▁hebrew 51
▁hunting 51
▁kle 51
▁lakes 51
▁lords 51
▁merged 51
▁nights 51
▁paintings 51
▁patterns 51
▁phrase 51
▁tape 51
▁turb 51
▁wilson 51
▁xi 51
138 50
313 50
brit 50
ennial 50
ental 50
fare 50
ghan 50
oust 50
post 50
uge 50
▁alex 50
▁anim 50
▁bald 50
▁demolished 50
▁dor 50
▁lor 50
▁manor 50
▁observations 50
▁orange 50
▁pioneer 50
▁remix 50
▁sculpt 50
▁swimming 50
▁trek 50
▁ye 50
181 49
1951 49
from 49
group 49
iner 49
lands 49
oka 49
▁adjacent 49
▁barn 49
▁bicy 49
▁brick 49
▁caes 49
▁danc 49
▁decor 49
▁gon 49
▁hein 49
▁heir 49
▁hybrid 49
▁interpret 49
▁inters 49
▁karl 49
▁label 49
▁lew 49
▁parent 49
▁rib 49
▁slavery 49
118 48
133 48
134 48
1938 48
1965 48
aux 48
hern 48
hon 48
sex 48
stra 48
tical 48
ui 48
▁advent 48
▁alph 48
▁appearances 48
▁breeding 48
▁characteristic 48
▁climb 48
▁inhabit 48
▁josé 48
▁ll 48
▁mainland 48
▁num 48
▁russ 48
▁sarah 48
▁scott 48
▁tract 48
▁travels 48
114 47
185 47
1974 47
adow 47
aust 47
bill 47
bin 47
child 47
cia 47
idel 47
inth 47
isher 47
istry 47
oft 47
onent 47
rial 47
rict 47
rift 47
thro 47
unc 47
én 47
▁battalion 47
▁bone 47
▁carolina 47
▁coffee 47
▁conjun 47
▁dissolved 47
▁dod 47
▁fant 47
▁gamb 47
▁horror 47
▁ibm 47
▁infantry 47
▁jefferson 47
▁knock 47
▁phr 47
▁pitch 47
▁rim 47
▁spin 47
▁versions 47
▁vertical 47
137 46
139 46
166 46
375 46
ador 46
bow 46
box 46
du 46
father 46
ighth 46
kov 46
via 46
zed 46
ée 46
▁alabama 46
▁campbell 46
▁conn 46
▁consec 46
▁credits 46
▁defeating 46
▁expedition 46
▁filmed 46
▁flav 46
▁horizon 46
▁libraries 46
▁mack 46
▁mg 46
▁mole 46
▁molecular 46
▁muhammad 46
▁pant 46
▁patrick 46
▁pic 46
▁pierre 46
▁pref 46
▁radiation 46
▁seconds 46
aments 45
bec 45
disc 45
edia 45
god 45
haus 45
ski 45
spe 45
ther 45
­ 45
▁... 45
▁anch 45
▁apple 45
▁compan 45
▁counties 45
▁hydrogen 45
▁lip 45
▁nelson 45
▁oral 45
▁poem 45
▁pom 45
▁ronald 45
▁tournament 45
▁youngest 45
156 44
1933 44
after 44
eks 44
essions 44
etta 44
lished 44
mic 44
mu 44
nat 44
ollow 44
ounder 44
ova 44
piece 44
ript 44
usa 44
▁000 44
▁churches 44
▁commer 44
▁dos 44
▁filming 44
▁gym 44
▁keys 44
▁manchester 44
▁matches 44
▁mexican 44
▁pennsylvania 44
▁princ 44
▁scored 44
▁squadron 44
▁tow 44
▁universe 44
▁wooden 44
151 43
155 43
174 43
1936 43
asia 43
forms 43
ione 43
isters 43
oli 43
onents 43
orders 43
sing 43
sis 43
station 43
sup 43
« 43
▁austral 43
▁biology 43
▁chanc 43
▁designation 43
▁eggs 43
▁fifa 43
▁gi 43
▁lingu 43
▁lud 43
▁orb 43
▁plann 43
▁poetry 43
▁restaurant 43
▁sched 43
▁steam 43
1955 42
apan 42
ierra 42
ington 42
isk 42
left 42
phe 42
rob 42
sey 42
umber 42
uzz 42
és 42
▁afric 42
▁amer 42
▁compat 42
▁disorder 42
▁dj 42
▁harry 42
▁historian 42
▁hurricane 42
▁identical 42
▁incre 42
▁jersey 42
▁jur 42
▁kel 42
▁literary 42
▁marc 42
▁melbourne 42
▁peer 42
▁photographer 42
▁predecess 42
▁reed 42
▁rio 42
▁romantic 42
▁ros 42
▁ross 42
▁spacecraft 42
1959 41
anish 41
fight 41
graduate 41
mill 41
orge 41
ovakia 41
ream 41
roy 41
space 41
▁copper 41
▁delta 41
▁douglas 41
▁exerc 41
▁fried 41
▁inherited 41
▁instruction 41
▁ire 41
▁manuscript 41
▁nbc 41
▁nick 41
▁parall 41
▁parish 41
▁pig 41
▁remainder 41
▁rocks 41
▁settlers 41
▁simultane 41
▁whit 41
136 40
144 40
abel 40
acing 40
apore 40
cat 40
cor 40
ensed 40
gas 40
osa 40
publ 40
you 40
▁alumin 40
▁arn 40
▁bib 40
▁coat 40
▁hole 40
▁hood 40
▁hous 40
▁intermedi 40
▁mathematics 40
▁narrative 40
▁outdoor 40
▁pier 40
▁portions 40
▁sig 40
▁wool 40
191 39
1957 39
azz 39
del 39
enh 39
former 39
mitted 39
mont 39
orial 39
top 39
umn 39
urch 39
ware 39
¢ 39
▁antonio 39
▁burial 39
▁dictionary 39
▁electron 39
▁galax 39
▁germans 39
▁ion 39
▁pittsburgh 39
▁plate 39
▁renamed 39
▁romanian 39
▁ron 39
▁ster 39
▁succession 39
173 38
1963 38
aver 38
effic 38
gun 38
ilar 38
july 38
march 38
olia 38
ploy 38
quer 38
rote 38
san 38
south 38
speed 38
uter 38
▁apartment 38
▁commonly 38
▁comprehens 38
▁earthqu 38
▁fal 38
▁graham 38
▁housed 38
▁jama 38
▁langu 38
▁locomotives 38
▁milan 38
▁mont 38
▁physics 38
▁rarely 38
▁sie 38
▁slaves 38
▁township 38
▁tub 38
▁von 38
164 37
1939 37
ando 37
april 37
asty 37
card 37
ength 37
fir 37
gor 37
riage 37
uations 37
▁adap 37
▁administer 37
▁ale 37
▁angle 37
▁cel 37
▁chick 37
▁depicted 37
▁duke 37
▁estab 37
▁grey 37
▁hungarian 37
▁kev 37
▁marshall 37
▁paint 37
▁pairs 37
▁phenomen 37
▁plains 37
▁resour 37
▁sche 37
▁seasons 37
▁stops 37
▁swit 37
▁tennis 37
▁undergraduate 37
▁warren 37
▁wrestling 37
▁yan 37
161 36
gre 36
ifically 36
new 36
onym 36
oviet 36
ross 36
▁anth 36
▁cliff 36
▁codes 36
▁complet 36
▁concert 36
▁dat 36
▁finishing 36
▁individ 36
▁inhib 36
▁jr 36
▁kenn 36
▁magnetic 36
▁nest 36
▁occasionally 36
▁painted 36
▁portrait 36
▁restaurants 36
▁scient 36
▁taylor 36
▁testament 36
▁trim 36
146 35
178 35
189 35
1914 35
cted 35
icas 35
icial 35
ician 35
lu 35
oney 35
pit 35
poss 35
rast 35
rele 35
riev 35
ulu 35
▁aboard 35
▁antiqu 35
▁aux 35
▁carl 35
▁experimental 35
▁fred 35
▁iceland 35
▁inducted 35
▁lu 35
▁mercury 35
▁philippine 35
▁shaw 35
▁smith 35
▁sounds 35
▁spar 35
▁springs 35
▁tube 35
▁wet 35
119 34
bra 34
century 34
hall 34
idden 34
not 34
othy 34
resent 34
sized 34
tw 34
▁ampl 34
▁appo 34
▁championship 34
▁chris 34
▁francis 34
▁glasgow 34
▁jimmy 34
▁lewis 34
▁literally 34
▁municipalities 34
▁ralph 34
▁reader 34
▁roberts 34
▁stan 34
▁telesc 34
▁texts 34
▁traded 34
131 33
159 33
187 33
1944 33
1958 33
acc 33
adel 33
comp 33
face 33
fly 33
high 33
inum 33
modern 33
official 33
ograp 33
ollo 33
rane 33
rium 33
stock 33
̄ 33
▁adventures 33
▁athletics 33
▁bert 33
▁buck 33
▁cham 33
▁classic 33
▁crystal 33
▁deck 33
▁escort 33
▁fiction 33
▁fitted 33
▁kevin 33
▁laser 33
▁max 33
▁oak 33
▁steven 33
▁sug 33
▁surviving 33
▁tai 33
▁tours 33
▁woods 33
154 32
163 32
179 32
184 32
cour 32
door 32
ellig 32
ico 32
mor 32
oci 32
verse 32
▁avenue 32
▁brazilian 32
▁chem 32
▁collins 32
▁cousin 32
▁curve 32
▁denomin 32
▁drum 32
▁episodes 32
▁grandfather 32
▁jar 32
▁kra 32
▁mystery 32
▁poems 32
▁psychology 32
▁steve 32
▁victoria 32
▁zh 32
177 31
amer 31
amics 31
cules 31
hell 31
illes 31
itan 31
two 31
unct 31
▁alan 31
▁allen 31
▁auth 31
▁baker 31
▁bug 31
▁championships 31
▁couples 31
▁entertain 31
▁ful 31
▁gray 31
▁hud 31
▁lap 31
▁mul 31
▁nucle 31
▁partic 31
▁perfor 31
▁portra 31
▁random 31
▁semi 31
▁sequel 31
▁stored 31
▁theories 31
▁trophy 31
176 30
ead 30
iler 30
imensional 30
ingu 30
lam 30
mons 30
november 30
ricted 30
some 30
spec 30
vd 30
wor 30
ét 30
▁albert 30
▁anat 30
▁anderson 30
▁arizona 30
▁bac 30
▁brad 30
▁compact 30
▁dating 30
▁density 30
▁distinguish 30
▁edward 30
▁eric 30
▁exhibit 30
▁infin 30
▁jurisd 30
▁kore 30
▁lon 30
▁luis 30
▁mend 30
▁originated 30
▁phill 30
▁phosph 30
▁scout 30
▁shir 30
▁thom 30
▁vern 30
▁worn 30
147 29
149 29
167 29
183 29
199798 29
cover 29
fan 29
hill 29
inet 29
january 29
mond 29
ogn 29
ouri 29
pol 29
raine 29
tel 29
uer 29
zi 29
▁beer 29
▁buffalo 29
▁colon 29
▁columbia 29
▁companion 29
▁empt 29
▁honorary 29
▁iowa 29
▁lunar 29
▁philosophical 29
▁swim 29
▁toronto 29
▁typically 29
▁wrest 29
▁yards 29
188 28
aware 28
cin 28
dd 28
dist 28
icle 28
idency 28
iko 28
issue 28
lad 28
lah 28
low 28
master 28
oker 28
otte 28
september 28
sil 28
urers 28
uries 28
word 28
▁arabic 28
▁cav 28
▁cele 28
▁cer 28
▁duc 28
▁dvd 28
▁gard 28
▁habitat 28
▁harbor 28
▁liver 28
▁maine 28
▁nfl 28
▁pale 28
▁recept 28
▁robin 28
▁shorter 28
▁thompson 28
▁unsuccessful 28
▁volunte 28
148 27
171 27
1919 27
acent 27
christ 27
dan 27
ertain 27
found 27
hom 27
lee 27
lord 27
oir 27
ör 27
▁anchor 27
▁biography 27
▁boston 27
▁brit 27
▁buc 27
▁chest 27
▁colors 27
▁compounds 27
▁cot 27
▁cryst 27
▁diff 27
▁downtown 27
▁dynasty 27
▁emperor 27
▁historians 27
▁jerry 27
▁lem 27
▁og 27
▁osc 27
▁phen 27
▁programming 27
▁prototype 27
▁sculpture 27
▁writ 27
153 26
1946 26
1966 26
ety 26
every 26
mart 26
october 26
phone 26
ré 26
sam 26
utation 26
wheel 26
▁attor 26
▁cann 26
▁chess 26
▁chip 26
▁connecticut 26
▁controvers 26
▁dave 26
▁dol 26
▁elevation 26
▁ey 26
▁hammer 26
▁intermediate 26
▁maps 26
▁massachusetts 26
▁mcl 26
▁nash 26
▁oxford 26
▁pope 26
▁premi 26
▁probability 26
▁ranges 26
▁tak 26
▁vector 26
415 25
apse 25
attan 25
break 25
bruary 25
cca 25
cht 25
dam 25
dire 25
holm 25
isition 25
lex 25
lit 25
lived 25
mount 25
odes 25
ooth 25
opes 25
poses 25
pton 25
rot 25
rub 25
▁aber 25
▁anten 25
▁approxim 25
▁bever 25
▁breed 25
▁christians 25
▁cleveland 25
▁concerts 25
▁disk 25
▁doc 25
▁eagle 25
▁ernest 25
▁fc 25
▁gabri 25
▁geor 25
▁guine 25
▁hig 25
▁marie 25
▁mast 25
▁mck 25
▁mold 25
▁moore 25
▁occurs 25
▁ov 25
▁partn 25
▁phoenix 25
▁prefect 25
▁server 25
▁strings 25
▁tissue 25
▁trinity 25
▁tropical 25
ashion 24
ateur 24
brid 24
gian 24
hib 24
iament 24
itled 24
lie 24
naissance 24
olf 24
rical 24
ste 24
ween 24
wh 24
which 24
▁acid 24
▁bish 24
▁colorado 24
▁comic 24
▁decom 24
▁disband 24
▁fluid 24
▁hunter 24
▁ian 24
▁indust 24
▁jenn 24
▁leop 24
▁margaret 24
▁muscle 24
▁myst 24
▁neuro 24
▁orthodox 24
▁philadelphia 24
▁pink 24
▁polyn 24
▁tales 24
▁theore 24
▁tol 24
▁unus 24
▁veh 24
▁warner 24
1918 23
314 23
anne 23
hist 23
icular 23
intern 23
orus 23
pie 23
rons 23
went 23
 23
▁alfred 23
▁animated 23
▁boeing 23
▁brun 23
▁displays 23
▁femin 23
▁headqu 23
▁hob 23
▁junction 23
▁landsc 23
▁median 23
▁miami 23
▁nephe 23
▁newton 23
▁offic 23
▁oregon 23
▁pi 23
▁radi 23
▁railroad 23
▁rand 23
▁redes 23
▁sailed 23
▁scoring 23
▁susan 23
▁synd 23
▁tay 23
▁tet 23
▁transmit 23
▁tribut 23
▁versus 23
▁welsh 23
157 22
168 22
1931 22
351 22
365 22
435 22
535 22
585 22
acht 22
base 22
ben 22
ificant 22
origin 22
smith 22
tem 22
wall 22
▁anne 22
▁architectural 22
▁austrian 22
▁beam 22
▁conductor 22
▁cran 22
▁crosses 22
▁designer 22
▁diego 22
▁dragon 22
▁edited 22
▁editions 22
▁eis 22
▁equival 22
▁facult 22
▁ital 22
▁missouri 22
▁otto 22
▁princess 22
▁proteins 22
▁tomb 22
▁volcan 22
158 21
1915 21
1954 21
393 21
546 21
asons 21
built 21
coll 21
december 21
eld 21
ensively 21
ext 21
iano 21
iop 21
jack 21
lor 21
mother 21
mus 21
olis 21
olo 21
season 21
ser 21
town 21
uki 21
vement 21
who 21
written 21
▁artific 21
▁baptist 21
▁caus 21
▁chann 21
▁charlie 21
▁cole 21
▁craw 21
▁dublin 21
▁edinburgh 21
▁golf 21
▁ivan 21
▁juan 21
▁matrix 21
▁matthew 21
▁monte 21
▁musician 21
▁ot 21
▁oz 21
▁pruss 21
▁reconstr 21
▁ridge 21
▁rifle 21
▁ryan 21
▁seattle 21
▁sic 21
▁starred 21
▁variation 21
▁vienna 21
▁walker 21
▁wol 21
169 20
1935 20
341 20
354 20
359 20
514 20
575 20
615 20
993 20
aku 20
ardo 20
bach 20
elli 20
gree 20
idd 20
istol 20
oria 20
oro 20
phas 20
rapy 20
spring 20
sub 20
thing 20
type 20
winning 20
writer 20
▁barry 20
▁behav 20
▁distingu 20
▁gree 20
▁hawaii 20
▁hurric 20
▁hypothes 20
▁jeff 20
▁maria 20
▁napoleon 20
▁nevada 20
▁nicholas 20
▁physician 20
▁recordings 20
▁robinson 20
▁stere 20
▁subt 20
343 19
345 19
355 19
376 19
515 19
968 19
aser 19
aters 19
bridge 19
gon 19
hod 19
icide 19
incinnati 19
language 19
life 19
lou 19
mate 19
omic 19
reen 19
stad 19
stood 19
tre 19
▁aired 19
▁alexand 19
▁atmosp 19
▁bart 19
▁carlos 19
▁cath 19
▁chur 19
▁cris 19
▁cros 19
▁equation 19
▁franchise 19
▁genre 19
▁indiana 19
▁influences 19
▁keith 19
▁minnesota 19
▁particles 19
▁photography 19
▁pine 19
▁plaza 19
▁rebuilt 19
▁rugby 19
▁southe 19
▁ted 19
▁touring 19
▁triang 19
▁— 19
315 18
335 18
356 18
381 18
445 18
588 18
599 18
967 18
alb 18
alo 18
august 18
craft 18
dest 18
fil 18
gart 18
helm 18
icon 18
igration 18
iration 18
ista 18
mot 18
obi 18
onian 18
only 18
original 18
pen 18
sequ 18
▁castle 18
▁chap 18
▁deer 18
▁dennis 18
▁descend 18
▁dise 18
▁distinctive 18
▁envir 18
▁grove 18
▁histor 18
▁illustrated 18
▁mathematical 18
▁medieval 18
▁memb 18
▁mitchell 18
▁montreal 18
▁neil 18
▁quad 18
▁racing 18
▁recre 18
▁roger 18
▁spa 18
▁tale 18
▁tourn 18
▁variations 18
▁verb 18
▁yug 18
& 17
1943 17
316 17
363 17
384 17
448 17
475 17
547 17
614 17
also 17
apers 17
appe 17
ationally 17
big 17
die 17
eton 17
ffic 17
iques 17
leg 17
lon 17
nik 17
orpor 17
oster 17
psy 17
sea 17
second 17
tom 17
ucle 17
vol 17
± 17
▁angl 17
▁anthrop 17
▁archive 17
▁benn 17
▁cemetery 17
▁chlor 17
▁chrom 17
▁fict 17
▁finals 17
▁franklin 17
▁greg 17
▁hip 17
▁jac 17
▁kansas 17
▁madison 17
▁nether 17
▁novels 17
▁pear 17
▁stad 17
▁terry 17
▁torped 17
▁wisconsin 17
▁é 17
1441 16
331 16
455 16
556 16
764 16
875 16
888 16
915 16
aho 16
bast 16
bet 16
boy 16
dis 16
hens 16
north 16
sol 16
udes 16
vious 16
wig 16
▁albums 16
▁alco 16
▁botan 16
▁boulevard 16
▁brian 16
▁butler 16
▁datab 16
▁dou 16
▁drums 16
▁duo 16
▁egg 16
▁females 16
▁glac 16
▁innings 16
▁interp 16
▁maryland 16
▁memoir 16
▁morn 16
▁nel 16
▁ontario 16
▁paren 16
▁pont 16
▁races 16
▁sket 16
▁slav 16
▁surn 16
▁syndrome 16
1114 15
1416 15
1511 15
1934 15
1937 15
1⁄ 15
334 15
357 15
414 15
419 15
449 15
451 15
497 15
534 15
631 15
685 15
687 15
719 15
845 15
abeth 15
adian 15
ambig 15
ample 15
apolis 15
boards 15
burn 15
cell 15
common 15
cop 15
cult 15
donald 15
esis 15
europe 15
german 15
inem 15
itzer 15
mac 15
mag 15
oard 15
ready 15
ricult 15
ridge 15
sect 15
trans 15
united 15
wick 15
▁agricult 15
▁alberta 15
▁bachelor 15
▁birmingham 15
▁bruce 15
▁discontin 15
▁encyclop 15
▁hamp 15
▁herbert 15
▁humid 15
▁intel 15
▁kentucky 15
▁marsh 15
▁mechanics 15
▁monastery 15
▁mov 15
▁nba 15
▁palmer 15
▁publisher 15
▁publishers 15
▁solo 15
▁symphony 15
▁vari 15
▁westminster 15
▁yorkshire 15
339 14
364 14
369 14
383 14
385 14
386 14
468 14
477 14
485 14
488 14
554 14
555 14
611 14
657 14
695 14
769 14
854 14
935 14
avia 14
change 14
dor 14
euro 14
ido 14
lett 14
present 14
reek 14
rett 14
soc 14
stre 14
three 14
ye 14
▁adams 14
▁bren 14
▁broadcasts 14
▁canton 14
▁evangel 14
▁finnish 14
▁gab 14
▁harvey 14
▁independ 14
▁init 14
▁invented 14
▁lear 14
▁metrop 14
▁pedro 14
▁psy 14
▁stevens 14
▁surv 14
▁variable 14
▁victorian 14
▁vinc 14
▁violin 14
1899 13
317 13
318 13
319 13
333 13
338 13
348 13
358 13
373 13
389 13
434 13
447 13
458 13
495 13
499 13
533 13
655 13
688 13
743 13
846 13
917 13
anny 13
aska 13
berry 13
bes 13
bury 13
eas 13
enez 13
enz 13
icut 13
imens 13
inson 13
jor 13
nell 13
omm 13
oren 13
pel 13
rome 13
shire 13
ture 13
tz 13
univers 13
vet 13
zil 13
́ 13
▁bishops 13
▁bobby 13
▁cambridge 13
▁canon 13
▁charts 13
▁chic 13
▁clark 13
▁delaware 13
▁dif 13
▁hispanic 13
▁interchange 13
▁jane 13
▁johnny 13
▁leo 13
▁louisiana 13
▁luther 13
▁mythology 13
▁occ 13
▁occas 13
▁orn 13
▁painter 13
▁penins 13
▁pie 13
▁renaissance 13
▁repr 13
▁rober 13
▁spider 13
▁styles 13
▁venice 13
1417 12
1776 12
1893 12
374 12
394 12
397 12
399 12
431 12
433 12
437 12
466 12
467 12
493 12
557 12
573 12
584 12
595 12
647 12
675 12
698 12
741 12
746 12
785 12
811 12
ahl 12
bean 12
boat 12
cre 12
cycl 12
final 12
gely 12
gus 12
iforn 12
inese 12
iversary 12
know 12
live 12
main 12
norm 12
pres 12
utive 12
 12
▁alice 12
▁anglo 12
▁archbishop 12
▁arnold 12
▁autobi 12
▁baltimore 12
▁bishop 12
▁bry 12
▁cardinal 12
▁carol 12
▁christianity 12
▁circumst 12
▁dakota 12
▁expans 12
▁famil 12
▁florence 12
▁graduated 12
▁harrison 12
▁kent 12
▁loop 12
▁oliver 12
▁opera 12
▁pian 12
▁quart 12
▁queens 12
▁relocated 12
▁rhythm 12
▁rocky 12
▁rug 12
▁ski 12
▁typ 12
00, 11
1618 11
1941 11
337 11
344 11
368 11
377 11
387 11
411 11
417 11
453 11
465 11
487 11
491 11
498 11
543 11
574 11
576 11
587 11
636 11
644 11
653 11
711 11
717 11
777 11
934 11
939 11
976 11
988 11
about 11
ailand 11
best 11
east 11
ello 11
gold 11
icance 11
including 11
oen 11
omot 11
sterdam 11
third 11
® 11
▁alaska 11
▁amateur 11
▁arthur 11
▁basketball 11
▁bible 11
▁canad 11
▁constr 11
▁cort 11
▁craig 11
▁evans 11
▁fantasy 11
▁frederick 11
▁gary 11
▁geomet 11
▁hamilton 11
▁helen 11
▁lanc 11
▁liz 11
▁lloyd 11
▁locomot 11
▁olymp 11
▁peng 11
▁phon 11
▁pitcher 11
▁protestant 11
▁raymond 11
▁ry 11
▁schol 11
▁tennessee 11
▁toured 11
▁turner 11
▁variant 11
1418 10
1517 10
336 10
349 10
353 10
379 10
441 10
456 10
474 10
476 10
479 10
484 10
494 10
564 10
565 10
579 10
586 10
619 10
635 10
669 10
674 10
676 10
716 10
747 10
756 10
783 10
833 10
835 10
914 10
951 10
981 10
alph 10
auge 10
enna 10
famil 10
george 10
inction 10
los 10
medi 10
music 10
odore 10
opy 10
overty 10
paul 10
raham 10
rogen 10
though 10
ufact 10
 10
― 10
▁alphabet 10
▁barbara 10
▁baseball 10
▁berkeley 10
▁blo 10
▁bowl 10
▁canyon 10
▁chapel 10
▁charl 10
▁clan 10
▁columb 10
▁competed 10
▁cruis 10
▁diam 10
▁ensemb 10
▁fitz 10
▁gregory 10
▁guild 10
▁harold 10
▁intersection 10
▁larry 10
▁legion 10
▁licensed 10
▁magazines 10
▁manhattan 10
▁nich 10
▁orchestra 10
▁perry 10
▁pist 10
▁rick 10
▁romans 10
▁scot 10
▁soccer 10
▁sty 10
▁unsuccess 10
▁wayne 10
▁wy 10
1518 9
19798 9
346 9
367 9
418 9
457 9
483 9
519 9
545 9
551 9
589 9
596 9
598 9
618 9
633 9
645 9
658 9
661 9
665 9
678 9
684 9
686 9
715 9
744 9
755 9
758 9
775 9
787 9
788 9
819 9
871 9
898 9
943 9
946 9
948 9
973 9
994 9
agonist 9
annel 9
eric 9
fm 9
folk 9
gin 9
grand 9
illo 9
liest 9
orph 9
ovak 9
shaped 9
sou 9
uther 9
ön 9
▁baron 9
▁brooklyn 9
▁cous 9
▁cox 9
▁crypt 9
▁eliz 9
▁ferr 9
▁friedrich 9
▁knight 9
▁linear 9
▁mississippi 9
▁monaster 9
▁murphy 9
▁neo 9
▁ottoman 9
▁oxy 9
▁pub 9
▁recreation 9
▁runner 9
▁russell 9
▁santa 9
▁stewart 9
▁swed 9
▁ukrain 9
▁varies 9
1113 8
1355 8
1777 8
1848 8
18571947 8
1894 8
1897 8
388 8
391 8
398 8
438 8
439 8
444 8
454 8
459 8
473 8
486 8
496 8
511 8
537 8
539 8
541 8
544 8
549 8
553 8
569 8
659 8
671 8
677 8
693 8
696 8
699 8
733 8
738 8
739 8
765 8
773 8
776 8
813 8
838 8
855 8
857 8
865 8
879 8
883 8
885 8
891 8
894 8
899 8
953 8
963 8
984 8
987 8
aco 8
bie 8
bol 8
cular 8
design 8
endar 8
gio 8
hero 8
hire 8
iley 8
ingham 8
nie 8
phil 8
portun 8
rix 8
size 8
undred 8
whe 8
wich 8
स 8
▁0000 8
▁alf 8
▁alpha 8
▁bened 8
▁cem 8
▁chel 8
▁configuration 8
▁discontinued 8
▁ferdinand 8
▁frances 8
▁freder 8
▁glas 8
▁hend 8
▁henri 8
▁lex 8
▁montgomery 8
▁ncaa 8
▁nickn 8
▁norman 8
▁philosoph 8
▁richmond 8
▁subdiv 8
▁vegas 8
▁vert 8
▁villa 8
▁winn 8
1411 7
1419 7
1719 7
1789 7
1865 7
1871 7
1873 7
1874 7
347 7
361 7
443 7
461 7
469 7
517 7
536 7
538 7
548 7
561 7
567 7
577 7
597 7
637 7
654 7
667 7
668 7
673 7
681 7
694 7
737 7
748 7
757 7
794 7
795 7
797 7
815 7
816 7
818 7
831 7
859 7
893 7
895 7
961 7
965 7
971 7
979 7
983 7
995 7
997 7
999 7
aily 7
although 7
atherine 7
attle 7
cow 7
dale 7
div 7
dou 7
gard 7
gow 7
haust 7
john 7
love 7
oct 7
older 7
osen 7
pecially 7
pool 7
ptember 7
rastruct 7
reng 7
sburg 7
such 7
í 7
▁arkansas 7
▁austin 7
▁cathedral 7
▁catherine 7
▁caval 7
▁dallas 7
▁descendants 7
▁descript 7
▁franç 7
▁guitarist 7
▁hist 7
▁hou 7
▁jazz 7
▁julian 7
▁leonard 7
▁liverpool 7
▁mason 7
▁mathematic 7
▁morris 7
▁neut 7
▁nev 7
▁ott 7
▁philipp 7
▁prix 7
▁somers 7
▁stev 7
▁stuart 7
▁sull 7
▁variants 7
▁voltage 7
1175 6
1311 6
1611 6
1619 6
1786 6
1817 6
1911 6
19919 6
199596 6
371 6
378 6
395 6
3978 6
436 6
463 6
471 6
4988 6
518 6
531 6
568 6
578 6
638 6
639 6
646 6
648 6
656 6
689 6
697 6
714 6
718 6
734 6
745 6
768 6
778 6
793 6
841 6
864 6
866 6
868 6
874 6
916 6
933 6
936 6
941 6
9411 6
944 6
956 6
957 6
958 6
975 6
amental 6
borough 6
ellow 6
fre 6
gie 6
good 6
ieties 6
inus 6
nov 6
olph 6
owa 6
phy 6
pread 6
sv 6
terior 6
walk 6
wegian 6
yll 6
ylv 6
 6
ñ 6
​ 6
‎ 6
▁accom 6
▁affiliate 6
▁algorithm 6
▁analog 6
▁andy 6
▁athletic 6
▁bey 6
▁brew 6
▁charlotte 6
▁comics 6
▁crater 6
▁crim 6
▁dale 6
▁diameter 6
▁eug 6
▁fictional 6
▁font 6
▁footballer 6
▁grammar 6
▁guar 6
▁hampshire 6
▁hughes 6
▁latino 6
▁manh 6
▁nickname 6
▁nort 6
▁oklahoma 6
▁parker 6
▁peaked 6
▁peop 6
▁prote 6
▁singles 6
▁stud 6
▁sult 6
▁symph 6
▁terminus 6
▁utah 6
▁wright 6
1153 5
1169 5
1194 5
1464 5
1471 5
1644 5
1746 5
1773 5
1794 5
1818 5
1835 5
1841 5
1854 5
1863 5
1884 5
1885 5
1887 5
1896 5
1913 5
194748 5
199697 5
19971998 5
3487 5
366 5
3666 5
413 5
416 5
4197 5
4555 5
4935 5
516 5
5334 5
558 5
559 5
566 5
583 5
61679 5
617 5
641 5
649 5
651 5
664 5
6789 5
679 5
691 5
713 5
735 5
749 5
759 5
766 5
779 5
817 5
844 5
847 5
849 5
851 5
853 5
869 5
877 5
878 5
8798 5
8989 5
937 5
9391 5
945 5
947 5
985 5
ategy 5
aug 5
dney 5
ensis 5
history 5
iants 5
illery 5
incorpor 5
lington 5
mich 5
odox 5
olitan 5
onstr 5
record 5
released 5
rete 5
ussion 5
wealth 5
å 5
ệ 5
‍ 5
▁barb 5
▁bass 5
▁blues 5
▁cavalry 5
▁convin 5
▁disney 5
▁eldest 5
▁frequ 5
▁griff 5
▁herit 5
▁hispan 5
▁householder 5
▁hull 5
▁ibn 5
▁jason 5
▁joan 5
▁juris 5
▁keyboard 5
▁morph 5
▁nhl 5
▁orth 5
▁perc 5
▁playoff 5
▁premiered 5
▁quebec 5
▁rhy 5
▁shakespeare 5
▁symmet 5
▁theology 5
▁trig 5
▁unincorporated 5
▁vancouver 5
▁vect 5
▁verse 5
1111 4
1141 4
1155 4
1315 4
1316 4
1351 4
1359 4
1375 4
1385 4
1386 4
1431 4
1434 4
151875 4
1519 4
1568 4
1671 4
1685 4
1711 4
1791 4
1815 4
1847 4
1859 4
1861 4
1864 4
1877 4
1879 4
1883 4
1916 4
193738 4
197374 4
198485 4
199394 4
3519 4
3568 4
3731 4
464 4
478 4
4841 4
4957 4
4995 4
513 4
5415 4
5767 4
581 4
594 4
6117 4
613 4
616 4
634 4
663 4
683 4
736 4
751 4
7585 4
761 4
774 4
789 4
791 4
799 4
814 4
836 4
843 4
861 4
863 4
876 4
889 4
913 4
919 4
931 4
938 4
954 4
955 4
964 4
9654 4
969 4
9851 4
989 4
991 4
996 4
anton 4
contin 4
dav 4
dro 4
enberg 4
encer 4
great 4
hann 4
idge 4
izon 4
lyn 4
mouth 4
ocy 4
onto 4
opher 4
osexual 4
otype 4
plement 4
ricts 4
rien 4
soft 4
sun 4
uese 4
ugust 4
urday 4
ø 4
सबका 4
▁algorith 4
▁anglican 4
▁behavi 4
▁berk 4
▁borough 4
▁broadway 4
▁bros 4
▁confederate 4
▁config 4
▁creek 4
▁emper 4
▁epis 4
▁guil 4
▁heavyweight 4
▁hugh 4
▁insect 4
▁lett 4
▁libr 4
▁murray 4
▁novelist 4
▁percussion 4
▁queensland 4
▁rico 4
▁xx 4
▁yale 4
1115 3
1116 3
1118 3
1133 3
1137 3
1159 3
1171 3
1173 3
1178 3
1195 3
1196 3
1313 3
1335 3
1347 3
1363 3
13868 3
1391 3
1433 3
1436 3
1445 3
1465 3
1495 3
1496 3
1589 3
1595 3
1715 3
1731 3
1766 3
1767 3
1775 3
1781 3
1785 3
1787 3
1788 3
1793 3
1845 3
1846 3
1858 3
1866 3
1869 3
1875 3
1878 3
1881 3
1898 3
19781979 3
197879 3
198788 3
1989199 3
199196 3
3155 3
36393 3
36648 3
4338 3
43719 3
4483 3
4713 3
481 3
4831 3
4894 3
5419 3
563 3
591 3
6139 3
6335 3
643 3
6493 3
6514 3
6669 3
671478 3
731 3
753 3
754 3
7553 3
7579 3
763 3
767 3
7695 3
781 3
786 3
796 3
837 3
848 3
8483 3
8577 3
858 3
867 3
8835 3
884 3
886 3
896 3
9111 3
918 3
94444 3
974 3
978 3
angel 3
bell 3
castle 3
cember 3
game 3
itect 3
iterranean 3
jpg 3
ordan 3
oslav 3
osph 3
pine 3
pson 3
ropical 3
screen 3
stown 3
sum 3
wright 3
yon 3
zech 3
 3
धम 3
मा 3
▁atlanta 3
▁bron 3
▁burg 3
▁choir 3
▁gilbert 3
▁glen 3
▁includ 3
▁manga 3
▁manus 3
▁norfolk 3
▁ottawa 3
▁portug 3
▁rangers 3
▁rhodes 3
▁soundtrack 3
▁tempor 3
▁tenn 3
▁tib 3
▁trio 3
▁veloc 3
▁vocalist 3
▁wallace 3
▁watson 3
▁welf 3
▁° 3
● 3
111156 2
11161 2
1145 2
1149 2
1167 2
1168 2
1177 2
1185 2
1191 2
13343 2
1339 2
1343 2
1345 2
1346 2
134761 2
1348 2
1356 2
1361 2
1365 2
1378 2
1379 2
1383 2
138771 2
1388 2
1394 2
1395 2
1396 2
1398 2
1413 2
1457 2
1461 2
1467 2
1468 2
1469 2
1477 2
1531 2
1533 2
15354 2
1536 2
1541 2
1545 2
1556 2
1561 2
1564 2
1565 2
157195 2
1575 2
1577 2
1581 2
1615 2
1634 2
1638 2
16394 2
16516 2
1653 2
1654 2
1659 2
1661 2
1686 2
1689 2
1694 2
1713 2
1717 2
1734 2
1735 2
173668 2
1737 2
1755 2
1773537 2
1778 2
17868 2
1811 2
181133 2
1816 2
1836 2
1837 2
1838 2
1851 2
1886 2
1891 2
19181933 2
193334 2
19341941 2
193668 2
19411945 2
194344 2
19515 2
196869 2
19697 2
197475 2
197778 2
19791985 2
19811995 2
19818 2
1986871 2
1987199 2
198789 2
198889 2
19931997 2
199496 2
19981999 2
3115 2
3144 2
3199 2
3314 2
3333 2
3335 2
3355 2
3373 2
3374 2
3375 2
3384 2
34156 2
34175 2
3418 2
3447 2
3451 2
3456 2
3477 2
3497 2
3498 2
3545 2
3548 2
3577 2
3654 2
3656 2
369913 2
37387 2
3743 2
3746 2
3769 2
3771 2
3813 2
38148 2
38158 2
3837 2
39136 2
394536 2
3948 2
3949 2
396 2
396391 2
3965 2
4139 2
4155 2
4171 2
4189456 2
4347 2
441714 2
4433 2
4434 2
4437 2
4445 2
446174 2
4465 2
44848 2
4497 2
4548 2
4617 2
4745 2
4777 2
4815 2
4847 2
4866 2
4947 2
5135 2
5138 2
5149 2
5369 2
5481 2
5545 2
5546 2
5556 2
5565 2
5578 2
557964 2
55854 2
55918 2
5667 2
5681 2
571 2
5715 2
5719 2
5743 2
5856 2
5867 2
5913 2
59165 2
5964 2
6313 2
6345 2
6354 2
6448 2
6453 2
6458 2
6459 2
6473 2
6475 2
6476 2
6477 2
6479 2
6484 2
6515 2
6519 2
6537 2
6543 2
6565 2
6568 2
666 2
6745 2
6949 2
7181 2
71934 2
7358 2
7419 2
74644 2
7511 2
75169 2
77313 2
7837 2
796587 2
81169 2
8119 2
8178359845 2
834 2
8367 2
84868 2
8513639 2
851364 2
8535 2
8541 2
8555 2
8595 2
8639 2
8747185 2
887 2
897 2
89947 2
91113 2
9111999 2
9146 2
9158 2
91955 2
91981 2
9384 2
9413 2
9444 2
9453 2
9478 2
94865 2
949 2
9553 2
95839 2
9599676953 2
9631 2
9635 2
9656 2
9656815943 2
977 2
9777 2
9816 2
9833 2
986 2
9954 2
abama 2
acre 2
allas 2
bird 2
black 2
blue 2
brook 2
ceed 2
cem 2
died 2
eley 2
erto 2
fish 2
gom 2
igin 2
itzerland 2
ondon 2
ophone 2
ought 2
oyd 2
porary 2
ranean 2
resents 2
respond 2
rovers 2
ruction 2
six 2
somet 2
stage 2
super 2
unte 2
xual 2
zona 2
 2
 2
ð 2
त 2
न 2
प 2
पर 2
ब 2
य 2
विकास 2
श 2
साथ 2
है 2
। 2
′ 2
€ 2
▁abbey 2
▁abbre 2
▁admin 2
▁algebra 2
▁belg 2
▁bic 2
▁bran 2
▁byzantine 2
▁cdp 2
▁celtic 2
▁citiz 2
▁drummer 2
▁ferdin 2
▁franch 2
▁guitar 2
▁immedi 2
▁keyboards 2
▁mathemat 2
▁napole 2
▁newsp 2
▁nova 2
▁prede 2
▁puerto 2
▁rhyth 2
▁rogers 2
▁territ 2
▁touchdown 2
▁yor 2
111116 1
111175 1
111363 1
111785 1
1117983 1
11191 1
111955 1
1131 1
11311 1
11314 1
11316 1
11336 1
1135 1
1136 1
113716 1
1139 1
11417 1
1144 1
11456 1
11458 1
1146 1
11467 1
1147 1
11477 1
1148 1
1151 1
11514 1
11518 1
1156 1
11563 1
11566 1
1157 1
11578 1
11583 1
1161 1
1163 1
1164 1
1165957 1
11677 1
11743 1
11765 1
11778 1
11783 1
117847 1
11793 1
11799 1
1183 1
11834 1
1184 1
11859 1
1186 1
1187 1
11871 1
11873 1
118977 1
11945 1
11959 1
11964 1
1197 1
11973 1
1198 1
13138 1
13151515 1
13156 1
1317 1
13176 1
13189 1
131945 1
1331 1
13313 1
1336 1
13366 1
133684 1
1337 1
13376 1
1341 1
13431 1
13461 1
134963 1
135895 1
13618 1
1363917 1
1368 1
1371 1
13713 1
1376 1
1377 1
13797 1
13799 1
138149 1
13819 1
138378 1
13843 1
1389 1
1391616 1
13917 1
13981 1
1399 1
13997 1
1414 1
14145 1
14311 1
1435 1
1438 1
14389 1
14433 1
14438 1
1446 1
1447 1
144755 1
14478169 1
1448 1
14488 1
1449 1
145164 1
1453 1
14543 1
14555 1
14566 1
14576 1
14654 1
1466 1
14667 1
14713 1
1474 1
1474518 1
147465 1
1476 1
147635 1
1478 1
14784 1
1479 1
14817 1
148195 1
1483 1
1483165 1
14834 1
1484 1
1485 1
1486 1
1488 1
14888 1
1489 1
1491 1
149134 1
14916 1
1493 1
14931 1
14939 1
1494 1
149568 1
14977 1
1499 1
14995 1
15113 1
1513 1
1514 1
151658331 1
15167 1
15177 1
151956 1
1535 1
15359 1
1538 1
15394 1
15438 1
15477 1
1549 1
15495 1
1553 1
1554 1
15551 1
1557 1
1558 1
15583 1
15584 1
1559 1
1563519 1
15661 1
15675 1
1573 1
15733 1
1576 1
157799 1
15791 1
157996 1
1584 1
1585 1
15865 1
1587 1
15915 1
15936 1
15948 1
1597 1
15976 1
15987 1
16117 1
16133 1
16168 1
16184 1
16193 1
1637 1
16384 1
1643 1
1645 1
1647 1
1648 1
1649 1
1651 1
16541 1
1655 1
165587 1
1657 1
1658 1
1661173 1
1661595 1
1665 1
1666 1
16665 1
1667 1
16675 1
1668 1
16731 1
1674 1
16745 1
1675 1
167847 1
1684 1
16847 1
16857 1
1688 1
1689176 1
16947 1
16959 1
1714 1
17149 1
17183 1
173143 1
17317 1
1733 1
1739 1
17399 1
1741 1
1744 1
17464 1
1747 1
1748 1
17486 1
17546 1
1756 1
1757 1
175766 1
17588 1
1763 1
1764 1
1765 1
17651938 1
1768 1
1773941 1
1774 1
177445 1
1776644 1
1779 1
1784 1
17875 1
17885 1
17911795 1
179196 1
1795 1
17953 1
17954 1
1796 1
1797 1
1799 1
1813 1
181375 1
18153 1
18159 1
18197 1
18198 1
1831 1
18317 1
1833 1
18365 1
1839 1
18396 1
1843 1
1844 1
184849 1
1849 1
1855 1
1857194 1
18611865 1
186119 1
1861956 1
18661 1
1867 1
1868 1
18696 1
18758 1
1876 1
18789 1
188485 1
1895 1
18956 1
189715 1
18971984 1
19111996 1
19131991 1
191516 1
191534 1
191614 1
19177 1
191819 1
19183 1
191919 1
193136 1
193313 1
193536 1
19354 1
19361938 1
19361945 1
193637 1
193638 1
193639 1
19369 1
193839 1
1939194 1
19391945 1
19394 1
19431944 1
194345 1
19435 1
19441947 1
19451979 1
194546 1
194647 1
19465 1
19471948 1
19471987 1
19474 1
194849 1
19545 1
19546 1
195758 1
19581963 1
196163 1
196175 1
19631978 1
19636 1
1963653 1
196468 1
196566 1
196667 1
1967197 1
19671971 1
19676 1
196768 1
196774 1
19681969 1
196875 1
196973 1
197353 1
19745 1
197577 1
19764 1
19771981 1
197981 1
197989 1
1981198 1
19831984 1
198384 1
198398 1
19841985 1
19841986 1
19847 1
198486 1
19851986 1
1985199 1
198586 1
19861989 1
19861993 1
198687 1
198688 1
19881991 1
19899 1
198991 1
1991199 1
19911995 1
19911998 1
199194 1
199396 1
19941995 1
19941998 1
19941999 1
199495 1
199497 1
19951999 1
199597 1
19961997 1
199698 1
19973 1
199899 1
19994 1
1⁄4 1
31117 1
3117996 1
31199 1
31318 1
3133 1
31331 1
3136 1
3141 1
3146 1
315149 1
3157 1
3158 1
3159 1
3163 1
316458 1
31653 1
3167 1
3169 1
31716 1
3177 1
3179 1
31864 1
31887 1
31889 1
3191 1
31948 1
3195 1
3197 1
31993 1
33176 1
33179 1
3319 1
33195 1
33367 1
33371 1
3339 1
3341 1
3344 1
3345 1
3351 1
3354 1
3356 1
3357 1
33586 1
336416 1
3366 1
336839 1
33748 1
3376 1
3381198 1
3385 1
338954 1
339457 1
3395 1
33965 1
3398 1
339833 1
3399 1
339935 1
34131 1
3417 1
3419 1
3437 1
3444134 1
34514 1
345375 1
3455 1
34554 1
34648 1
34659 1
34754 1
3481 1
3493 1
34933 1
3499 1
35135 1
35141 1
35153 1
3516 1
35346 1
35349 1
3537 1
3541 1
35418 1
3543 1
355195 1
3555 1
356161 1
3565 1
3574 1
3575 1
35795 1
3584 1
3589 1
3591 1
35919 1
35955 1
35994 1
3613 1
3618 1
3619 1
363363 1
3637 1
36374 1
36437 1
3644 1
36471 1
36474 1
3655 1
36554 1
365689 1
366974 1
3681 1
3683 1
3684 1
368775 1
36918 1
3699 1
369991 1
3718 1
37198 1
3733 1
3736 1
3741 1
3755 1
3756 1
3757 1
3761 1
3763 1
37658 1
3767 1
37741 1
3785 1
3794 1
37944 1
381734 1
38184 1
381883 1
38345 1
3838 1
3839 1
3843 1
38467 1
38483 1
384943 1
3858 1
3863 1
386393 1
3864 1
3867 1
3873 1
3875843 1
38774 1
3887 1
3897 1
38974 1
38975 1
38976 1
3898 1
38981 1
38983 1
38989 1
3911 1
3915 1
3917 1
3918 1
3934 1
3938 1
3945 1
39491 1
395483 1
39564 1
395917 1
3968 1
3969 1
39716 1
3975 1
3976 1
3981 1
3984 1
398475 1
398494 1
39855 1
3986 1
39869 1
3994 1
3995 1
3997 1
41116 1
4118 1
411859 1
413169 1
4133 1
4134 1
413537 1
4136 1
41387 1
41416 1
4144 1
4145 1
4147 1
415679 1
41577 1
4158 1
4163 1
4164 1
4178 1
4181 1
4183 1
4185 1
4187 1
4188 1
41886 1
4193 1
4194 1
4195 1
4196 1
41977 1
4315993 1
43173 1
433317 1
4336 1
43361 1
433896 1
4353 1
43633 1
4366 1
4377 1
4378 1
4384 1
43946 1
43964 1
4414 1
44149 1
4431 1
44477 1
4455 1
4457 1
446 1
44661 1
4471 1
4475 1
44766 1
4484 1
4486 1
4488 1
4494 1
4495 1
4514 1
4515 1
4519 1
45357 1
4543 1
4545 1
4547 1
45516 1
4554 1
4559 1
4564 1
45766 1
4585 1
4586 1
4589 1
4611 1
4616 1
4636 1
46384 1
4639 1
4655 1
4664 1
4667 1
46694 1
46711 1
46845 1
4686 1
4689 1
4693 1
4698 1
4749 1
4755 1
4759 1
4765 1
47655 1
4766 1
4774 1
4779 1
4783 1
47844 1
4787 1
47879 1
4789 1
4794 1
4795 1
47955 1
4799 1
4811 1
4813 1
4814 1
48187 1
4819 1
4834 1
4837 1
484636 1
484865 1
4849 1
4853 1
48538 1
4855 1
4859 1
4864 1
4875 1
48764 1
4884 1
4885 1
4888 1
489 1
4893 1
48994 1
4915 1
491764 1
49191 1
4936 1
49366 1
493978 1
4944 1
4945153 1
4949 1
49557 1
4958 1
49751 1
4976 1
4981159 1
4983 1
4984 1
49843 1
4985 1
49863 1
4989 1
49941 1
49981 1
4999 1
5111 1
51174 1
5133 1
5145 1
5151 1
5154 1
5165 1
51736 1
5178 1
5181 1
5187 1
5189 1
519144 1
5194 1
5195 1
5197 1
51997 1
5315 1
53175 1
531875 1
533618 1
53383 1
53388 1
5346 1
5351 1
53544 1
5364 1
536918 1
53746 1
5375 1
538417 1
5388 1
5414 1
5416 1
5433 1
5435 1
54454 1
5456 1
5458 1
5461 1
54641 1
5465 1
5469 1
5494 1
54991 1
5514474 1
551479 1
5519 1
5537 1
5548 1
5549 1
5551 1
5564 1
5566 1
5577 1
55776 1
5581 1
5587 1
5588 1
5595 1
5597 1
5598 1
5613 1
5631 1
5638 1
563887 1
5646 1
56463 1
5671 1
5679 1
5699 1
57131 1
5714 1
5758 1
5763 1
5764 1
57684 1
5775 1
5779 1
5788 1
57884 1
5795 1
5799 1
5813 1
58134 1
5816 1
5819 1
58388 1
5853 1
585313 1
5854 1
58768 1
5886 1
5891 1
5895 1
5914 1
591916 1
593 1
5936 1
5938 1
5939 1
5951 1
5954 1
5956 1
5957 1
59615 1
5963 1
5975 1
59844 1
5985 1
5989 1
6113 1
6136 1
6138 1
6154 1
6157 1
61614 1
6166 1
6168 1
6184 1
6196 1
6197 1
61989 1
6311 1
6315 1
63333 1
6338 1
6359 1
6367 1
63679 1
63685 1
6376 1
6379 1
6385 1
6389 1
6394 1
6395 1
6397 1
64375 1
6443 1
6451 1
6466 1
6467 1
6469 1
6474 1
6481 1
648196 1
64839 1
6485 1
6487 1
64887 1
6494 1
6498 1
6531 1
6545 1
65531 1
65546 1
6557 1
6558 1
65596 1
6567 1
6574 1
6577 1
65775 1
6589 1
65916 1
6593 1
6594 1
6617 1
6631 1
6637 1
6641 1
6643 1
6649 1
6665 1
6668 1
667186 1
6673 1
6675 1
6688 1
6695 1
6696 1
6715 1
67175 1
67179 1
6747 1
6751 1
67539 1
67543 1
6758 1
67611 1
6763999 1
6767 1
6775 1
6779 1
67833 1
6786 1
6788 1
6791 1
67935 1
6799 1
68113 1
6815 1
68169 1
68177 1
6848917 1
6851 1
68559 1
6858 1
6874 1
6875 1
6878 1
6883 1
6894 1
6896 1
6897 1
6918 1
69186 1
69414 1
6945 1
6948 1
6953 1
6956 1
6973 1
6977 1
6979 1
69976 1
6999 1
7148 1
7149 1
7156 1
716335 1
71749 1
7196 1
731915 1
7331 1
7344 1
7345 1
73458 1
7351 1
7365 1
7366 1
7374 1
7384 1
73847 1
7397 1
7399 1
7437 1
7446 1
746676 1
74687 1
7474 1
7486 1
7494 1
7496 1
7514 1
7515 1
7538 1
7545 1
7568 1
7573 1
7584 1
75889 1
7591 1
75936 1
7615 1
76349 1
7648 1
76488 1
7659 1
7661 1
7665 1
7678 1
7684 1
771 1
7734 1
77359 1
7738 1
7745 1
7749 1
77678 1
7768 1
7771 1
7773 1
77756 1
7783 1
77986 1
7815 1
783835 1
78386 1
7839 1
784 1
78433 1
7858 1
78636 1
7877 1
7883 1
78914 1
7911 1
79145 1
7938 1
7953 1
79554 1
7961 1
7974 1
7975 1
7979 1
7998 1
81436 1
8154 1
8155 1
8161 1
8166 1
81817 1
8198 1
8314 1
8333 1
8336 1
8343 1
8373 1
8384 1
839 1
84137 1
8431 1
8455 1
8479 1
8496 1
8537 1
8539 1
8545 1
8551 1
85531 1
8554 1
856 1
8585 1
8588 1
8619 1
86197 1
8635 1
8637 1
8646 1
8663 1
86675 1
8675 1
8676 1
8679 1
8685 1
8691 1
86911 1
8715 1
873 1
8735 1
8736 1
8755 1
8757 1
87591 1
8767 1
87687 1
8776 1
877965 1
8788 1
881 1
88116 1
8818 1
8838 1
88678 1
8873 1
8878 1
8888 1
8891 1
8898 1
8915 1
8917 1
8938 1
89444 1
8951516 1
8961 1
8973 1
8975 1
8975993781 1
8985 1
89859 1
8996 1
8997 1
8999 1
9114 1
9115 1
9131 1
9137 1
9144 1
9148 1
915155 1
9166 1
9169 1
91695 1
91744 1
9194355578 1
9195 1
91965 1
919717957 1
9198 1
9198118 1
91993 1
919971538681 1
9313 1
9314 1
9334 1
9343 1
934314 1
93546 1
93639 1
9364 1
93641 1
9371 1
93731 1
9375 1
9381 1
9385 1
938731 1
9399 1
94135 1
9414 1
9414364 1
9415855 1
94375 1
94417 1
9444395553 1
9444396789 1
94459 1
9449 1
94497998 1
94649 1
9471 1
9473 1
9474 1
947461 1
94834 1
94934 1
9495 1
94994 1
95136 1
9538 1
9546 1
9547 1
95567 1
9559 1
9573 1
959 1
9598 1
9614 1
9617 1
9619 1
961973963 1
9639 1
96444 1
9647 1
96536 1
9655 1
966 1
9674 1
9711 1
97346 1
9744 1
97456 1
9755 1
9761 1
9763 1
9765 1
9767 1
9773 1
9775 1
97936 1
9794 1
9798 1
98117 1
9815 1
9818359 1
9819 1
9834 1
98353 1
9839 1
9844 1
9845 1
9854 1
98586 1
9863 1
98647 1
986889996 1
98717 1
9876 1
9884449968 1
98847 1
988996 1
9899 1
99166 1
99331 1
9934 1
9943 1
99447 1
99571744 1
99646 1
9967 1
9969 1
9971 1
9975 1
9976 1
998 1
9987 1
9991 1
99913 1
9994388877 1
achus 1
called 1
chester 1
eign 1
eston 1
etts 1
families 1
ficult 1
iami 1
icop 1
ifornia 1
igenous 1
ilst 1
inals 1
inois 1
kyo 1
langu 1
later 1
ober 1
olid 1
osaur 1
reme 1
ricket 1
roit 1
ruit 1
song 1
theless 1
thern 1
ublin 1
uccess 1
uchy 1
utenant 1
white 1
william 1
 1
 1
¶ 1
» 1
á 1
ì 1
ón 1
ğ 1
ũ 1
̧ 1
ы 1
अपने 1
आचार 1
आत 1
आनो 1
आप 1
आपका 1
आयुष 1
ऐसा 1
क 1
करता 1
कुटुम 1
कृष 1
के 1
कोई 1
ग 1
चंद 1
चर 1
चलो 1
चा 1
चाय 1
चित 1
जगत 1
जगतगुरुम 1
जगदीश 1
जनाती 1
जिसमें 1
ञान 1
णम 1
णा 1
तः 1
तन 1
ति 1
तिजोधा 1
तीसंतिपरणसुखं 1
तु 1
तृष 1
थम 1
थान 1
दानामधम 1
दिल 1
दिव 1
दूत 1
दोस 1
धा 1
नत 1
नयन 1
नहीं 1
निहिताभियोगाः 1
परहिते 1
पैराडाइम 1
बकम 1
बीर 1
बोस 1
भद 1
भारत 1
भी 1
भेज 1
मध 1
मनसा 1
मनीषा 1
मरण 1
मादानं 1
मान 1
मानो 1
मिलाप 1
मुक 1
मुझे 1
मुद 1
मृति 1
मेधा 1
मेरे 1
मेल 1
मोक 1
यं 1
यदिदी 1
यन 1
यम 1
यात 1
यायमूलं 1
ये 1
येकार 1
र 1
रतवो 1
रतिपदा 1
रद 1
रहेगा 1
रा 1
राः 1
राधिकापुरबीरोल 1
रामीणकृषिमौसमसेवा 1
रिक 1
री 1
रेरित 1
लाए 1
लिए 1
ली 1
वंदे 1
वतः 1
वयं 1
वराज 1
वसुधैव 1
वागत 1
विज 1
विश 1
शान 1
शिवमय 1
शेख 1
षार 1
सकते 1
सन 1
सब 1
सबको 1
सिकलसेलअनीमिया 1
सुझाव 1
ह 1
हम 1
हसीना 1
हा 1
हितायाचा 1
हैं 1
हों 1
होने 1
ấ 1
ế 1
ễ 1
ị 1
ồ 1
• 1
‪ 1
‬ 1
₹ 1
▁acoust 1
▁acoustic 1
▁alge 1
▁aster 1
▁bristol 1
▁debuted 1
▁denn 1
▁diction 1
▁dioc 1
▁diocese 1
▁eddie 1
▁genus 1
▁gord 1
▁goth 1
▁guitars 1
▁hawai 1
▁hudson 1
▁inte 1
▁islander 1
▁magaz 1
▁marit 1
▁marqu 1
▁municip 1
▁orig 1
▁phoen 1
▁piano 1
▁portland 1
▁produc 1
▁restaur 1
▁sover 1
▁sulf 1
▁weap 1
▁wides 1
▁× 1
中 1
乐 1
人 1
发 1
喜 1
国 1
年 1
快 1
恭 1
新 1
民 1
祝 1
羊 1
财 1
﻿ 1
madeupword0000 0
madeupword0001 0
madeupword0002 0
madeupword0003 0
madeupword0004 0
madeupword0005 0
madeupword0006 0
